// #include "model.h"

// alignas(16) const char g_model[] = {
//   0x1c, 0x00, 0x00, 0x00, 0x54, 0x46, 0x4c, 0x33, 0x14, 0x00, 0x20, 0x00,
//   0x1c, 0x00, 0x18, 0x00, 0x14, 0x00, 0x10, 0x00, 0x0c, 0x00, 0x00, 0x00,
//   0x08, 0x00, 0x04, 0x00, 0x14, 0x00, 0x00, 0x00, 0x1c, 0x00, 0x00, 0x00,
//   0x8c, 0x00, 0x00, 0x00, 0xe4, 0x00, 0x00, 0x00, 0x08, 0x1f, 0x00, 0x00,
//   0x18, 0x1f, 0x00, 0x00, 0xbc, 0x2b, 0x00, 0x00, 0x03, 0x00, 0x00, 0x00,
//   0x01, 0x00, 0x00, 0x00, 0x04, 0x00, 0x00, 0x00, 0x4a, 0xdf, 0xff, 0xff,
//   0x0c, 0x00, 0x00, 0x00, 0x1c, 0x00, 0x00, 0x00, 0x3c, 0x00, 0x00, 0x00,
//   0x0f, 0x00, 0x00, 0x00, 0x73, 0x65, 0x72, 0x76, 0x69, 0x6e, 0x67, 0x5f,
//   0x64, 0x65, 0x66, 0x61, 0x75, 0x6c, 0x74, 0x00, 0x01, 0x00, 0x00, 0x00,
//   0x04, 0x00, 0x00, 0x00, 0x90, 0xff, 0xff, 0xff, 0x15, 0x00, 0x00, 0x00,
//   0x04, 0x00, 0x00, 0x00, 0x09, 0x00, 0x00, 0x00, 0x64, 0x65, 0x6e, 0x73,
//   0x65, 0x5f, 0x32, 0x33, 0x39, 0x00, 0x00, 0x00, 0x01, 0x00, 0x00, 0x00,
//   0x04, 0x00, 0x00, 0x00, 0x9a, 0xe1, 0xff, 0xff, 0x04, 0x00, 0x00, 0x00,
//   0x0f, 0x00, 0x00, 0x00, 0x63, 0x6f, 0x6e, 0x76, 0x31, 0x64, 0x5f, 0x31,
//   0x30, 0x5f, 0x69, 0x6e, 0x70, 0x75, 0x74, 0x00, 0x02, 0x00, 0x00, 0x00,
//   0x34, 0x00, 0x00, 0x00, 0x04, 0x00, 0x00, 0x00, 0xdc, 0xff, 0xff, 0xff,
//   0x18, 0x00, 0x00, 0x00, 0x04, 0x00, 0x00, 0x00, 0x13, 0x00, 0x00, 0x00,
//   0x43, 0x4f, 0x4e, 0x56, 0x45, 0x52, 0x53, 0x49, 0x4f, 0x4e, 0x5f, 0x4d,
//   0x45, 0x54, 0x41, 0x44, 0x41, 0x54, 0x41, 0x00, 0x08, 0x00, 0x0c, 0x00,
//   0x08, 0x00, 0x04, 0x00, 0x08, 0x00, 0x00, 0x00, 0x17, 0x00, 0x00, 0x00,
//   0x04, 0x00, 0x00, 0x00, 0x13, 0x00, 0x00, 0x00, 0x6d, 0x69, 0x6e, 0x5f,
//   0x72, 0x75, 0x6e, 0x74, 0x69, 0x6d, 0x65, 0x5f, 0x76, 0x65, 0x72, 0x73,
//   0x69, 0x6f, 0x6e, 0x00, 0x19, 0x00, 0x00, 0x00, 0x20, 0x1e, 0x00, 0x00,
//   0x18, 0x1e, 0x00, 0x00, 0xe8, 0x1d, 0x00, 0x00, 0xc4, 0x1d, 0x00, 0x00,
//   0x54, 0x1a, 0x00, 0x00, 0x20, 0x1a, 0x00, 0x00, 0xd0, 0x19, 0x00, 0x00,
//   0x80, 0x19, 0x00, 0x00, 0x6c, 0x19, 0x00, 0x00, 0x54, 0x19, 0x00, 0x00,
//   0x40, 0x19, 0x00, 0x00, 0x30, 0x07, 0x00, 0x00, 0x20, 0x03, 0x00, 0x00,
//   0xd0, 0x00, 0x00, 0x00, 0xc8, 0x00, 0x00, 0x00, 0xc0, 0x00, 0x00, 0x00,
//   0xb8, 0x00, 0x00, 0x00, 0xb0, 0x00, 0x00, 0x00, 0xa8, 0x00, 0x00, 0x00,
//   0xa0, 0x00, 0x00, 0x00, 0x98, 0x00, 0x00, 0x00, 0x90, 0x00, 0x00, 0x00,
//   0x88, 0x00, 0x00, 0x00, 0x68, 0x00, 0x00, 0x00, 0x04, 0x00, 0x00, 0x00,
//   0x7a, 0xe2, 0xff, 0xff, 0x04, 0x00, 0x00, 0x00, 0x54, 0x00, 0x00, 0x00,
//   0x0c, 0x00, 0x00, 0x00, 0x08, 0x00, 0x0e, 0x00, 0x08, 0x00, 0x04, 0x00,
//   0x08, 0x00, 0x00, 0x00, 0x10, 0x00, 0x00, 0x00, 0x24, 0x00, 0x00, 0x00,
//   0x00, 0x00, 0x06, 0x00, 0x08, 0x00, 0x04, 0x00, 0x06, 0x00, 0x00, 0x00,
//   0x04, 0x00, 0x00, 0x00, 0x00, 0x00, 0x00, 0x00, 0x00, 0x00, 0x0a, 0x00,
//   0x10, 0x00, 0x0c, 0x00, 0x08, 0x00, 0x04, 0x00, 0x0a, 0x00, 0x00, 0x00,
//   0x02, 0x00, 0x00, 0x00, 0x02, 0x00, 0x00, 0x00, 0x04, 0x00, 0x00, 0x00,
//   0x06, 0x00, 0x00, 0x00, 0x32, 0x2e, 0x31, 0x31, 0x2e, 0x30, 0x00, 0x00,
//   0xda, 0xe2, 0xff, 0xff, 0x04, 0x00, 0x00, 0x00, 0x10, 0x00, 0x00, 0x00,
//   0x31, 0x2e, 0x31, 0x30, 0x2e, 0x30, 0x00, 0x00, 0x00, 0x00, 0x00, 0x00,
//   0x00, 0x00, 0x00, 0x00, 0x40, 0xd6, 0xff, 0xff, 0x44, 0xd6, 0xff, 0xff,
//   0x48, 0xd6, 0xff, 0xff, 0x4c, 0xd6, 0xff, 0xff, 0x50, 0xd6, 0xff, 0xff,
//   0x54, 0xd6, 0xff, 0xff, 0x58, 0xd6, 0xff, 0xff, 0x5c, 0xd6, 0xff, 0xff,
//   0x60, 0xd6, 0xff, 0xff, 0x1a, 0xe3, 0xff, 0xff, 0x04, 0x00, 0x00, 0x00,
//   0x40, 0x02, 0x00, 0x00, 0xc3, 0x7d, 0xb5, 0x3e, 0x24, 0x10, 0xac, 0x3e,
//   0x9c, 0x6a, 0x80, 0x3d, 0x6a, 0x1f, 0xcb, 0x3e, 0x23, 0xfc, 0xdd, 0x3d,
//   0xb2, 0xa6, 0x6d, 0xbe, 0x02, 0x31, 0x5a, 0x3e, 0x2d, 0xde, 0x38, 0x3d,
//   0x2e, 0x06, 0x91, 0xbe, 0xfb, 0x9f, 0xd1, 0x3e, 0x2f, 0x81, 0xe4, 0x3e,
//   0x6d, 0x27, 0x7d, 0x3e, 0x4c, 0xca, 0x3c, 0x3d, 0x6b, 0x73, 0xe1, 0xbd,
//   0x5a, 0x3c, 0x22, 0xbc, 0xde, 0xa6, 0x28, 0x3e, 0xd3, 0x09, 0x95, 0x3d,
//   0x7d, 0x7a, 0x3b, 0xbe, 0x10, 0xae, 0x59, 0x3e, 0x68, 0x67, 0xc9, 0xbe,
//   0x46, 0x32, 0x0b, 0xbe, 0x52, 0x07, 0xe4, 0x3d, 0xd6, 0x71, 0x02, 0xbe,
//   0x0e, 0x12, 0xca, 0x3d, 0x56, 0xa1, 0x9e, 0x3e, 0x26, 0xec, 0x0a, 0x3e,
//   0x83, 0x0d, 0xe2, 0x3e, 0xfd, 0xec, 0x77, 0x3e, 0x2f, 0xd9, 0xa1, 0x3d,
//   0x82, 0x12, 0x9d, 0xbe, 0x08, 0x9b, 0x53, 0x39, 0x2d, 0xa5, 0x26, 0xbe,
//   0xbe, 0xc9, 0x98, 0x3e, 0xe3, 0x58, 0xb4, 0xbe, 0x12, 0x2c, 0x91, 0xbe,
//   0x9f, 0x90, 0xf9, 0x3d, 0xe3, 0xc2, 0x84, 0xbe, 0x72, 0x3b, 0x73, 0x3e,
//   0x16, 0x14, 0x85, 0xbe, 0x39, 0x38, 0xeb, 0x3e, 0xeb, 0x3f, 0x0a, 0x3e,
//   0x50, 0x78, 0xd2, 0x3e, 0x9b, 0x46, 0xb7, 0x3e, 0x93, 0x77, 0x04, 0xbe,
//   0x0a, 0xb6, 0x34, 0xbe, 0x6d, 0x56, 0xbe, 0xbd, 0xa0, 0x6f, 0x40, 0x3e,
//   0x68, 0x12, 0xf0, 0x3d, 0xd8, 0x1c, 0x8f, 0x3d, 0x2d, 0x0d, 0x88, 0xbe,
//   0x1a, 0x3c, 0x41, 0xbe, 0x3f, 0x0c, 0x2e, 0xbe, 0xbd, 0x95, 0x09, 0xbe,
//   0x0e, 0x38, 0xc2, 0x3e, 0xa9, 0xff, 0xd3, 0x3e, 0x8a, 0xec, 0x64, 0xbe,
//   0x7a, 0x7a, 0xa2, 0x3e, 0x8e, 0xf1, 0x87, 0xbe, 0xd7, 0xc0, 0x7d, 0xbe,
//   0x2b, 0xf8, 0x1f, 0x3e, 0xcb, 0x2b, 0xf7, 0x3e, 0x56, 0x1b, 0x15, 0xbe,
//   0x8f, 0x32, 0x0a, 0x3d, 0xe5, 0x4f, 0x8e, 0xbd, 0x51, 0xbd, 0x89, 0xbe,
//   0x1d, 0x3b, 0xa6, 0xbe, 0xe3, 0xad, 0x83, 0x3e, 0xa8, 0x81, 0x02, 0xbe,
//   0xd3, 0x3b, 0x88, 0xbe, 0x31, 0xf0, 0xb7, 0x3a, 0x4b, 0xa2, 0x73, 0xbe,
//   0x09, 0xa4, 0x8a, 0xbd, 0x99, 0x11, 0xd9, 0x3d, 0x21, 0x9b, 0xd8, 0xbb,
//   0x2f, 0x6c, 0x94, 0x3e, 0x8d, 0x8b, 0x2c, 0xbd, 0x36, 0x9e, 0x07, 0xbf,
//   0xf9, 0xd1, 0x51, 0x3d, 0xbb, 0x0f, 0xc1, 0x3d, 0xbb, 0x37, 0xbe, 0x3e,
//   0x22, 0x46, 0x88, 0xbe, 0xe2, 0xd9, 0x9f, 0xbe, 0x01, 0xe8, 0x69, 0xbe,
//   0x4b, 0xf7, 0xb0, 0x3d, 0x20, 0x44, 0xdc, 0x3e, 0xa4, 0xcc, 0xf8, 0xbe,
//   0xda, 0x2d, 0xc6, 0xbe, 0x62, 0x09, 0xe3, 0x3e, 0x85, 0x98, 0x9b, 0x3d,
//   0xe3, 0x30, 0x9d, 0xbd, 0x34, 0x9a, 0x2a, 0x3e, 0x83, 0xef, 0xb4, 0x3e,
//   0x05, 0x1d, 0xab, 0x3e, 0x7e, 0xfc, 0x85, 0x3d, 0x4b, 0x10, 0x39, 0xbe,
//   0x89, 0x13, 0xff, 0x3e, 0xb5, 0xe1, 0xa2, 0x3e, 0xaf, 0xa8, 0xe7, 0xbd,
//   0xc0, 0xe8, 0x53, 0x3e, 0x87, 0x8f, 0x86, 0x3d, 0xec, 0x4f, 0x0a, 0xbe,
//   0x89, 0x06, 0x25, 0x3e, 0xf2, 0xeb, 0xcd, 0x3d, 0x14, 0xcf, 0x79, 0x3e,
//   0x8f, 0x9d, 0x0d, 0xbf, 0x25, 0x0c, 0xdf, 0xbe, 0x7f, 0x50, 0xb3, 0x3e,
//   0xe1, 0x98, 0xbc, 0xbd, 0xd7, 0x51, 0x46, 0x3e, 0x9a, 0x7a, 0x9c, 0xbe,
//   0x49, 0xf9, 0x01, 0xbf, 0x68, 0x49, 0xda, 0xbd, 0xf1, 0xa7, 0x09, 0x3e,
//   0x04, 0x5a, 0xfa, 0x3e, 0x27, 0x15, 0xa8, 0x3d, 0x2b, 0x58, 0xb5, 0xbe,
//   0xbd, 0xcf, 0x47, 0xbd, 0x0e, 0x31, 0x63, 0x3e, 0x0a, 0x46, 0xc3, 0xbe,
//   0xc9, 0xb5, 0xdb, 0x3d, 0x9f, 0xf9, 0xe1, 0xbe, 0x4a, 0x8e, 0x0b, 0xbe,
//   0xcf, 0x82, 0xae, 0xbd, 0x97, 0x89, 0xca, 0x3e, 0x6c, 0x8b, 0x4b, 0x3e,
//   0x68, 0x1d, 0x5e, 0xbd, 0x8b, 0x28, 0xc2, 0x3e, 0xe1, 0x1d, 0xc6, 0xbe,
//   0xdf, 0x03, 0xe9, 0xbe, 0x8b, 0x3c, 0x0c, 0xbf, 0xc2, 0x8b, 0xd7, 0x3e,
//   0x55, 0x7c, 0x30, 0xbe, 0x77, 0xcb, 0x99, 0xbd, 0x42, 0x56, 0xe2, 0xbe,
//   0x74, 0x5f, 0x04, 0xbe, 0xb5, 0x2c, 0xd6, 0x3e, 0x21, 0x7f, 0x04, 0xbb,
//   0x55, 0x40, 0xdd, 0xbe, 0x44, 0x9b, 0x02, 0xbc, 0x1d, 0xe7, 0xd3, 0xbe,
//   0xb4, 0xbe, 0x79, 0x3e, 0x01, 0x77, 0xfc, 0xbe, 0x6a, 0x5a, 0xcd, 0x3e,
//   0x94, 0xa9, 0x01, 0x3f, 0x66, 0xe5, 0xff, 0xff, 0x04, 0x00, 0x00, 0x00,
//   0x00, 0x04, 0x00, 0x00, 0xf9, 0xe7, 0x2c, 0xbe, 0xd2, 0x38, 0x7b, 0xbd,
//   0x2e, 0xc1, 0x62, 0xbe, 0xd0, 0xe0, 0x44, 0x3e, 0xce, 0x96, 0xd3, 0x3c,
//   0x60, 0xd6, 0x51, 0x3e, 0x01, 0x9a, 0x1d, 0x3e, 0x37, 0x9f, 0xc3, 0x3e,
//   0x3d, 0x46, 0x85, 0x3e, 0xc1, 0x04, 0x8e, 0x3e, 0x25, 0xe0, 0xab, 0xbe,
//   0xf1, 0x2d, 0x72, 0xbe, 0xfb, 0xef, 0x9e, 0x3e, 0x88, 0x67, 0xd8, 0x3d,
//   0xa4, 0x86, 0x0c, 0xbe, 0xb7, 0x2c, 0x80, 0xbd, 0x25, 0xf0, 0x25, 0xbd,
//   0xc6, 0x87, 0xef, 0x3d, 0x37, 0xaa, 0xc7, 0xbe, 0xc7, 0xeb, 0x91, 0x3e,
//   0x59, 0x41, 0xd9, 0x3c, 0x13, 0x1d, 0xb5, 0xbd, 0xfe, 0x46, 0x93, 0x3e,
//   0x9a, 0x3f, 0xf9, 0x3d, 0x95, 0xb3, 0x8d, 0xbe, 0xaf, 0xb7, 0xf6, 0xbb,
//   0x97, 0x0b, 0x27, 0x3e, 0x5b, 0xe6, 0xf7, 0xbe, 0x2a, 0xbf, 0x4a, 0x3e,
//   0xe6, 0x66, 0xd3, 0x3e, 0x89, 0x63, 0xe9, 0xbc, 0x5e, 0xb2, 0x21, 0x3e,
//   0x1d, 0x76, 0xcf, 0xbe, 0x57, 0x46, 0xb4, 0xbe, 0x26, 0x62, 0x20, 0x3e,
//   0x0e, 0xf2, 0x90, 0xbe, 0x14, 0x0b, 0x43, 0xbe, 0xf1, 0xc7, 0xb1, 0x3e,
//   0x60, 0x7a, 0xd3, 0xbe, 0x92, 0xb3, 0x93, 0xbe, 0x20, 0x1c, 0x91, 0x3e,
//   0x16, 0x18, 0x25, 0x3b, 0x64, 0xeb, 0x4f, 0xbe, 0xb6, 0xc9, 0x79, 0xbd,
//   0x2a, 0xea, 0xb4, 0xbd, 0xa0, 0xdc, 0x17, 0xbd, 0x27, 0x96, 0x2a, 0xbe,
//   0x91, 0xe5, 0x26, 0x3d, 0x1d, 0x5a, 0xa8, 0xbc, 0xf8, 0x78, 0xee, 0x3d,
//   0x29, 0xdc, 0x84, 0xbe, 0xdf, 0x0d, 0x51, 0xbe, 0xd7, 0xa8, 0x69, 0xbc,
//   0x41, 0x0b, 0xb1, 0xbe, 0x40, 0xe9, 0xf2, 0xbd, 0x2e, 0x64, 0x21, 0xbe,
//   0xc4, 0x50, 0xd0, 0xbd, 0x1f, 0xec, 0x90, 0xbe, 0x2a, 0xfa, 0x2e, 0xbe,
//   0x48, 0xf7, 0x60, 0xbe, 0x0f, 0x81, 0xfa, 0x3d, 0xcd, 0x6c, 0x43, 0x3e,
//   0x1e, 0xc2, 0x2a, 0xbe, 0x82, 0x2a, 0x98, 0xbc, 0xd6, 0xcf, 0x01, 0x3e,
//   0xa0, 0x98, 0x17, 0x3e, 0xd5, 0xfa, 0x64, 0x3e, 0x82, 0x6d, 0x43, 0xbd,
//   0x54, 0x52, 0xec, 0x3c, 0xd4, 0xf1, 0x93, 0x3e, 0x75, 0x41, 0x0e, 0x3d,
//   0x93, 0xa6, 0xb0, 0xbe, 0x43, 0x89, 0xbc, 0xbe, 0xf4, 0x7f, 0x80, 0x3d,
//   0x05, 0xc6, 0x73, 0xbc, 0xdb, 0xf1, 0x50, 0xbd, 0xb3, 0xfc, 0xb5, 0xbe,
//   0xbe, 0x92, 0xd1, 0xbd, 0x97, 0x17, 0x69, 0xbe, 0x50, 0x82, 0xe5, 0xbd,
//   0x52, 0xcf, 0x91, 0xbe, 0x87, 0x74, 0x2d, 0x3e, 0xa4, 0x18, 0xb1, 0x3d,
//   0x06, 0x10, 0xbd, 0x3e, 0xa4, 0x4d, 0x43, 0x3d, 0xf1, 0xb4, 0x57, 0x3e,
//   0xea, 0x23, 0x25, 0x3e, 0xee, 0x36, 0x35, 0x3d, 0xa6, 0x7f, 0x6d, 0xbe,
//   0x53, 0x85, 0x6f, 0x3d, 0xd9, 0x55, 0x52, 0xbe, 0xa5, 0xf9, 0xa4, 0x3e,
//   0xf6, 0xf7, 0xee, 0x3d, 0xca, 0x38, 0x00, 0xbc, 0x46, 0xb8, 0x20, 0xbe,
//   0xae, 0x42, 0x9d, 0xbe, 0x95, 0xd3, 0x60, 0x3e, 0x72, 0xd4, 0xb4, 0xbe,
//   0x83, 0xfa, 0xfc, 0x3c, 0xf3, 0x35, 0x90, 0xbe, 0x68, 0x8b, 0xc6, 0x3e,
//   0x95, 0x20, 0xa9, 0x3e, 0x9d, 0x7e, 0x4e, 0x3e, 0x50, 0x31, 0xb5, 0x3e,
//   0x66, 0xa9, 0x68, 0x3e, 0xf6, 0xe5, 0x64, 0x3e, 0xaa, 0x04, 0xf3, 0x3d,
//   0x31, 0xf8, 0x6b, 0xbe, 0x64, 0x6e, 0xb0, 0x3e, 0xb7, 0x4a, 0x2e, 0xbe,
//   0x00, 0x8b, 0x4f, 0xbe, 0xb7, 0x43, 0x9d, 0x3d, 0x3c, 0x90, 0x3f, 0x3e,
//   0xea, 0x02, 0x37, 0x3e, 0x9d, 0xc0, 0xa4, 0xbd, 0x28, 0x8a, 0xa9, 0x3e,
//   0x20, 0x57, 0x47, 0x3c, 0xa8, 0x4a, 0x2f, 0xbe, 0xae, 0xc9, 0xbd, 0x3e,
//   0xca, 0xc9, 0xb6, 0x3e, 0x10, 0x9a, 0x91, 0x3e, 0x0c, 0xb2, 0x5a, 0x3e,
//   0xe9, 0x42, 0x98, 0xbe, 0xb4, 0xd6, 0x31, 0xbd, 0xbd, 0x44, 0xcd, 0xbe,
//   0xe9, 0xc5, 0xc4, 0xbe, 0xc5, 0x8b, 0xf3, 0xbd, 0x56, 0x38, 0x83, 0xbe,
//   0x1f, 0x78, 0xd7, 0x3e, 0x97, 0x81, 0x65, 0xbe, 0x24, 0x7a, 0x2e, 0x3e,
//   0xd9, 0x1d, 0xf6, 0x3e, 0x4a, 0xd8, 0x15, 0x3d, 0x03, 0x30, 0x4d, 0x3d,
//   0x74, 0xaf, 0x32, 0x3e, 0x0b, 0x8f, 0xb5, 0x3d, 0xe4, 0x07, 0xc5, 0xbe,
//   0x04, 0x74, 0x11, 0x3e, 0xbe, 0x26, 0x94, 0xbe, 0xc6, 0xc6, 0xd7, 0x3d,
//   0x8b, 0x1a, 0x81, 0xbe, 0xea, 0x6d, 0x2d, 0x3e, 0x01, 0xbf, 0x0e, 0xbc,
//   0xeb, 0xdd, 0xc1, 0xbe, 0xc9, 0x3c, 0xb7, 0x3d, 0x58, 0x99, 0xb3, 0x3e,
//   0xe8, 0x52, 0x99, 0xbe, 0x76, 0xf8, 0x26, 0xbe, 0x38, 0xf4, 0x86, 0x3d,
//   0x9c, 0x45, 0xb4, 0xbe, 0x65, 0xdf, 0x83, 0x3d, 0x05, 0x3c, 0x2e, 0xbe,
//   0xe9, 0x79, 0x46, 0xbd, 0xd4, 0xca, 0xcb, 0xbe, 0x6a, 0xfd, 0xc9, 0xbd,
//   0x51, 0x90, 0xb9, 0xbd, 0x5d, 0x93, 0x9b, 0x3e, 0x00, 0x9d, 0xa8, 0x3e,
//   0xb1, 0xfa, 0x9e, 0xbb, 0xf8, 0x6a, 0x3b, 0xbe, 0xa5, 0xcc, 0xaf, 0x3e,
//   0x28, 0xf6, 0xbd, 0x3e, 0xf5, 0xb2, 0xb3, 0x3e, 0xe7, 0x09, 0xaa, 0xbe,
//   0xad, 0xf3, 0x0a, 0xbe, 0x4a, 0xaa, 0x7c, 0xbe, 0xe2, 0x5a, 0x29, 0xbe,
//   0x89, 0xdb, 0xa6, 0x3e, 0x2f, 0x09, 0xa3, 0xbd, 0xc8, 0x63, 0x62, 0x3e,
//   0x51, 0xe4, 0x13, 0xbd, 0x30, 0x77, 0x04, 0x3e, 0xdf, 0xb3, 0x11, 0x3e,
//   0xc9, 0x66, 0xec, 0x3c, 0x6f, 0x18, 0x1c, 0xbd, 0xa6, 0x3c, 0x9e, 0xbd,
//   0x6c, 0xbf, 0xb7, 0x3c, 0x69, 0x7c, 0xaa, 0xbe, 0xbd, 0x73, 0xa7, 0xbc,
//   0xb6, 0xff, 0x8b, 0x3e, 0xc1, 0x95, 0x48, 0x3e, 0xcd, 0xb8, 0x83, 0xbe,
//   0x0a, 0xce, 0xa3, 0xbe, 0x5f, 0x1e, 0x23, 0x3d, 0x70, 0x21, 0xa4, 0x3c,
//   0xcd, 0x21, 0x75, 0x3e, 0x8e, 0x63, 0xce, 0x3e, 0xf7, 0xb7, 0x64, 0x3d,
//   0x22, 0x04, 0x85, 0xbd, 0xe9, 0xa3, 0x93, 0xbe, 0x11, 0xee, 0x97, 0x3d,
//   0x79, 0x9a, 0x23, 0xbe, 0xfb, 0xd1, 0x97, 0x3e, 0xb4, 0x00, 0x1a, 0x3e,
//   0xca, 0x14, 0x04, 0xbe, 0x20, 0x9b, 0x28, 0x3e, 0x2e, 0x72, 0x6d, 0x3e,
//   0x11, 0x2f, 0xbd, 0xbe, 0xe1, 0xa0, 0xe0, 0xbd, 0x45, 0xc8, 0x1e, 0xbe,
//   0xcc, 0xbf, 0xad, 0x3e, 0xcd, 0x7a, 0xa4, 0xbe, 0x5c, 0x30, 0x87, 0xbe,
//   0x22, 0x44, 0x8c, 0x3e, 0x1b, 0xfe, 0x29, 0x3d, 0xa4, 0x3e, 0xd5, 0xbd,
//   0xf8, 0x5c, 0xdf, 0xbe, 0xed, 0x13, 0x48, 0xbd, 0x86, 0xd3, 0x18, 0xbd,
//   0x12, 0x52, 0xeb, 0x3e, 0x67, 0x1b, 0x02, 0x3f, 0xaa, 0x09, 0xf1, 0x3c,
//   0x73, 0x51, 0x56, 0xbe, 0x6c, 0xfd, 0x70, 0x3e, 0x91, 0x0d, 0xe3, 0x3e,
//   0x68, 0xf4, 0x7d, 0x3d, 0x91, 0x8c, 0xcc, 0xbe, 0x68, 0x7c, 0xd2, 0x3d,
//   0x7c, 0xe7, 0x0a, 0x3e, 0x32, 0x78, 0xc3, 0x3e, 0x67, 0xe5, 0x85, 0xbe,
//   0x60, 0x69, 0xa2, 0xbe, 0xf0, 0x5a, 0x51, 0xbe, 0x35, 0xd2, 0x69, 0x3e,
//   0xbf, 0x66, 0x04, 0x3e, 0x84, 0xb3, 0x85, 0xbb, 0xc7, 0xc1, 0x36, 0xbd,
//   0xb3, 0xe2, 0x41, 0x3e, 0x3b, 0x11, 0xa4, 0x3e, 0x9a, 0xbf, 0x6c, 0xbe,
//   0xb4, 0xa3, 0x3f, 0x3d, 0xe4, 0x8c, 0xc0, 0x3e, 0x36, 0x24, 0x3c, 0x3e,
//   0x58, 0x31, 0x08, 0x3e, 0xe1, 0x64, 0xaf, 0x3e, 0xc3, 0x22, 0xc4, 0xbb,
//   0x4a, 0xf8, 0xc9, 0x3e, 0x60, 0x91, 0xf0, 0x3e, 0xe8, 0x81, 0x8f, 0x3e,
//   0xbd, 0xfb, 0xeb, 0xbd, 0x0b, 0xb6, 0xe2, 0x3e, 0x23, 0xd3, 0xd5, 0xbe,
//   0x2b, 0xd6, 0x15, 0x3e, 0x6d, 0xca, 0xa5, 0x3d, 0xef, 0x96, 0x77, 0xbc,
//   0x5a, 0xb2, 0x59, 0xbe, 0x3c, 0x73, 0x60, 0xbe, 0x61, 0x33, 0xdf, 0x3e,
//   0x63, 0x1d, 0x98, 0x3e, 0x6b, 0x93, 0x18, 0x3d, 0xca, 0x80, 0x88, 0xbe,
//   0x9c, 0x53, 0xf7, 0xbd, 0xeb, 0xf0, 0xc1, 0x3e, 0x9b, 0x45, 0x7f, 0x3c,
//   0x31, 0xc7, 0xda, 0x3d, 0xd3, 0xdf, 0x9d, 0x3e, 0x72, 0xe9, 0xff, 0xff,
//   0x04, 0x00, 0x00, 0x00, 0x00, 0x12, 0x00, 0x00, 0x43, 0x7e, 0x53, 0xbc,
//   0x76, 0xaa, 0x1a, 0x3e, 0xb2, 0x03, 0xaf, 0xbd, 0x0c, 0xb9, 0xeb, 0x3d,
//   0x32, 0xc3, 0x06, 0xbe, 0x15, 0xc1, 0x1b, 0x3e, 0xb2, 0x91, 0xc8, 0x3d,
//   0xc9, 0x0a, 0x29, 0xbe, 0x11, 0x5c, 0x41, 0x3e, 0x33, 0x13, 0x27, 0x3e,
//   0x1e, 0xa4, 0xff, 0xbd, 0x74, 0x31, 0xb7, 0x3d, 0x4c, 0xfc, 0x93, 0x3d,
//   0xc1, 0x0c, 0x86, 0xbe, 0x3e, 0x3a, 0xe1, 0x3d, 0x2a, 0x1a, 0x5f, 0x3e,
//   0x3b, 0x5e, 0x10, 0x3e, 0x69, 0x2a, 0x50, 0x3d, 0x65, 0xab, 0xab, 0xbd,
//   0xdc, 0x9f, 0x00, 0x3e, 0x13, 0x15, 0xc1, 0x3d, 0xdc, 0x39, 0x44, 0x3c,
//   0x12, 0xed, 0x13, 0xbe, 0x87, 0x59, 0x1c, 0xbe, 0x2a, 0x36, 0x84, 0xbe,
//   0x10, 0xdf, 0x59, 0x3e, 0xc8, 0x39, 0xce, 0x3c, 0x4f, 0xf4, 0x1e, 0x3e,
//   0xe8, 0x42, 0x44, 0xbd, 0xb3, 0x65, 0x15, 0xbe, 0x26, 0xaf, 0x0e, 0x3e,
//   0x28, 0x5e, 0x7d, 0xbd, 0x33, 0x72, 0xae, 0x3d, 0x4a, 0xfb, 0x77, 0xbe,
//   0xf1, 0xa2, 0x8b, 0x3c, 0x50, 0x7e, 0x80, 0x3e, 0x83, 0x14, 0x8f, 0xbd,
//   0x9d, 0x67, 0x5d, 0x3d, 0xc9, 0xe5, 0xf9, 0xbd, 0xa9, 0x93, 0x3d, 0x3e,
//   0x56, 0x82, 0x3a, 0x3e, 0xa2, 0x02, 0x95, 0xbd, 0x53, 0x4a, 0xe8, 0x3d,
//   0x0a, 0xc0, 0x06, 0xbe, 0x69, 0x39, 0x50, 0xbe, 0x68, 0xaa, 0x3d, 0x3e,
//   0x36, 0x33, 0x6b, 0xbd, 0x15, 0x5f, 0x42, 0xbd, 0x23, 0x44, 0x0f, 0xbe,
//   0xa4, 0x25, 0x09, 0xbe, 0x19, 0x74, 0x46, 0x3d, 0xad, 0x99, 0x44, 0x3e,
//   0x09, 0x6c, 0xf4, 0xbd, 0x18, 0x6d, 0xea, 0x3b, 0xdc, 0x0e, 0x55, 0xbc,
//   0x86, 0x24, 0x9d, 0x3e, 0x47, 0x05, 0xeb, 0xbc, 0xf4, 0x3e, 0xce, 0xbd,
//   0x92, 0xd1, 0x94, 0xbe, 0x60, 0xb0, 0x5c, 0x3e, 0xd3, 0x9b, 0x6f, 0xbe,
//   0x1a, 0x1c, 0x34, 0xbc, 0x34, 0x00, 0x0c, 0xbe, 0x6a, 0xcd, 0x43, 0x3e,
//   0x84, 0x88, 0x90, 0x3c, 0x2a, 0x1c, 0xf9, 0x3d, 0xa3, 0x78, 0x41, 0xbd,
//   0xd3, 0x88, 0x6e, 0xbe, 0x0d, 0xbc, 0x0b, 0xbe, 0x18, 0x77, 0x67, 0x3e,
//   0xa4, 0x6a, 0xa5, 0xbd, 0xd4, 0xd7, 0x9e, 0xbc, 0x65, 0x51, 0xdc, 0x3d,
//   0x24, 0xba, 0xd8, 0xbd, 0xd2, 0x87, 0x34, 0xbe, 0x56, 0xb3, 0x2e, 0xbe,
//   0xc6, 0x4b, 0x65, 0xbe, 0x7d, 0xe4, 0xa4, 0xbd, 0x47, 0x28, 0x83, 0x3e,
//   0x96, 0x0b, 0xe9, 0x3b, 0x6e, 0xac, 0xfc, 0xbd, 0x66, 0xf5, 0x22, 0x3d,
//   0xfe, 0x44, 0x0b, 0x3d, 0x29, 0x3a, 0x5f, 0xbe, 0x3f, 0x6c, 0x99, 0x3d,
//   0xca, 0xff, 0x74, 0xbe, 0xff, 0xf8, 0x05, 0xbe, 0xd6, 0x40, 0x2f, 0xbe,
//   0x6b, 0xfe, 0x2e, 0xbe, 0xca, 0xd8, 0x20, 0x3c, 0x83, 0x5d, 0x53, 0xbe,
//   0xdd, 0x6b, 0x01, 0xbd, 0x50, 0x44, 0xea, 0xbd, 0x1f, 0x5e, 0x12, 0x3e,
//   0xfe, 0x19, 0x02, 0x3e, 0xb9, 0x67, 0xec, 0xbd, 0x9e, 0xec, 0x6a, 0xbd,
//   0x36, 0xd7, 0x12, 0xbe, 0x47, 0xfe, 0x33, 0xbe, 0x63, 0x11, 0xa0, 0xbc,
//   0x75, 0xe6, 0x6b, 0xbe, 0x04, 0xa5, 0x20, 0x3e, 0xee, 0xec, 0x83, 0x3e,
//   0x57, 0x1e, 0x49, 0xbe, 0x5e, 0x86, 0x03, 0x3e, 0x32, 0x0d, 0xa6, 0x3b,
//   0xdb, 0xab, 0x7e, 0xbd, 0x84, 0xda, 0x55, 0x3e, 0x9e, 0x81, 0x19, 0x3d,
//   0x52, 0x8d, 0x14, 0x3e, 0xc7, 0xe8, 0x7f, 0x3d, 0xe4, 0xd4, 0x28, 0x3e,
//   0xd1, 0x0a, 0x5e, 0x3e, 0x7c, 0x78, 0x78, 0xbd, 0xbf, 0x2f, 0x3b, 0xbe,
//   0x1e, 0xad, 0x7b, 0xbd, 0x48, 0xd7, 0x69, 0x3e, 0x39, 0xae, 0xb6, 0x3d,
//   0xd8, 0xea, 0x80, 0x3e, 0x4e, 0x33, 0x19, 0xbc, 0x63, 0x5a, 0x4c, 0xbd,
//   0xd9, 0xe4, 0xb6, 0x3d, 0xa4, 0x8d, 0x04, 0x3e, 0x72, 0xb4, 0x3a, 0x3e,
//   0x99, 0x0a, 0x53, 0x3e, 0x03, 0xc3, 0x9a, 0x3c, 0x40, 0x9a, 0x9e, 0xbd,
//   0x00, 0xf1, 0x55, 0xbd, 0x11, 0xb8, 0xee, 0xbd, 0xb9, 0xc8, 0xb8, 0x3d,
//   0xba, 0x0a, 0x0d, 0x3e, 0x4a, 0x53, 0x8c, 0xbe, 0x71, 0x52, 0x06, 0xbe,
//   0x7e, 0xc0, 0xf2, 0x3b, 0x0e, 0x93, 0xe6, 0xbd, 0xfa, 0x2a, 0xa6, 0x3d,
//   0x3f, 0x6d, 0x72, 0xbe, 0x5b, 0x06, 0x93, 0xbd, 0xa1, 0xc2, 0x10, 0xbe,
//   0x0f, 0x06, 0xa7, 0xbc, 0x67, 0x99, 0x73, 0xbe, 0xea, 0xf2, 0x5e, 0x3e,
//   0x5d, 0xaa, 0x49, 0x3e, 0xae, 0x8c, 0x78, 0xbe, 0xb0, 0x10, 0x68, 0x3e,
//   0x39, 0x23, 0x79, 0x3d, 0x10, 0x07, 0x5e, 0xbe, 0x92, 0xab, 0x9c, 0xbd,
//   0xec, 0x4f, 0xfe, 0xbc, 0x61, 0x8b, 0x64, 0x3e, 0xba, 0x56, 0x0c, 0xbe,
//   0xdd, 0xbf, 0x93, 0x3e, 0x9e, 0x6f, 0x34, 0x3e, 0xa5, 0xa1, 0x91, 0x3c,
//   0x9c, 0x64, 0x59, 0xbe, 0x39, 0x40, 0xe7, 0x3c, 0x63, 0x12, 0x91, 0x3d,
//   0xf7, 0x79, 0x3f, 0x3d, 0x64, 0x9f, 0xe0, 0x3d, 0x5d, 0x4f, 0x51, 0x3e,
//   0x69, 0x67, 0x44, 0xbe, 0x03, 0xae, 0x79, 0x3e, 0x66, 0x41, 0x14, 0xbe,
//   0xd4, 0xcb, 0x53, 0x3e, 0x00, 0xe5, 0x42, 0x3d, 0x53, 0xdd, 0x83, 0xbe,
//   0x18, 0x82, 0x66, 0x3e, 0x2e, 0xeb, 0x02, 0xbe, 0xbd, 0xe6, 0x2d, 0xbe,
//   0xf0, 0x2a, 0xc4, 0xbd, 0x6a, 0xaa, 0xac, 0x3d, 0x5c, 0xc1, 0x33, 0x3e,
//   0x93, 0x39, 0xab, 0x3d, 0xb8, 0x41, 0x30, 0xbd, 0x7f, 0x78, 0x87, 0x3d,
//   0xb0, 0x80, 0xc7, 0xbc, 0xad, 0x49, 0x16, 0x3d, 0x35, 0xa4, 0x0f, 0xbe,
//   0x36, 0xe5, 0x0e, 0xbe, 0x1d, 0xa3, 0x99, 0x3e, 0xf7, 0x46, 0xdf, 0x3d,
//   0x1c, 0xa4, 0xe9, 0x3d, 0x6c, 0x5e, 0x9c, 0x3d, 0x3e, 0xee, 0x2f, 0x3d,
//   0xc6, 0x06, 0x5e, 0xbe, 0xab, 0x0c, 0xa8, 0x3e, 0x47, 0x71, 0x8b, 0xbc,
//   0x87, 0xb6, 0x72, 0x3e, 0xa5, 0x31, 0x0c, 0xbe, 0x73, 0x29, 0xa1, 0x3b,
//   0xee, 0xc4, 0x0d, 0xbe, 0xd5, 0x43, 0x93, 0x3d, 0xe6, 0xa5, 0xd7, 0x3c,
//   0x49, 0xe4, 0x3e, 0xbe, 0x4d, 0xb0, 0x43, 0xbe, 0x7f, 0x54, 0x08, 0x3e,
//   0xef, 0xd2, 0x2e, 0x3d, 0x3f, 0x14, 0x20, 0xbe, 0x33, 0x99, 0x61, 0xbd,
//   0x1a, 0x56, 0xc5, 0xbd, 0x4f, 0x76, 0x30, 0x3e, 0x74, 0x6f, 0x45, 0xbe,
//   0xcd, 0xfd, 0xe0, 0x3d, 0xd7, 0x2d, 0x4e, 0xbe, 0xa2, 0x37, 0x9a, 0xbd,
//   0x59, 0xdf, 0x52, 0xbe, 0x1a, 0xc4, 0x27, 0x3e, 0xd7, 0xec, 0x3e, 0xbe,
//   0xb8, 0xe4, 0xad, 0xbd, 0x67, 0xf7, 0xf2, 0x3d, 0xe2, 0xe4, 0xb6, 0x3d,
//   0x21, 0xc7, 0x05, 0x3e, 0xb2, 0xca, 0x9a, 0xbe, 0xaf, 0xd5, 0x15, 0x3e,
//   0x3b, 0x4e, 0x28, 0xbe, 0xb3, 0xe6, 0x59, 0x3e, 0x44, 0xc8, 0x96, 0x3d,
//   0x77, 0x3c, 0x14, 0x3e, 0xd5, 0x79, 0xa5, 0x3c, 0xc4, 0x18, 0xfd, 0x3d,
//   0x5a, 0x0e, 0x3c, 0xbe, 0x38, 0x5c, 0x5d, 0x3d, 0xbc, 0xd0, 0x7d, 0x3e,
//   0x2b, 0xfe, 0x3d, 0xbe, 0x46, 0xd8, 0x29, 0x3e, 0x2a, 0xaf, 0x09, 0xbe,
//   0xd0, 0x23, 0xff, 0xbd, 0x52, 0x6c, 0x1e, 0x3e, 0xce, 0x67, 0x2c, 0xbd,
//   0xce, 0xd7, 0x5b, 0xbe, 0xa3, 0xa0, 0xa7, 0x3d, 0x2c, 0xa6, 0xe8, 0x3d,
//   0xba, 0xbf, 0x91, 0x3e, 0x59, 0x00, 0x87, 0x3e, 0x61, 0xbf, 0x98, 0xbe,
//   0x44, 0x09, 0x2e, 0x3e, 0xb6, 0x65, 0xa4, 0x3d, 0x91, 0x23, 0x3b, 0xbd,
//   0x62, 0x0a, 0x52, 0x3e, 0xbb, 0xca, 0x57, 0x3d, 0x1b, 0x8a, 0xe4, 0x3c,
//   0xbd, 0x2e, 0xc8, 0x3c, 0x4c, 0x89, 0x71, 0xbe, 0x10, 0x7c, 0xd5, 0xbd,
//   0x3f, 0xd5, 0xea, 0xbd, 0xdd, 0x1d, 0x98, 0xbc, 0xe9, 0xff, 0x12, 0x3e,
//   0x05, 0x63, 0xa3, 0xbc, 0x10, 0x64, 0x85, 0x3e, 0x7b, 0x85, 0x1e, 0x3d,
//   0xf2, 0x20, 0xab, 0x3d, 0x00, 0x6f, 0x19, 0xbd, 0x9e, 0xef, 0x4c, 0xbe,
//   0x18, 0x51, 0xb7, 0xbd, 0x53, 0x76, 0x88, 0x3e, 0xc7, 0x93, 0x86, 0x3e,
//   0x4c, 0x85, 0x1b, 0x3e, 0x20, 0x61, 0x53, 0x3c, 0xa2, 0xf2, 0x97, 0x3c,
//   0xd0, 0x9e, 0xf1, 0x3c, 0x22, 0xb1, 0x18, 0xbe, 0xcc, 0xcd, 0x81, 0xbd,
//   0xff, 0xca, 0x63, 0x3e, 0x48, 0x0f, 0x1b, 0xbe, 0x60, 0x5a, 0x35, 0x3e,
//   0x77, 0xee, 0x90, 0x3e, 0x49, 0x7e, 0x49, 0x3c, 0x90, 0xcc, 0x56, 0xbe,
//   0xdf, 0x09, 0x84, 0x3e, 0x4e, 0x37, 0x5a, 0x3e, 0xd7, 0x17, 0x03, 0xbe,
//   0xc8, 0x4c, 0x11, 0x3e, 0x8f, 0x99, 0x91, 0x3e, 0x91, 0x55, 0x0e, 0x3d,
//   0x56, 0xa8, 0x82, 0x3e, 0x05, 0x45, 0x37, 0x3e, 0x6f, 0x6b, 0xf4, 0x3d,
//   0xc3, 0xb4, 0xa6, 0xbd, 0xae, 0xf8, 0x2d, 0x3e, 0xb9, 0xa0, 0x76, 0x3e,
//   0xca, 0x79, 0x28, 0x3e, 0xa2, 0x24, 0x9f, 0xbd, 0xc7, 0x57, 0x34, 0xbd,
//   0x82, 0xb5, 0x57, 0xbe, 0x78, 0x71, 0x55, 0x3d, 0x7d, 0xaf, 0x33, 0x3e,
//   0xbe, 0xb8, 0x3d, 0xbe, 0xda, 0xbd, 0x10, 0x3e, 0x45, 0x6e, 0x6e, 0xbe,
//   0x02, 0x0a, 0x08, 0x3e, 0x17, 0x95, 0xa2, 0x3d, 0x90, 0xaa, 0xe5, 0xbd,
//   0xc8, 0x28, 0xec, 0x3d, 0x77, 0x60, 0x72, 0x3e, 0x9b, 0x61, 0x48, 0x3c,
//   0x84, 0xf0, 0x0a, 0xbc, 0x9f, 0x18, 0x88, 0xbe, 0xf3, 0xdd, 0x63, 0xbd,
//   0xe9, 0x7a, 0x75, 0x3d, 0x43, 0x03, 0x2f, 0x3e, 0x73, 0x15, 0x63, 0xbe,
//   0x11, 0x31, 0x03, 0x3e, 0x85, 0x6e, 0x5c, 0xbe, 0x46, 0xaf, 0x61, 0x3d,
//   0x73, 0x01, 0x88, 0xbe, 0xeb, 0xc4, 0x80, 0x3d, 0x4a, 0x07, 0xce, 0x39,
//   0x23, 0x77, 0x17, 0x3e, 0xd7, 0x65, 0x3b, 0x3d, 0x70, 0x41, 0xdf, 0xbd,
//   0x70, 0xe3, 0x56, 0xbe, 0x18, 0x59, 0x78, 0x3e, 0xcd, 0x8c, 0x6c, 0xbe,
//   0x5f, 0x07, 0x65, 0x3d, 0x3a, 0xfd, 0xc2, 0x3c, 0xa0, 0x09, 0x33, 0xbe,
//   0xf0, 0x73, 0x28, 0xbd, 0x51, 0xc0, 0x63, 0xbe, 0xe7, 0xc3, 0x2c, 0xbe,
//   0x50, 0x51, 0x6f, 0xbe, 0x0b, 0x4f, 0x22, 0x3e, 0xe5, 0xd6, 0x27, 0x3e,
//   0x9a, 0x0f, 0x16, 0xbc, 0xf7, 0x27, 0x0c, 0x3d, 0x03, 0x19, 0x0c, 0x3e,
//   0x90, 0xd1, 0x35, 0x3e, 0x1d, 0x92, 0xce, 0xbd, 0xeb, 0x3e, 0x42, 0x3e,
//   0x27, 0xd7, 0xf5, 0x3a, 0xdd, 0x0e, 0x02, 0xbe, 0xc1, 0x14, 0x1d, 0xbe,
//   0x99, 0x14, 0x9a, 0x3d, 0x5b, 0x90, 0x98, 0xbd, 0xf8, 0x12, 0x59, 0x3e,
//   0xfd, 0x9f, 0xb8, 0xbd, 0xb6, 0xfa, 0x4b, 0xbe, 0x3c, 0xb7, 0x06, 0xbe,
//   0x44, 0xde, 0x7d, 0xbe, 0x1f, 0x6b, 0x0c, 0x3d, 0x7d, 0xd5, 0xe7, 0xbd,
//   0x72, 0xd2, 0xf4, 0xbd, 0xc7, 0x88, 0xde, 0x3d, 0x10, 0xac, 0x25, 0x3e,
//   0x22, 0x11, 0x53, 0x3e, 0x04, 0xc7, 0x87, 0x3e, 0x6b, 0x10, 0x9a, 0xbd,
//   0xff, 0x4d, 0xde, 0x3d, 0x6f, 0xe2, 0x5f, 0x3e, 0x5f, 0x63, 0xbb, 0xbd,
//   0x26, 0xca, 0x08, 0x3e, 0xd1, 0xae, 0xf9, 0xbd, 0x01, 0x88, 0xb0, 0x3d,
//   0xcc, 0x95, 0xd6, 0xbd, 0x88, 0x15, 0x01, 0x3d, 0x91, 0x01, 0x57, 0x3e,
//   0xad, 0xf7, 0xe9, 0xbd, 0xbb, 0x63, 0x13, 0x3c, 0x84, 0xa5, 0x36, 0x3e,
//   0x47, 0x4a, 0x56, 0xbe, 0x2d, 0x22, 0x6f, 0x3e, 0xe8, 0xee, 0xc3, 0x3d,
//   0x38, 0x7c, 0xaa, 0x3d, 0xfa, 0x5d, 0x7f, 0xbd, 0x7f, 0x96, 0xd6, 0x3d,
//   0x8f, 0x75, 0x05, 0x3d, 0xfb, 0xd0, 0x69, 0xbe, 0x74, 0x3c, 0x6c, 0x3e,
//   0x1a, 0x22, 0x80, 0xbe, 0x86, 0xa2, 0x8c, 0x3e, 0x16, 0x67, 0x90, 0xbe,
//   0x6d, 0x62, 0xa3, 0xbc, 0x97, 0x20, 0xee, 0xbd, 0x95, 0x9e, 0x45, 0xbe,
//   0x36, 0x0c, 0x90, 0xbd, 0x79, 0xa0, 0x4b, 0xbd, 0xc3, 0x4e, 0x49, 0xbe,
//   0x1f, 0xb2, 0xd7, 0xbd, 0x5f, 0x26, 0x73, 0x3e, 0xc7, 0x43, 0x47, 0xbe,
//   0xd5, 0xe8, 0x20, 0x3e, 0x79, 0xc1, 0x0a, 0xbc, 0xd8, 0xbc, 0xd6, 0x3d,
//   0x74, 0xf7, 0x0c, 0x3e, 0x9d, 0xe1, 0x42, 0x3e, 0x61, 0x48, 0x56, 0xbe,
//   0xce, 0x21, 0x65, 0xbd, 0xfc, 0xf3, 0x3b, 0xbe, 0x68, 0x63, 0x0b, 0xbe,
//   0x9e, 0xc5, 0xf6, 0xbd, 0x2a, 0xbc, 0x65, 0xbe, 0xf9, 0x1f, 0x78, 0x3d,
//   0xc9, 0xf1, 0x08, 0x3e, 0x81, 0x5d, 0x2b, 0xbe, 0x55, 0x9f, 0x5c, 0x3e,
//   0x59, 0x97, 0xe6, 0xbd, 0xc9, 0x9a, 0x29, 0x3e, 0xaf, 0xbf, 0xe7, 0x3c,
//   0xba, 0xbc, 0x11, 0x3e, 0xe6, 0x24, 0xd4, 0x3c, 0x0a, 0x01, 0x10, 0xbd,
//   0x14, 0x19, 0x88, 0xbd, 0x84, 0x83, 0x48, 0x3e, 0x24, 0x91, 0x8b, 0x3e,
//   0x82, 0x08, 0x73, 0x3e, 0xed, 0x67, 0x20, 0x3e, 0x00, 0xcc, 0x03, 0xbe,
//   0x99, 0xaa, 0x88, 0xbe, 0x98, 0xab, 0x43, 0x3e, 0x9b, 0xfd, 0x31, 0x3e,
//   0x47, 0x29, 0xdb, 0xbd, 0xaa, 0x3f, 0x85, 0x3e, 0x43, 0x39, 0x7e, 0x3e,
//   0x54, 0xff, 0x16, 0x3e, 0x01, 0xd4, 0x1f, 0xbd, 0x8c, 0x8a, 0xe6, 0xbd,
//   0xa4, 0xf2, 0x60, 0x3d, 0xd0, 0x22, 0x5a, 0x3e, 0x19, 0x94, 0x11, 0x3e,
//   0xd5, 0xa4, 0x24, 0xbe, 0x09, 0x72, 0xab, 0x3e, 0xca, 0xd9, 0xee, 0x3d,
//   0x70, 0x43, 0x58, 0xbe, 0x27, 0x82, 0x3c, 0x3e, 0x01, 0x4e, 0x7c, 0xbe,
//   0xcc, 0x5c, 0x1e, 0xbe, 0xbb, 0xf1, 0x67, 0x3c, 0xa3, 0xa8, 0xf3, 0x3d,
//   0x82, 0xe0, 0x91, 0x3e, 0xeb, 0x88, 0x27, 0xbe, 0xd2, 0x3f, 0xf0, 0xbd,
//   0x2d, 0xa5, 0x1a, 0x3e, 0xe7, 0xa5, 0x30, 0x3e, 0xd6, 0x7b, 0x39, 0xbe,
//   0xbe, 0x16, 0x5e, 0x3e, 0xe8, 0xed, 0x5e, 0xbe, 0x3c, 0xf0, 0x37, 0xbe,
//   0x3b, 0x81, 0x17, 0x3e, 0x07, 0x35, 0x17, 0xbe, 0x36, 0x99, 0x39, 0x3d,
//   0xaa, 0x1f, 0x88, 0x3d, 0x9d, 0x4b, 0xe1, 0x3c, 0xd9, 0x32, 0x2e, 0x3e,
//   0xad, 0xa9, 0x61, 0xbe, 0x45, 0x05, 0xe9, 0xbd, 0x42, 0x8b, 0x1f, 0xbe,
//   0xfe, 0x2d, 0x4a, 0x3e, 0x80, 0x73, 0x76, 0x3e, 0x49, 0xa5, 0xf8, 0x3d,
//   0xa2, 0x24, 0x42, 0xbe, 0x74, 0x37, 0x94, 0xbd, 0x39, 0x96, 0x8a, 0x3b,
//   0x80, 0xd2, 0x3a, 0xbe, 0x90, 0xe1, 0xab, 0x3d, 0xd2, 0x64, 0x56, 0x3e,
//   0xc3, 0x91, 0x54, 0xbe, 0x38, 0x81, 0x6b, 0x3e, 0xab, 0x3a, 0x02, 0xbd,
//   0x5b, 0x53, 0x25, 0x3e, 0x4e, 0x5e, 0x60, 0xbd, 0x0a, 0x9b, 0xc0, 0xbc,
//   0x36, 0xad, 0xdc, 0x3b, 0x6e, 0x78, 0xe8, 0xbc, 0xd1, 0x0f, 0x67, 0xbd,
//   0x1e, 0x2b, 0x62, 0xbe, 0xc2, 0x0c, 0xf3, 0x3d, 0x49, 0x9d, 0xd9, 0xbd,
//   0xc0, 0x3a, 0x8a, 0xbd, 0xd5, 0x67, 0x2a, 0xbe, 0xaa, 0x29, 0x63, 0xbe,
//   0xab, 0x7e, 0x59, 0xbe, 0xc7, 0x3f, 0x87, 0x3c, 0x24, 0xb8, 0x2f, 0xbe,
//   0x99, 0x35, 0x2a, 0xbe, 0xe2, 0x19, 0x68, 0x3e, 0x2a, 0xcc, 0x43, 0xbe,
//   0x20, 0x0f, 0x45, 0x3e, 0x00, 0x92, 0x4c, 0x3e, 0x28, 0x0d, 0x82, 0x3d,
//   0xf7, 0x5b, 0xda, 0x3c, 0xf6, 0x87, 0x62, 0xbe, 0xf1, 0x13, 0x7d, 0xbe,
//   0xb1, 0x0e, 0x4f, 0x3e, 0x11, 0x6b, 0xf0, 0xbd, 0x08, 0xb9, 0x03, 0x3e,
//   0xa0, 0xff, 0x49, 0xbe, 0xf2, 0x16, 0xd7, 0xbd, 0x70, 0x31, 0x0c, 0x3d,
//   0xcc, 0x07, 0x8f, 0x3d, 0x96, 0x37, 0x57, 0xbe, 0xac, 0x5d, 0x38, 0x3e,
//   0x6d, 0x60, 0xf8, 0x3d, 0x66, 0xdc, 0xad, 0x3c, 0x8c, 0x4e, 0x48, 0xbe,
//   0x88, 0x6a, 0x98, 0x3d, 0x6e, 0x81, 0x00, 0x3e, 0x37, 0x66, 0x3f, 0x3d,
//   0x76, 0xab, 0x03, 0xbe, 0xe1, 0x11, 0x9f, 0xbc, 0xb1, 0x3a, 0xc1, 0x3d,
//   0x9b, 0xb7, 0xbf, 0xbd, 0x7c, 0x26, 0xb8, 0xbd, 0x67, 0xf5, 0x3a, 0x3d,
//   0x50, 0xd9, 0x21, 0xbd, 0xf1, 0x20, 0x15, 0x3e, 0xcf, 0xcf, 0x1e, 0xbd,
//   0x41, 0x10, 0x46, 0x3e, 0xa7, 0x55, 0x99, 0xbd, 0x44, 0xbc, 0x09, 0x3e,
//   0x36, 0xb5, 0x99, 0x3c, 0xe7, 0xdd, 0x29, 0xbe, 0xd9, 0x7b, 0xe6, 0x3d,
//   0x33, 0xca, 0x1d, 0xbe, 0x68, 0x67, 0x92, 0xbd, 0x32, 0xd6, 0xff, 0x3d,
//   0x5b, 0xb6, 0x24, 0x3e, 0x2c, 0xec, 0xc0, 0x3d, 0x8b, 0x12, 0x9d, 0x3d,
//   0x6b, 0x95, 0x0b, 0x3e, 0x6b, 0x12, 0x3f, 0xbe, 0x0a, 0x68, 0x02, 0xbe,
//   0x1f, 0x36, 0x88, 0xbe, 0x4b, 0x9e, 0x47, 0x3e, 0xba, 0x74, 0x6b, 0xbd,
//   0x1c, 0xed, 0x92, 0x3d, 0xd1, 0xa7, 0xb7, 0x3d, 0x31, 0x3a, 0x6b, 0xbe,
//   0x40, 0xa1, 0x2e, 0x3d, 0x5e, 0xf8, 0xc3, 0xbd, 0xba, 0x44, 0x2b, 0xbd,
//   0xd2, 0xf0, 0x49, 0xbe, 0x1e, 0xc2, 0x13, 0x3e, 0x6b, 0x34, 0x1b, 0x3e,
//   0xa4, 0xcd, 0x33, 0xbe, 0x86, 0x64, 0x27, 0xbd, 0xf1, 0x57, 0xde, 0xbd,
//   0xc0, 0xb9, 0x45, 0xbe, 0xca, 0x72, 0x4b, 0xbd, 0x79, 0xf3, 0x44, 0x3e,
//   0x12, 0xfb, 0x21, 0x3d, 0x42, 0x5a, 0x57, 0x3e, 0xab, 0x84, 0x5d, 0x3e,
//   0x5d, 0x72, 0xa2, 0xbd, 0x5c, 0x95, 0x61, 0xbe, 0x38, 0x8b, 0x07, 0xbe,
//   0xab, 0x69, 0x82, 0xbe, 0x15, 0xa6, 0x89, 0x3d, 0xdb, 0xd4, 0xe5, 0x3d,
//   0xce, 0xd2, 0x43, 0xbd, 0xa1, 0x17, 0x6b, 0xbe, 0x83, 0x6e, 0xe6, 0x3c,
//   0x50, 0xa0, 0x8f, 0xbe, 0x3e, 0x1d, 0xcb, 0xbd, 0x50, 0x04, 0x65, 0x3e,
//   0x67, 0x16, 0x81, 0x3d, 0xde, 0x4b, 0x71, 0xbe, 0x8b, 0x34, 0xb0, 0x3c,
//   0x61, 0x75, 0x10, 0xbe, 0x5d, 0x59, 0x40, 0x3e, 0x00, 0xf5, 0x8d, 0xbe,
//   0x67, 0xd8, 0x77, 0x3e, 0xfd, 0x62, 0x8e, 0xbd, 0x7d, 0xc0, 0x9c, 0xbd,
//   0xd6, 0xf6, 0x10, 0xbd, 0xc8, 0x37, 0x06, 0xbe, 0xde, 0xcb, 0xe0, 0xbc,
//   0x93, 0x68, 0xc3, 0x3d, 0x3f, 0x2b, 0xbe, 0x3a, 0x5b, 0x68, 0x9e, 0x3d,
//   0x65, 0xf4, 0xce, 0xbd, 0xfc, 0xe5, 0x26, 0xbd, 0x0b, 0xba, 0xd4, 0xbd,
//   0x90, 0xa4, 0x07, 0x3e, 0x85, 0x17, 0x73, 0x3d, 0xfd, 0x51, 0x78, 0xbd,
//   0x08, 0x9d, 0xc8, 0xbd, 0x20, 0x84, 0x63, 0x3c, 0xdc, 0x44, 0x89, 0xbe,
//   0x23, 0x5b, 0x58, 0xbe, 0x16, 0x02, 0x62, 0x3d, 0xf4, 0x00, 0x6c, 0x3e,
//   0x4a, 0x0b, 0x8f, 0x3d, 0x69, 0xcd, 0x46, 0x3d, 0x96, 0x56, 0x8d, 0xbe,
//   0x98, 0xde, 0x01, 0x3e, 0x50, 0x73, 0xae, 0x3d, 0xc8, 0x1d, 0x0b, 0x3e,
//   0x0a, 0xaf, 0x42, 0xbe, 0xea, 0xcb, 0x1a, 0xbe, 0x0e, 0x79, 0x97, 0xbd,
//   0xa2, 0x9f, 0x05, 0xbe, 0xbc, 0xf9, 0x33, 0xbd, 0x51, 0xe8, 0x54, 0x3e,
//   0x43, 0xbe, 0x75, 0xbe, 0xb4, 0x64, 0x13, 0xbe, 0xfd, 0x53, 0x6d, 0xbe,
//   0xaa, 0xc1, 0x52, 0x3d, 0x10, 0x24, 0x1e, 0x3e, 0x92, 0x8b, 0xc0, 0xbc,
//   0xbc, 0x7d, 0x01, 0x3e, 0x7f, 0xb5, 0xe0, 0x3d, 0xa3, 0x47, 0x3c, 0x3e,
//   0xc9, 0x24, 0x76, 0x3e, 0x5d, 0x18, 0x00, 0x3e, 0x08, 0xac, 0x2b, 0x3d,
//   0x94, 0xbf, 0x27, 0xbe, 0x08, 0x06, 0xc7, 0x3d, 0x2b, 0xde, 0x1e, 0xbd,
//   0x6b, 0x3d, 0x40, 0xbe, 0x66, 0x99, 0x74, 0xbd, 0xe5, 0xba, 0x00, 0xbd,
//   0xf4, 0x7a, 0xa0, 0x3d, 0x46, 0x7c, 0xcf, 0x3b, 0xf1, 0x5d, 0x89, 0xbe,
//   0x1a, 0x0f, 0x10, 0xbe, 0x10, 0x56, 0x60, 0x3d, 0x94, 0x43, 0xb1, 0xbd,
//   0x08, 0x2b, 0x50, 0x3e, 0x6e, 0xeb, 0x8b, 0xbe, 0xbb, 0xb5, 0x62, 0x3d,
//   0x62, 0x43, 0xee, 0xbc, 0xb4, 0x28, 0x6e, 0xbd, 0x40, 0xb9, 0x69, 0x3e,
//   0x1e, 0x68, 0xa9, 0xbd, 0x26, 0x82, 0xb9, 0xbd, 0x74, 0xa9, 0x81, 0x3d,
//   0xe9, 0x28, 0x6a, 0x3c, 0xd2, 0x6e, 0x1c, 0x3d, 0x05, 0xaf, 0xd5, 0xbb,
//   0xf5, 0x2b, 0x9e, 0xbd, 0xf1, 0x50, 0x8e, 0x3e, 0x9d, 0xc3, 0x37, 0xbe,
//   0x9b, 0xc1, 0x26, 0x3d, 0x29, 0xbb, 0xb5, 0xbd, 0x4d, 0x2d, 0x99, 0xbd,
//   0xaa, 0x39, 0x37, 0xbe, 0xda, 0xcc, 0x75, 0x3e, 0xa4, 0xac, 0x4c, 0xbe,
//   0xdc, 0x71, 0x10, 0x3c, 0x88, 0x03, 0x90, 0x3d, 0x04, 0x8b, 0x39, 0x3e,
//   0xb6, 0x91, 0xf2, 0xbd, 0xad, 0xe0, 0xc5, 0xbd, 0x1c, 0x1a, 0x30, 0xbc,
//   0x50, 0x48, 0x83, 0x3c, 0x05, 0xbd, 0xf0, 0x3d, 0x30, 0x6d, 0x08, 0xbc,
//   0x5e, 0x74, 0x0b, 0xbe, 0x91, 0x82, 0x4b, 0xbe, 0x16, 0xbb, 0x31, 0x3e,
//   0x9d, 0xdc, 0x0a, 0x3e, 0x7b, 0xdb, 0x80, 0xbe, 0xb7, 0x45, 0x4c, 0xbc,
//   0x0a, 0x5e, 0x1d, 0xbe, 0x14, 0x72, 0x28, 0x3c, 0x6e, 0x2a, 0x10, 0x3e,
//   0xd1, 0x94, 0xa0, 0x3d, 0x5b, 0x55, 0x8d, 0xbe, 0x56, 0xba, 0xf6, 0xbb,
//   0x20, 0xfd, 0x5c, 0xbe, 0xc3, 0x68, 0x77, 0xbe, 0x05, 0x57, 0xc8, 0xbc,
//   0x51, 0x92, 0xa6, 0xbb, 0xb6, 0xa4, 0xc2, 0x3d, 0x39, 0xfb, 0x91, 0xbe,
//   0xbb, 0xd8, 0x52, 0x3d, 0x2b, 0xf4, 0xf8, 0x3d, 0x04, 0x4e, 0x59, 0xbe,
//   0xe9, 0xf1, 0xa7, 0xbc, 0x7e, 0x89, 0x02, 0xbe, 0x40, 0x40, 0xaf, 0xbd,
//   0x69, 0x46, 0xa0, 0xbd, 0x95, 0x82, 0xce, 0x3d, 0x5f, 0xcf, 0x8c, 0xbe,
//   0x09, 0x46, 0x80, 0x3d, 0x71, 0xf7, 0xf7, 0x3d, 0x7a, 0x9f, 0x74, 0xbd,
//   0xbe, 0x8b, 0x61, 0xbd, 0xaa, 0xb7, 0x4d, 0x3d, 0x6d, 0x6f, 0x38, 0x3e,
//   0x75, 0x7a, 0xba, 0x3d, 0x17, 0xd9, 0x07, 0x3e, 0x33, 0xc0, 0xc8, 0xbd,
//   0xac, 0x5e, 0x32, 0xbe, 0xf5, 0x9b, 0xff, 0xbd, 0x62, 0x81, 0x05, 0x3d,
//   0x41, 0x55, 0x4c, 0x3d, 0x68, 0x9f, 0xd5, 0xbd, 0x27, 0xf1, 0x85, 0xbe,
//   0x34, 0xc6, 0x61, 0x3e, 0x0d, 0x0b, 0x68, 0x3e, 0xb0, 0x20, 0xcb, 0x3c,
//   0x9e, 0x32, 0x38, 0x3e, 0xb0, 0x5c, 0x4b, 0xbd, 0x6d, 0x41, 0x17, 0x3e,
//   0x3e, 0xb1, 0x09, 0xbe, 0x90, 0xbf, 0x10, 0x3e, 0x6e, 0x25, 0x5b, 0x3e,
//   0x6f, 0x5c, 0xc8, 0xbd, 0xb5, 0xb9, 0xa1, 0xbb, 0x22, 0x7d, 0x83, 0xbe,
//   0xde, 0xa1, 0x1d, 0xbe, 0x42, 0xef, 0x57, 0x3e, 0xb3, 0x5b, 0x5d, 0x3d,
//   0x24, 0x72, 0xfa, 0xbd, 0xd0, 0xc8, 0xc1, 0xbd, 0x75, 0x21, 0x73, 0x3d,
//   0x78, 0x0d, 0xca, 0x3d, 0xf2, 0x4c, 0x92, 0xbe, 0x84, 0x35, 0x98, 0xbe,
//   0xf8, 0xff, 0xfe, 0xbd, 0x1f, 0x8a, 0x3a, 0x3e, 0xc4, 0x17, 0xf8, 0x3d,
//   0x2e, 0x0c, 0xf3, 0xbd, 0x0b, 0x29, 0x47, 0xbe, 0x70, 0x6c, 0xc0, 0x3d,
//   0x2c, 0xcc, 0x7f, 0xbe, 0x34, 0xb7, 0xc8, 0x3d, 0xab, 0x45, 0x8c, 0xbd,
//   0xee, 0x0c, 0x81, 0xbe, 0x73, 0xd0, 0x9a, 0x3d, 0x33, 0xd6, 0xb2, 0x3d,
//   0xcc, 0x0b, 0x8a, 0xbd, 0x22, 0x35, 0x05, 0xbd, 0x16, 0x85, 0xef, 0x3d,
//   0xb4, 0xa3, 0x19, 0xbc, 0x32, 0x0e, 0x14, 0x3e, 0x06, 0xd3, 0x27, 0xbe,
//   0x15, 0xf1, 0x60, 0x3e, 0xc6, 0x53, 0x1b, 0x3e, 0x74, 0x92, 0xec, 0xbb,
//   0xa9, 0xb3, 0x1e, 0x3e, 0x4e, 0xdc, 0xbc, 0x3c, 0x48, 0x37, 0xb7, 0xbc,
//   0x4c, 0xca, 0x40, 0x3b, 0x2e, 0x24, 0x59, 0x3d, 0x49, 0xdc, 0x6d, 0x3e,
//   0xac, 0xc5, 0x09, 0x3a, 0x80, 0x38, 0x2a, 0xbe, 0x2c, 0xee, 0x6c, 0xbd,
//   0xe9, 0x9e, 0x95, 0x3d, 0x9e, 0xb3, 0x35, 0xbe, 0x14, 0x38, 0x81, 0x3e,
//   0x55, 0x54, 0x7c, 0x3e, 0xce, 0x9d, 0x45, 0x3e, 0xe4, 0xdc, 0x6b, 0xbd,
//   0x47, 0xc2, 0xdb, 0x3d, 0x4e, 0x27, 0x17, 0x3e, 0x0c, 0x42, 0x4d, 0xbe,
//   0x1d, 0x33, 0x68, 0xbd, 0xfe, 0x4d, 0x5e, 0xbe, 0xa5, 0x06, 0x4a, 0x3e,
//   0xfd, 0x6d, 0x26, 0x3e, 0x9d, 0x12, 0x3c, 0x3e, 0xb0, 0xd3, 0xf6, 0x3d,
//   0x2f, 0x1e, 0xfa, 0xbc, 0xb1, 0xa0, 0x23, 0x3d, 0x9d, 0x9f, 0xc0, 0xbd,
//   0x0d, 0x4d, 0x2f, 0xbe, 0xf5, 0xbd, 0xf8, 0x3d, 0x5e, 0x52, 0x32, 0xbe,
//   0x6e, 0x97, 0x98, 0x3e, 0xa5, 0x27, 0x25, 0x3e, 0x20, 0x9f, 0x67, 0x3d,
//   0x34, 0x01, 0x08, 0xbe, 0x3c, 0xd4, 0x58, 0x3e, 0x34, 0x4c, 0x11, 0x3e,
//   0xd1, 0x1a, 0x0a, 0x3d, 0x51, 0x0f, 0x73, 0xbd, 0x59, 0x96, 0x1f, 0xbb,
//   0x2a, 0xb9, 0x91, 0x3e, 0x3d, 0x48, 0x3b, 0xbe, 0x9a, 0x9d, 0x5b, 0x3e,
//   0xdd, 0x9a, 0x41, 0xbe, 0x07, 0x59, 0xa6, 0x3b, 0xf1, 0x6d, 0xbc, 0x3d,
//   0x23, 0x72, 0x0a, 0xbe, 0xea, 0xb3, 0x0a, 0xbe, 0x9e, 0xa1, 0x99, 0x3d,
//   0xeb, 0xd0, 0x18, 0x3e, 0x8a, 0xc6, 0x86, 0xbe, 0xf3, 0x20, 0x17, 0x3e,
//   0x48, 0x35, 0xd4, 0x3c, 0x64, 0xbd, 0xaf, 0xbd, 0xd3, 0x10, 0x65, 0xbd,
//   0xac, 0x7a, 0x79, 0x3e, 0x36, 0x04, 0x7d, 0x3c, 0xcf, 0xef, 0x38, 0xbe,
//   0x33, 0xea, 0xf1, 0xbd, 0x0c, 0x1a, 0xcb, 0x3d, 0xad, 0x5c, 0xe9, 0xbd,
//   0x57, 0x9d, 0x14, 0xbe, 0xeb, 0xca, 0xcc, 0x3c, 0xa7, 0xb6, 0x18, 0xbe,
//   0x47, 0x48, 0x96, 0x3d, 0x81, 0x0b, 0x90, 0xbe, 0x95, 0x04, 0xe8, 0xbd,
//   0x1d, 0x41, 0x67, 0x3e, 0x81, 0x07, 0x48, 0x3e, 0x68, 0xcd, 0xb9, 0x3d,
//   0x5a, 0x1d, 0x91, 0xbd, 0xb6, 0xb7, 0xf5, 0xbc, 0x9e, 0xa7, 0x4c, 0x3d,
//   0xf0, 0xc7, 0x1e, 0x3e, 0x8e, 0xa4, 0xf9, 0x3c, 0x2f, 0xe3, 0x05, 0x3e,
//   0x4e, 0x8e, 0x77, 0x3e, 0xd6, 0xd8, 0xb1, 0x3d, 0xf1, 0x8f, 0x42, 0x3d,
//   0x76, 0x8f, 0xea, 0xbd, 0x27, 0x9e, 0x88, 0xbc, 0xdb, 0x83, 0x81, 0x3d,
//   0xdd, 0xcf, 0x1a, 0x3d, 0x63, 0x5d, 0xb3, 0x3d, 0xc6, 0x8b, 0x69, 0x3e,
//   0x3e, 0x89, 0xdf, 0xbc, 0xc7, 0xce, 0x5e, 0xbe, 0xb2, 0xae, 0x79, 0x3e,
//   0xe8, 0xa4, 0x69, 0xbe, 0xca, 0x33, 0x57, 0xbd, 0x3d, 0x1f, 0x03, 0xbe,
//   0x32, 0xae, 0x2f, 0x3d, 0x49, 0xcd, 0x17, 0x3e, 0xd9, 0xd5, 0xb6, 0xbd,
//   0x5b, 0x7d, 0x2e, 0xbe, 0x8f, 0xe4, 0x6b, 0x3e, 0x6d, 0xe2, 0x84, 0xbd,
//   0xee, 0x91, 0x27, 0x3e, 0x88, 0x38, 0xe8, 0x3d, 0xa6, 0x8b, 0x76, 0x3e,
//   0x33, 0xde, 0xac, 0x3b, 0x27, 0x27, 0x0c, 0xbe, 0x9f, 0x96, 0x00, 0x3e,
//   0x5e, 0xb5, 0x35, 0xbd, 0xa2, 0x1e, 0x5b, 0xbe, 0x26, 0x3c, 0x4c, 0x3c,
//   0x2d, 0x51, 0xc4, 0xbd, 0xaf, 0x9e, 0xbb, 0x3d, 0x85, 0x40, 0xf3, 0x3d,
//   0x85, 0xab, 0xe6, 0xbd, 0x50, 0x2c, 0x1a, 0xbe, 0xf8, 0xe5, 0x23, 0xbd,
//   0x03, 0xcc, 0x56, 0xbe, 0x02, 0xfc, 0x30, 0xbe, 0xd5, 0x66, 0x93, 0xbd,
//   0x88, 0xf1, 0x23, 0xbe, 0x36, 0x8f, 0x8d, 0x3e, 0x10, 0x86, 0x1d, 0xbb,
//   0xac, 0xd9, 0x3a, 0xbd, 0x1e, 0xfd, 0xa9, 0x3d, 0x98, 0xe6, 0x8e, 0x3c,
//   0xee, 0x84, 0x98, 0xbd, 0xa6, 0x9b, 0xe6, 0x3d, 0x7c, 0x02, 0x90, 0xbd,
//   0x08, 0xe9, 0x3f, 0x3d, 0x80, 0x1c, 0xaf, 0x3d, 0xae, 0xfc, 0x5c, 0x3e,
//   0xd6, 0x13, 0x72, 0x3d, 0xae, 0xce, 0x28, 0xbe, 0x1b, 0x84, 0x0e, 0x3e,
//   0x62, 0xb0, 0x40, 0xbd, 0x51, 0x19, 0x06, 0xbe, 0x26, 0x9e, 0xc7, 0x3d,
//   0xf0, 0x09, 0x35, 0xbe, 0xc3, 0xf0, 0x2a, 0xbe, 0x9f, 0x35, 0x33, 0x3e,
//   0x28, 0x64, 0x75, 0x3c, 0x16, 0xb5, 0x24, 0x3e, 0xbb, 0xf4, 0xfa, 0x3d,
//   0xdc, 0x71, 0x4f, 0x3e, 0x2b, 0x21, 0x38, 0x3e, 0x3d, 0x1a, 0x52, 0xbe,
//   0x13, 0xd4, 0x0b, 0x3e, 0x56, 0x55, 0x35, 0xbe, 0xe6, 0x9b, 0x7e, 0xbd,
//   0xa4, 0xc5, 0x0f, 0xbe, 0xe3, 0x21, 0x88, 0xbe, 0x99, 0x69, 0x8a, 0xbe,
//   0x03, 0xdb, 0x85, 0xbe, 0x1d, 0x1e, 0x54, 0x3e, 0x50, 0x34, 0x24, 0xbe,
//   0xb6, 0x2d, 0x3e, 0xbd, 0x7b, 0xfb, 0x99, 0xbd, 0xc6, 0x2d, 0x20, 0x3e,
//   0xe0, 0xe6, 0xe0, 0x3d, 0xed, 0xa3, 0x55, 0x3c, 0xe5, 0xfd, 0x49, 0x3e,
//   0x15, 0x3e, 0x53, 0x3e, 0xe6, 0xf6, 0x6d, 0x3e, 0xf5, 0xbb, 0x84, 0xbe,
//   0xb1, 0x09, 0x25, 0xbe, 0xbf, 0xf8, 0xc0, 0xbd, 0x69, 0x74, 0x01, 0xbe,
//   0xb1, 0x0c, 0x3b, 0x3e, 0xec, 0x5f, 0x74, 0x3e, 0x63, 0xe9, 0x99, 0xbd,
//   0x50, 0x09, 0xad, 0xbd, 0x14, 0x52, 0x2c, 0x3c, 0x63, 0x1b, 0x4b, 0x3e,
//   0x95, 0x09, 0x2f, 0x3e, 0x0a, 0x61, 0x79, 0xbe, 0xa6, 0x5d, 0x3a, 0xbd,
//   0x54, 0x5d, 0x2b, 0x3d, 0xb5, 0xef, 0xaf, 0x3d, 0x13, 0xc6, 0x92, 0xbd,
//   0x58, 0x8d, 0x17, 0xbc, 0x6e, 0xba, 0x8d, 0xbe, 0x98, 0xf0, 0x39, 0x3e,
//   0xa6, 0xee, 0x5c, 0xbe, 0xa1, 0x35, 0x62, 0xbe, 0xee, 0x34, 0xe2, 0x3d,
//   0x94, 0x9f, 0x1d, 0xbd, 0xd7, 0x36, 0x28, 0xbd, 0x4a, 0x3a, 0x2b, 0xbe,
//   0x92, 0x09, 0x29, 0x3e, 0xf3, 0x1a, 0x61, 0x3e, 0xd1, 0x69, 0x64, 0xbe,
//   0x92, 0x17, 0xc8, 0x3d, 0x38, 0xb6, 0xb5, 0x3c, 0x66, 0xb3, 0x2b, 0x3e,
//   0xf1, 0x50, 0x4f, 0x3e, 0xfa, 0x6c, 0xf9, 0x3d, 0x61, 0x52, 0x39, 0x3e,
//   0xf3, 0xca, 0x78, 0xbd, 0xc9, 0xd0, 0xf8, 0x3c, 0x31, 0x82, 0x4f, 0x3e,
//   0x92, 0xd0, 0x40, 0xbd, 0x6c, 0x7f, 0x92, 0xbe, 0x74, 0x53, 0x77, 0x3e,
//   0x1f, 0x45, 0x62, 0x3e, 0x43, 0x53, 0x3f, 0x3e, 0x82, 0x5b, 0xcb, 0xbc,
//   0x73, 0x52, 0xae, 0xbc, 0x59, 0xb8, 0x16, 0xbe, 0x38, 0xfe, 0x13, 0x3e,
//   0xff, 0x30, 0x49, 0xbe, 0x58, 0x20, 0x1c, 0x3e, 0xf3, 0x12, 0x97, 0x3e,
//   0xd0, 0x69, 0x7f, 0xbd, 0x04, 0x61, 0x01, 0xbc, 0x1b, 0x1c, 0x26, 0xbe,
//   0x9a, 0x65, 0xac, 0x3d, 0x35, 0xb3, 0x59, 0xbd, 0x2c, 0x2b, 0x84, 0x3e,
//   0xa6, 0x79, 0x13, 0xbd, 0x2a, 0x03, 0x06, 0x3e, 0x07, 0x76, 0x21, 0xbe,
//   0x3a, 0x64, 0xbc, 0xbd, 0x27, 0x0d, 0x3a, 0x3e, 0xf4, 0xa6, 0x1d, 0x3d,
//   0x37, 0x88, 0xe2, 0x3c, 0x22, 0x32, 0xf0, 0x3d, 0xdf, 0x6d, 0x6e, 0x3e,
//   0xad, 0x4c, 0xd4, 0xbd, 0xec, 0xf9, 0x15, 0x3d, 0xed, 0x9a, 0x21, 0xbe,
//   0x9e, 0x87, 0x19, 0x3e, 0x78, 0x8f, 0xfe, 0x3d, 0xa9, 0xc3, 0x73, 0x3e,
//   0x65, 0x71, 0xa2, 0xbd, 0xb7, 0x12, 0x3a, 0xbc, 0xe0, 0x51, 0x7b, 0x3e,
//   0xe0, 0xb0, 0xf4, 0xbd, 0x17, 0x49, 0x71, 0xbc, 0x32, 0xdb, 0x3c, 0xbe,
//   0x8d, 0xba, 0x52, 0xbe, 0x34, 0xcb, 0x24, 0xbe, 0xeb, 0x2e, 0x4e, 0x3e,
//   0x4b, 0x49, 0x64, 0x3e, 0x62, 0x4a, 0x86, 0xbd, 0x1c, 0xc6, 0xf7, 0xbd,
//   0x20, 0x84, 0x9e, 0xbe, 0xd6, 0x9a, 0x04, 0xbe, 0x87, 0xbe, 0x8d, 0xbc,
//   0xf6, 0x53, 0xa7, 0x3d, 0xd1, 0xcb, 0x4f, 0xbd, 0x19, 0xe5, 0x7a, 0x3e,
//   0x6b, 0x5e, 0x8d, 0x3c, 0x52, 0xcf, 0x6e, 0xbe, 0xaf, 0x2f, 0x52, 0x3c,
//   0x9e, 0x1b, 0x59, 0x3e, 0xce, 0x89, 0xf3, 0x3d, 0x06, 0x1b, 0x21, 0x3e,
//   0xf5, 0xfc, 0x64, 0x3e, 0x55, 0xee, 0x2b, 0x3e, 0xc9, 0xfb, 0x4b, 0x3e,
//   0xe2, 0x4f, 0x58, 0xbe, 0x44, 0x4e, 0xf9, 0x3d, 0x8d, 0xcc, 0x4d, 0xbe,
//   0x3c, 0x28, 0x2b, 0xbe, 0x9d, 0xd0, 0x41, 0xbd, 0x67, 0x2a, 0xa6, 0xbd,
//   0x61, 0xb3, 0x8b, 0xbd, 0x7b, 0xa0, 0x75, 0xbe, 0x7a, 0x8a, 0xff, 0xbd,
//   0xbe, 0x64, 0x90, 0xbe, 0x7a, 0x56, 0xec, 0xbd, 0xbd, 0x93, 0xd4, 0xbd,
//   0xac, 0x4d, 0x93, 0xbb, 0x0e, 0xc9, 0x66, 0xbe, 0xdf, 0x55, 0x41, 0x3e,
//   0xfb, 0xa5, 0x84, 0x3d, 0x0d, 0xb7, 0x55, 0xbe, 0xe1, 0x30, 0x1a, 0x3c,
//   0xb7, 0xb6, 0x85, 0x3e, 0x35, 0x3a, 0x36, 0xbe, 0x45, 0xb6, 0x00, 0x3e,
//   0xe7, 0x7c, 0xf1, 0xbd, 0x0f, 0xd5, 0x08, 0xbd, 0xfb, 0xad, 0x0d, 0xbe,
//   0x7b, 0xc3, 0x70, 0x3e, 0x7f, 0x40, 0x21, 0xbe, 0xb6, 0x86, 0x45, 0x3c,
//   0xc9, 0x00, 0x29, 0xbe, 0xfc, 0x70, 0x77, 0xbe, 0x0e, 0x3a, 0x33, 0x3e,
//   0xc5, 0xb9, 0xe9, 0xbd, 0x36, 0x5c, 0x48, 0xbe, 0x98, 0xc7, 0xeb, 0xbd,
//   0x53, 0x14, 0x3e, 0xbe, 0xda, 0x1c, 0x08, 0x3d, 0x67, 0x9d, 0xb4, 0xbc,
//   0x89, 0xf2, 0x36, 0x3d, 0xc4, 0x78, 0xfa, 0x3b, 0x2e, 0xc6, 0x38, 0x3e,
//   0x2e, 0x5e, 0x77, 0x3d, 0xab, 0xc3, 0x0a, 0xbe, 0x4d, 0xaf, 0x49, 0x3d,
//   0x80, 0xa8, 0xa6, 0x3c, 0x99, 0x05, 0x76, 0xbe, 0xce, 0xff, 0x35, 0xbe,
//   0x2a, 0xed, 0xa3, 0xbd, 0x9e, 0xa6, 0xa5, 0x3e, 0xa4, 0x20, 0x90, 0xbe,
//   0xa1, 0x6d, 0x24, 0x3e, 0xb1, 0xfd, 0x45, 0xbe, 0xda, 0xe4, 0x03, 0xbe,
//   0xe3, 0x1f, 0x81, 0xbd, 0x07, 0xf0, 0x4d, 0x3d, 0xe4, 0xe0, 0xc0, 0x3d,
//   0x67, 0x14, 0x49, 0xbe, 0x93, 0x3a, 0x48, 0x3d, 0x16, 0x60, 0x0f, 0xbd,
//   0x49, 0xe8, 0x3d, 0xbe, 0x49, 0xe9, 0xd4, 0x3d, 0x87, 0x51, 0x09, 0x3e,
//   0x1b, 0xc2, 0x34, 0x3e, 0x03, 0x2e, 0x1d, 0x3e, 0x99, 0xe7, 0xac, 0x3c,
//   0x9a, 0xd0, 0x27, 0x3d, 0xd5, 0xd2, 0x84, 0xbe, 0x7a, 0x93, 0xe3, 0xbd,
//   0xdc, 0xf3, 0x6d, 0xbe, 0xf3, 0xe6, 0x20, 0xbe, 0xfa, 0x8f, 0xda, 0xbd,
//   0xb5, 0x94, 0x3e, 0xbe, 0xd8, 0xf5, 0x99, 0x3e, 0xf8, 0x8f, 0x2f, 0x3e,
//   0xc1, 0xc6, 0xb5, 0x3d, 0xb7, 0x2e, 0x9f, 0xbd, 0x64, 0xce, 0x4a, 0x3e,
//   0x8d, 0xd7, 0xe6, 0xbd, 0xa9, 0x8e, 0xbb, 0xbd, 0x2d, 0x81, 0x91, 0xbe,
//   0x40, 0x95, 0x39, 0x3c, 0xae, 0x06, 0x55, 0x3e, 0x6b, 0xed, 0x9c, 0xbc,
//   0x40, 0x1b, 0xac, 0x3d, 0x8d, 0x9d, 0x1d, 0x3e, 0x03, 0x1c, 0x17, 0x3e,
//   0x80, 0xe8, 0xdb, 0x3a, 0xfb, 0xf5, 0xa3, 0xbe, 0x99, 0xdd, 0x93, 0x3e,
//   0xfc, 0xd0, 0x12, 0xbe, 0xa1, 0x11, 0x8b, 0xbc, 0xa9, 0xec, 0x05, 0xbc,
//   0x0e, 0x17, 0x49, 0xbe, 0x59, 0x00, 0x4a, 0x3e, 0x44, 0x3e, 0xf6, 0xbd,
//   0x2d, 0xc2, 0x3e, 0x3e, 0x00, 0xbd, 0x51, 0xbd, 0xf3, 0xf7, 0x8b, 0x3e,
//   0x51, 0xea, 0x01, 0xbc, 0x26, 0x90, 0x5d, 0x3e, 0xb4, 0x8d, 0x1e, 0xbe,
//   0x13, 0xd7, 0x04, 0x3e, 0x3b, 0x34, 0xe1, 0xbd, 0x53, 0xbb, 0x9c, 0xbd,
//   0x8c, 0xc9, 0x54, 0x3d, 0xc2, 0x02, 0x89, 0x3e, 0xf6, 0x2c, 0x0c, 0xbe,
//   0xd4, 0xc7, 0x1b, 0xbc, 0xcc, 0x4d, 0xac, 0xbd, 0x83, 0x59, 0x41, 0x3e,
//   0xd6, 0x3c, 0x83, 0x3e, 0xe7, 0xad, 0x45, 0x3e, 0xd7, 0xd7, 0x58, 0x3e,
//   0x42, 0xbb, 0x6e, 0xbe, 0xe4, 0x76, 0x3c, 0xbd, 0xbe, 0x2a, 0xf8, 0xbc,
//   0xc1, 0xf0, 0x71, 0xbd, 0xce, 0x4d, 0x5f, 0x3e, 0xb2, 0xb4, 0x31, 0xbc,
//   0x7c, 0x09, 0x30, 0x3d, 0xe7, 0xb5, 0x3e, 0xbe, 0x9a, 0x2e, 0x69, 0x3e,
//   0x86, 0x9b, 0x62, 0x3e, 0xa7, 0x52, 0xf2, 0x3d, 0x3f, 0xc8, 0xfc, 0x3d,
//   0xa6, 0x57, 0x43, 0x3d, 0x00, 0x8f, 0x0b, 0xbe, 0x55, 0x73, 0x60, 0x3e,
//   0xd6, 0x98, 0x7d, 0xbd, 0xc8, 0x04, 0xf5, 0x3d, 0x62, 0x3f, 0xb5, 0x3d,
//   0xf6, 0x06, 0x9a, 0x3e, 0x7b, 0xbd, 0x35, 0x3e, 0x0e, 0xbd, 0x56, 0xbe,
//   0x51, 0x5b, 0xf7, 0x3d, 0xc4, 0x42, 0x92, 0x3e, 0xa1, 0xe5, 0x3d, 0x3e,
//   0xb8, 0xdc, 0x4d, 0xbd, 0xe9, 0xc5, 0xd4, 0x3d, 0x2e, 0xa5, 0x5f, 0xbd,
//   0x34, 0x6d, 0x18, 0x3d, 0xf0, 0x3f, 0x8d, 0xba, 0xe6, 0x0b, 0x6c, 0x3d,
//   0x41, 0x0e, 0x0a, 0x3e, 0x55, 0xc7, 0x9b, 0x3c, 0x83, 0x92, 0xa6, 0x3d,
//   0xbd, 0x8a, 0x98, 0xbd, 0xe2, 0x6b, 0x84, 0xbe, 0x65, 0x5d, 0x03, 0xbd,
//   0x99, 0x1a, 0x1d, 0x3e, 0x98, 0x2e, 0x5f, 0x3e, 0x40, 0xcb, 0xcf, 0xbd,
//   0xb6, 0xd8, 0x6e, 0x3e, 0x82, 0x04, 0x9a, 0xbc, 0xdf, 0xcc, 0x2b, 0x3e,
//   0x15, 0xdf, 0x8e, 0xbd, 0x87, 0x05, 0x6f, 0xbe, 0xd6, 0x7b, 0x50, 0xbe,
//   0x74, 0xef, 0x7f, 0x3e, 0xe1, 0xb2, 0x02, 0x3e, 0xee, 0xe3, 0xb2, 0x3d,
//   0x91, 0x79, 0x8d, 0xbe, 0xf5, 0x1e, 0x90, 0x3e, 0xca, 0x9a, 0x31, 0xbe,
//   0x33, 0xcd, 0x0f, 0xbe, 0x20, 0xd1, 0x6f, 0xbe, 0x35, 0x8f, 0xb5, 0x3d,
//   0xeb, 0x94, 0x1f, 0x3d, 0xa3, 0x70, 0xa4, 0x3d, 0x7e, 0xfb, 0xff, 0xff,
//   0x04, 0x00, 0x00, 0x00, 0x04, 0x00, 0x00, 0x00, 0xfd, 0xff, 0xff, 0xff,
//   0x8e, 0xfb, 0xff, 0xff, 0x04, 0x00, 0x00, 0x00, 0x08, 0x00, 0x00, 0x00,
//   0xff, 0xff, 0xff, 0xff, 0x48, 0x00, 0x00, 0x00, 0xa2, 0xfb, 0xff, 0xff,
//   0x04, 0x00, 0x00, 0x00, 0x04, 0x00, 0x00, 0x00, 0x02, 0x00, 0x00, 0x00,
//   0xb2, 0xfb, 0xff, 0xff, 0x04, 0x00, 0x00, 0x00, 0x40, 0x00, 0x00, 0x00,
//   0x25, 0xf4, 0x7f, 0x3a, 0x67, 0xd9, 0x72, 0xbc, 0xa8, 0x2d, 0x3e, 0x3d,
//   0x24, 0x7b, 0x83, 0x3d, 0x54, 0x6a, 0x1e, 0x3b, 0x65, 0x56, 0x83, 0x3b,
//   0x3d, 0x26, 0x4b, 0xbc, 0xec, 0x79, 0xeb, 0xbc, 0xac, 0x94, 0xab, 0xbc,
//   0x77, 0xc5, 0x17, 0xbd, 0x80, 0x6c, 0x6d, 0x3d, 0x1d, 0x3c, 0xe8, 0x3c,
//   0xce, 0x16, 0x54, 0xbc, 0x3d, 0x82, 0x6e, 0x3d, 0xd4, 0x3c, 0xf2, 0x3b,
//   0xe0, 0xcb, 0x62, 0x3d, 0xfe, 0xfb, 0xff, 0xff, 0x04, 0x00, 0x00, 0x00,
//   0x40, 0x00, 0x00, 0x00, 0xee, 0x00, 0x39, 0xbd, 0xa3, 0x37, 0x9a, 0x3d,
//   0x76, 0x5a, 0x11, 0xbd, 0x44, 0x47, 0x41, 0xbc, 0xbf, 0x37, 0x43, 0x3c,
//   0x1f, 0x43, 0xc9, 0xbc, 0x2c, 0x77, 0x0a, 0xbd, 0xe4, 0xc1, 0x5a, 0xbd,
//   0xc7, 0xd8, 0x7c, 0x3d, 0x00, 0xfb, 0xd2, 0xbc, 0x61, 0x90, 0x27, 0xbd,
//   0x70, 0x4e, 0x71, 0x3d, 0x69, 0xcc, 0x3c, 0xbc, 0x5c, 0x2c, 0xb6, 0x3d,
//   0xe1, 0x83, 0x28, 0x3d, 0x52, 0x35, 0x21, 0xbd, 0x4a, 0xfc, 0xff, 0xff,
//   0x04, 0x00, 0x00, 0x00, 0x24, 0x00, 0x00, 0x00, 0xe9, 0xd6, 0x85, 0xbd,
//   0x11, 0xde, 0x25, 0xbd, 0xa4, 0xeb, 0xd8, 0x3c, 0xd8, 0xd2, 0xed, 0xbd,
//   0x53, 0x7c, 0x9a, 0x3d, 0x49, 0x61, 0x6c, 0x3d, 0x1b, 0x44, 0x91, 0xbd,
//   0x0d, 0x75, 0x52, 0x3c, 0xc2, 0x8e, 0xc0, 0xbd, 0x7a, 0xfc, 0xff, 0xff,
//   0x04, 0x00, 0x00, 0x00, 0x60, 0x03, 0x00, 0x00, 0x98, 0x76, 0xa3, 0xbc,
//   0xef, 0xb1, 0xa6, 0x3d, 0xae, 0x81, 0xe1, 0xbd, 0x05, 0x8f, 0x58, 0x3d,
//   0xec, 0x45, 0x65, 0xbe, 0x50, 0xd6, 0xd0, 0xbb, 0x4f, 0x05, 0xac, 0xbe,
//   0x66, 0x90, 0x42, 0x3e, 0x04, 0xb7, 0x9e, 0xbe, 0xd2, 0x6c, 0x5f, 0x3e,
//   0x38, 0x60, 0x28, 0xbe, 0xef, 0x63, 0xaa, 0x3e, 0xa6, 0xba, 0x8a, 0x3e,
//   0x0f, 0xe5, 0x92, 0x3e, 0x40, 0x64, 0x97, 0x3d, 0x23, 0x41, 0xcc, 0xbd,
//   0xab, 0x1b, 0xbd, 0x3e, 0xe1, 0x16, 0xce, 0xbb, 0x85, 0xdf, 0xed, 0xbd,
//   0x11, 0xb2, 0x96, 0x3e, 0x9e, 0x21, 0xf6, 0xbd, 0xc0, 0xd4, 0xf0, 0x3d,
//   0x39, 0xe7, 0xdc, 0xbd, 0x09, 0xc1, 0xd8, 0xbd, 0xc8, 0xcd, 0x88, 0x3d,
//   0x79, 0xef, 0x42, 0xbe, 0xe1, 0xaf, 0x42, 0x3e, 0x02, 0x6a, 0xb0, 0xbe,
//   0x28, 0x33, 0x83, 0x3e, 0xb2, 0x18, 0xdf, 0x3d, 0x02, 0xa3, 0x38, 0x3e,
//   0xd4, 0x06, 0x6b, 0xbd, 0x89, 0x3f, 0xed, 0x3c, 0x33, 0x1e, 0x9a, 0xbe,
//   0xf0, 0x26, 0xa0, 0x3d, 0x6f, 0x2e, 0x81, 0xbe, 0xd9, 0x71, 0x15, 0xbe,
//   0x96, 0x3a, 0xc9, 0x3c, 0xe1, 0xb2, 0x5a, 0x3e, 0xfc, 0x90, 0x0b, 0x3e,
//   0xb8, 0x02, 0x32, 0x3e, 0x8a, 0x4f, 0xae, 0xbd, 0x0c, 0x2e, 0x6e, 0x3c,
//   0x1c, 0x1a, 0x6f, 0xbe, 0x70, 0x48, 0xf8, 0x3d, 0x91, 0x9d, 0x47, 0xbe,
//   0xaa, 0x18, 0x88, 0xbd, 0x78, 0x9b, 0xea, 0xbd, 0x57, 0xa5, 0x86, 0xbe,
//   0xcb, 0x25, 0x89, 0x3e, 0x3f, 0x06, 0x09, 0x3d, 0x46, 0xe7, 0xe0, 0xbd,
//   0xe2, 0x37, 0xcd, 0x3d, 0xf5, 0x43, 0xa8, 0xbc, 0xc3, 0x83, 0x29, 0xbe,
//   0x1c, 0x49, 0x6c, 0xbc, 0xd0, 0xa6, 0xa4, 0x3b, 0xd8, 0xc8, 0x98, 0x3e,
//   0x61, 0xd7, 0xd3, 0x3d, 0x02, 0xed, 0xb5, 0xbb, 0xda, 0xc0, 0x72, 0x3d,
//   0x1f, 0x92, 0xb2, 0xbd, 0xa0, 0x22, 0x7b, 0x3e, 0x52, 0x2b, 0xb0, 0xbe,
//   0xc0, 0x6e, 0x83, 0x3d, 0x40, 0xfe, 0xe9, 0x3d, 0x25, 0x8e, 0xec, 0xbd,
//   0xf8, 0x63, 0x63, 0x3e, 0x3b, 0x77, 0x7d, 0xbe, 0x72, 0x85, 0xfe, 0x3d,
//   0x83, 0x90, 0xa1, 0x3d, 0x69, 0x7f, 0xe4, 0x3d, 0xba, 0x66, 0xfa, 0x3d,
//   0xc0, 0x3b, 0x93, 0x3e, 0xf9, 0xe3, 0x70, 0xbd, 0x53, 0x1b, 0x90, 0x3e,
//   0x94, 0x85, 0x95, 0x3e, 0x2b, 0x62, 0xba, 0x3d, 0xb9, 0x2f, 0xe5, 0x3d,
//   0xfa, 0xc5, 0x95, 0x3e, 0x11, 0xf4, 0x46, 0xbe, 0x27, 0xbe, 0x7c, 0xbe,
//   0xcb, 0x04, 0xcf, 0x3e, 0x15, 0x35, 0xce, 0x3e, 0xd6, 0xf2, 0x29, 0x3d,
//   0x00, 0x94, 0x07, 0x3e, 0xdc, 0x0e, 0x83, 0xbe, 0x9a, 0x7c, 0x0d, 0x39,
//   0xc3, 0x02, 0xf9, 0xbd, 0xb4, 0x19, 0x80, 0x3e, 0x98, 0x8b, 0x90, 0x3e,
//   0x45, 0x0c, 0xae, 0xbd, 0x23, 0xc0, 0x15, 0xbe, 0xb8, 0xc1, 0x04, 0x3c,
//   0x05, 0xf8, 0x64, 0xbe, 0x3c, 0xe0, 0x6c, 0xbe, 0x41, 0xff, 0x93, 0xbe,
//   0xaf, 0xef, 0x91, 0xbe, 0x1c, 0x19, 0xcc, 0x3d, 0x64, 0x03, 0xe0, 0xbd,
//   0x03, 0xa3, 0x66, 0x3d, 0x35, 0x16, 0x6e, 0x3e, 0x7b, 0x0f, 0x98, 0x3c,
//   0x40, 0xfa, 0x83, 0x3e, 0xe4, 0xfd, 0xa7, 0xbe, 0xac, 0x24, 0xbc, 0x3d,
//   0x2a, 0xa5, 0x74, 0xbe, 0xa8, 0x1e, 0x9d, 0xbd, 0x5e, 0xcd, 0xbc, 0x3d,
//   0x03, 0x28, 0x50, 0x3e, 0x7f, 0x16, 0x99, 0xbe, 0x0a, 0x3b, 0xad, 0x3e,
//   0x60, 0xc0, 0xc4, 0x3d, 0xcf, 0x5f, 0xb2, 0x3d, 0xe0, 0xb8, 0x40, 0x3e,
//   0x14, 0x5b, 0xac, 0xbe, 0x51, 0x11, 0x64, 0xbe, 0xc8, 0x13, 0xb6, 0xbd,
//   0xfa, 0x67, 0x2d, 0xbe, 0x85, 0xb8, 0x37, 0xbe, 0xf8, 0xc7, 0x87, 0x3d,
//   0x96, 0x9f, 0xaa, 0xbe, 0x31, 0x4e, 0xbc, 0xbd, 0x96, 0xb2, 0x07, 0x3e,
//   0x44, 0x30, 0xb1, 0x3e, 0x72, 0xdd, 0x07, 0x3e, 0x32, 0xfb, 0xa3, 0x3c,
//   0x6e, 0x37, 0x54, 0x3e, 0x25, 0x04, 0x90, 0xbe, 0x04, 0x92, 0x78, 0xbe,
//   0x03, 0x5c, 0x22, 0xbe, 0x3a, 0x18, 0x9e, 0xbe, 0xa3, 0xf1, 0x0a, 0xbe,
//   0x40, 0x08, 0x59, 0x3e, 0x7c, 0xd4, 0x63, 0x3e, 0x32, 0x7b, 0x73, 0x3e,
//   0xee, 0x69, 0x6e, 0x3e, 0xcf, 0xb2, 0x2a, 0xbe, 0x87, 0x42, 0xa3, 0x3e,
//   0x20, 0x71, 0x97, 0x3e, 0xdb, 0x69, 0x89, 0x3e, 0xce, 0x59, 0x8a, 0x3e,
//   0xf2, 0xaa, 0xcb, 0xbd, 0xe4, 0x74, 0x9c, 0x3c, 0x88, 0x0f, 0x2e, 0x3e,
//   0x5c, 0x6e, 0x77, 0xbe, 0xb7, 0x57, 0x69, 0x3d, 0x66, 0xd7, 0x95, 0xbe,
//   0xc0, 0x0f, 0xdc, 0xbc, 0xc1, 0x5c, 0x3e, 0x3e, 0x4d, 0x53, 0xa3, 0xbe,
//   0x6b, 0xcc, 0xd5, 0xbd, 0x67, 0xa3, 0x7f, 0x3e, 0x42, 0x8c, 0xa7, 0xbd,
//   0x2f, 0x4b, 0x71, 0x3e, 0xf8, 0xcb, 0xd9, 0x3c, 0xb0, 0xa4, 0xa0, 0x3e,
//   0xdc, 0x30, 0x81, 0xbe, 0x8b, 0x4f, 0x48, 0x3b, 0x3c, 0x30, 0x5a, 0xbe,
//   0x0d, 0x7b, 0x10, 0x3e, 0x54, 0x97, 0x9c, 0x3e, 0xfd, 0x46, 0x80, 0x3c,
//   0x33, 0x1d, 0x93, 0xbe, 0x10, 0x56, 0x0a, 0x3c, 0xab, 0xe4, 0xfa, 0xbd,
//   0x9d, 0xfa, 0x4e, 0xbe, 0x3b, 0x5f, 0x92, 0xbe, 0xbf, 0xcd, 0x76, 0x3e,
//   0x9e, 0x09, 0x3d, 0x3e, 0x0f, 0x01, 0xdf, 0xbe, 0x8d, 0x51, 0x98, 0xbe,
//   0xdc, 0x6e, 0xcc, 0x3b, 0x50, 0xf4, 0xbf, 0x3e, 0x7a, 0x17, 0x0c, 0xbe,
//   0x22, 0x9e, 0x58, 0xbe, 0x6a, 0x28, 0x43, 0x3e, 0x2a, 0x85, 0x08, 0xbe,
//   0xa9, 0xe4, 0x2c, 0x3e, 0x1d, 0x48, 0xca, 0xbe, 0x9e, 0x6f, 0x06, 0xbe,
//   0xaf, 0x5e, 0xf2, 0xbc, 0x89, 0xdc, 0xd9, 0xbd, 0x30, 0xb4, 0x88, 0xbe,
//   0x20, 0x01, 0xa6, 0xbc, 0x5e, 0x8a, 0x8e, 0x3e, 0x96, 0x5b, 0x69, 0x3d,
//   0x51, 0xfe, 0x48, 0xbe, 0xf3, 0x51, 0x65, 0x3e, 0xf9, 0x30, 0xde, 0xbc,
//   0x10, 0xd5, 0x71, 0x3b, 0xa0, 0xf8, 0x5c, 0xbe, 0x38, 0xab, 0x13, 0x3d,
//   0x33, 0xdc, 0x7c, 0xbe, 0x0e, 0x83, 0xad, 0x3b, 0x14, 0xa8, 0x1b, 0xbd,
//   0x05, 0x86, 0x10, 0xbd, 0x56, 0x80, 0x04, 0xbe, 0x5a, 0x5c, 0xa1, 0x3e,
//   0x82, 0x65, 0x94, 0xbe, 0x11, 0xb6, 0x98, 0xbe, 0x01, 0x6f, 0x27, 0xbe,
//   0xaa, 0x96, 0x49, 0x3e, 0xcb, 0xd1, 0x8e, 0xbe, 0xc2, 0x7a, 0x31, 0xbe,
//   0xd9, 0x93, 0xab, 0x3e, 0xa7, 0x10, 0xa0, 0x3e, 0x1f, 0x83, 0x9d, 0x3d,
//   0x1a, 0x05, 0x37, 0x3e, 0xe0, 0x98, 0x07, 0x3d, 0x24, 0x4a, 0x7e, 0x3d,
//   0x05, 0x10, 0x6e, 0x3c, 0x20, 0xdc, 0x8d, 0xbd, 0x4b, 0x29, 0xfb, 0xbd,
//   0xbc, 0x5b, 0x3a, 0xbe, 0xb2, 0xa9, 0xf9, 0x3d, 0xe6, 0xff, 0xff, 0xff,
//   0x04, 0x00, 0x00, 0x00, 0x0c, 0x00, 0x00, 0x00, 0xff, 0xff, 0xff, 0xff,
//   0x12, 0x00, 0x00, 0x00, 0x08, 0x00, 0x00, 0x00, 0x00, 0x00, 0x06, 0x00,
//   0x08, 0x00, 0x04, 0x00, 0x06, 0x00, 0x00, 0x00, 0x04, 0x00, 0x00, 0x00,
//   0x20, 0x00, 0x00, 0x00, 0x85, 0x56, 0x8b, 0x3d, 0xff, 0xe0, 0xa6, 0xbc,
//   0xec, 0x4b, 0x84, 0xbb, 0x4d, 0x2c, 0x5d, 0x3d, 0xcd, 0x23, 0x59, 0x3c,
//   0xb4, 0xaa, 0x4c, 0xbb, 0x51, 0x80, 0x8b, 0x3d, 0x46, 0xdd, 0x2e, 0x3d,
//   0x7c, 0xf3, 0xff, 0xff, 0x80, 0xf3, 0xff, 0xff, 0x0f, 0x00, 0x00, 0x00,
//   0x4d, 0x4c, 0x49, 0x52, 0x20, 0x43, 0x6f, 0x6e, 0x76, 0x65, 0x72, 0x74,
//   0x65, 0x64, 0x2e, 0x00, 0x01, 0x00, 0x00, 0x00, 0x14, 0x00, 0x00, 0x00,
//   0x00, 0x00, 0x0e, 0x00, 0x18, 0x00, 0x14, 0x00, 0x10, 0x00, 0x0c, 0x00,
//   0x08, 0x00, 0x04, 0x00, 0x0e, 0x00, 0x00, 0x00, 0x14, 0x00, 0x00, 0x00,
//   0x1c, 0x00, 0x00, 0x00, 0x58, 0x02, 0x00, 0x00, 0x5c, 0x02, 0x00, 0x00,
//   0x60, 0x02, 0x00, 0x00, 0x04, 0x00, 0x00, 0x00, 0x6d, 0x61, 0x69, 0x6e,
//   0x00, 0x00, 0x00, 0x00, 0x09, 0x00, 0x00, 0x00, 0x10, 0x02, 0x00, 0x00,
//   0xac, 0x01, 0x00, 0x00, 0x74, 0x01, 0x00, 0x00, 0x38, 0x01, 0x00, 0x00,
//   0xe4, 0x00, 0x00, 0x00, 0xbc, 0x00, 0x00, 0x00, 0x78, 0x00, 0x00, 0x00,
//   0x3c, 0x00, 0x00, 0x00, 0x04, 0x00, 0x00, 0x00, 0x82, 0xfe, 0xff, 0xff,
//   0x14, 0x00, 0x00, 0x00, 0x00, 0x00, 0x00, 0x08, 0x10, 0x00, 0x00, 0x00,
//   0x14, 0x00, 0x00, 0x00, 0x04, 0x00, 0x00, 0x00, 0x14, 0xf4, 0xff, 0xff,
//   0x01, 0x00, 0x00, 0x00, 0x15, 0x00, 0x00, 0x00, 0x03, 0x00, 0x00, 0x00,
//   0x14, 0x00, 0x00, 0x00, 0x0c, 0x00, 0x00, 0x00, 0x04, 0x00, 0x00, 0x00,
//   0xb6, 0xfe, 0xff, 0xff, 0x14, 0x00, 0x00, 0x00, 0x00, 0x00, 0x00, 0x08,
//   0x14, 0x00, 0x00, 0x00, 0x18, 0x00, 0x00, 0x00, 0x04, 0x00, 0x00, 0x00,
//   0xc6, 0xff, 0xff, 0xff, 0x00, 0x00, 0x00, 0x01, 0x01, 0x00, 0x00, 0x00,
//   0x14, 0x00, 0x00, 0x00, 0x03, 0x00, 0x00, 0x00, 0x13, 0x00, 0x00, 0x00,
//   0x0b, 0x00, 0x00, 0x00, 0x05, 0x00, 0x00, 0x00, 0xee, 0xfe, 0xff, 0xff,
//   0x1c, 0x00, 0x00, 0x00, 0x00, 0x00, 0x00, 0x08, 0x1c, 0x00, 0x00, 0x00,
//   0x20, 0x00, 0x00, 0x00, 0x04, 0x00, 0x00, 0x00, 0x00, 0x00, 0x06, 0x00,
//   0x08, 0x00, 0x07, 0x00, 0x06, 0x00, 0x00, 0x00, 0x00, 0x00, 0x00, 0x01,
//   0x01, 0x00, 0x00, 0x00, 0x13, 0x00, 0x00, 0x00, 0x03, 0x00, 0x00, 0x00,
//   0x12, 0x00, 0x00, 0x00, 0x0a, 0x00, 0x00, 0x00, 0x06, 0x00, 0x00, 0x00,
//   0x5e, 0xff, 0xff, 0xff, 0x0c, 0x00, 0x00, 0x00, 0x10, 0x00, 0x00, 0x00,
//   0x02, 0x00, 0x00, 0x00, 0x01, 0x00, 0x00, 0x00, 0x12, 0x00, 0x00, 0x00,
//   0x02, 0x00, 0x00, 0x00, 0x11, 0x00, 0x00, 0x00, 0x08, 0x00, 0x00, 0x00,
//   0x52, 0xff, 0xff, 0xff, 0x24, 0x00, 0x00, 0x00, 0x00, 0x00, 0x00, 0x05,
//   0x34, 0x00, 0x00, 0x00, 0x38, 0x00, 0x00, 0x00, 0x03, 0x00, 0x00, 0x00,
//   0x00, 0x00, 0x0e, 0x00, 0x18, 0x00, 0x17, 0x00, 0x10, 0x00, 0x0c, 0x00,
//   0x08, 0x00, 0x04, 0x00, 0x0e, 0x00, 0x00, 0x00, 0x02, 0x00, 0x00, 0x00,
//   0x01, 0x00, 0x00, 0x00, 0x02, 0x00, 0x00, 0x00, 0x01, 0x00, 0x00, 0x00,
//   0x00, 0x00, 0x00, 0x01, 0x01, 0x00, 0x00, 0x00, 0x11, 0x00, 0x00, 0x00,
//   0x01, 0x00, 0x00, 0x00, 0x10, 0x00, 0x00, 0x00, 0x42, 0xff, 0xff, 0xff,
//   0x10, 0x00, 0x00, 0x00, 0x00, 0x00, 0x00, 0x34, 0x0c, 0x00, 0x00, 0x00,
//   0x10, 0x00, 0x00, 0x00, 0x30, 0xf5, 0xff, 0xff, 0x01, 0x00, 0x00, 0x00,
//   0x10, 0x00, 0x00, 0x00, 0x02, 0x00, 0x00, 0x00, 0x0f, 0x00, 0x00, 0x00,
//   0x07, 0x00, 0x00, 0x00, 0x00, 0x00, 0x0a, 0x00, 0x10, 0x00, 0x0c, 0x00,
//   0x08, 0x00, 0x04, 0x00, 0x0a, 0x00, 0x00, 0x00, 0x0c, 0x00, 0x00, 0x00,
//   0x10, 0x00, 0x00, 0x00, 0x02, 0x00, 0x00, 0x00, 0x01, 0x00, 0x00, 0x00,
//   0x0f, 0x00, 0x00, 0x00, 0x02, 0x00, 0x00, 0x00, 0x0e, 0x00, 0x00, 0x00,
//   0x02, 0x00, 0x00, 0x00, 0x00, 0x00, 0x0e, 0x00, 0x18, 0x00, 0x14, 0x00,
//   0x10, 0x00, 0x0c, 0x00, 0x0b, 0x00, 0x04, 0x00, 0x0e, 0x00, 0x00, 0x00,
//   0x20, 0x00, 0x00, 0x00, 0x00, 0x00, 0x00, 0x01, 0x2c, 0x00, 0x00, 0x00,
//   0x30, 0x00, 0x00, 0x00, 0x01, 0x00, 0x00, 0x00, 0x0c, 0x00, 0x14, 0x00,
//   0x13, 0x00, 0x0c, 0x00, 0x08, 0x00, 0x07, 0x00, 0x0c, 0x00, 0x00, 0x00,
//   0x00, 0x00, 0x00, 0x01, 0x01, 0x00, 0x00, 0x00, 0x01, 0x00, 0x00, 0x00,
//   0x00, 0x00, 0x00, 0x01, 0x01, 0x00, 0x00, 0x00, 0x0e, 0x00, 0x00, 0x00,
//   0x03, 0x00, 0x00, 0x00, 0x0d, 0x00, 0x00, 0x00, 0x03, 0x00, 0x00, 0x00,
//   0x01, 0x00, 0x00, 0x00, 0x00, 0x00, 0x0e, 0x00, 0x14, 0x00, 0x00, 0x00,
//   0x10, 0x00, 0x0c, 0x00, 0x0b, 0x00, 0x04, 0x00, 0x0e, 0x00, 0x00, 0x00,
//   0x10, 0x00, 0x00, 0x00, 0x00, 0x00, 0x00, 0x34, 0x0c, 0x00, 0x00, 0x00,
//   0x10, 0x00, 0x00, 0x00, 0xfc, 0xf5, 0xff, 0xff, 0x01, 0x00, 0x00, 0x00,
//   0x0d, 0x00, 0x00, 0x00, 0x02, 0x00, 0x00, 0x00, 0x00, 0x00, 0x00, 0x00,
//   0x09, 0x00, 0x00, 0x00, 0x01, 0x00, 0x00, 0x00, 0x15, 0x00, 0x00, 0x00,
//   0x01, 0x00, 0x00, 0x00, 0x00, 0x00, 0x00, 0x00, 0x16, 0x00, 0x00, 0x00,
//   0xac, 0x09, 0x00, 0x00, 0x38, 0x09, 0x00, 0x00, 0xc8, 0x08, 0x00, 0x00,
//   0x58, 0x08, 0x00, 0x00, 0xfc, 0x07, 0x00, 0x00, 0xa0, 0x07, 0x00, 0x00,
//   0x44, 0x07, 0x00, 0x00, 0xe8, 0x06, 0x00, 0x00, 0x98, 0x06, 0x00, 0x00,
//   0x3c, 0x06, 0x00, 0x00, 0xec, 0x05, 0x00, 0x00, 0x9c, 0x05, 0x00, 0x00,
//   0x4c, 0x05, 0x00, 0x00, 0xd0, 0x04, 0x00, 0x00, 0xcc, 0x03, 0x00, 0x00,
//   0xf0, 0x02, 0x00, 0x00, 0x74, 0x02, 0x00, 0x00, 0xfc, 0x01, 0x00, 0x00,
//   0x98, 0x01, 0x00, 0x00, 0xfc, 0x00, 0x00, 0x00, 0x60, 0x00, 0x00, 0x00,
//   0x04, 0x00, 0x00, 0x00, 0xc2, 0xf6, 0xff, 0xff, 0x00, 0x00, 0x00, 0x01,
//   0x14, 0x00, 0x00, 0x00, 0x1c, 0x00, 0x00, 0x00, 0x1c, 0x00, 0x00, 0x00,
//   0x16, 0x00, 0x00, 0x00, 0x34, 0x00, 0x00, 0x00, 0x02, 0x00, 0x00, 0x00,
//   0xff, 0xff, 0xff, 0xff, 0x09, 0x00, 0x00, 0x00, 0xa8, 0xf6, 0xff, 0xff,
//   0x19, 0x00, 0x00, 0x00, 0x53, 0x74, 0x61, 0x74, 0x65, 0x66, 0x75, 0x6c,
//   0x50, 0x61, 0x72, 0x74, 0x69, 0x74, 0x69, 0x6f, 0x6e, 0x65, 0x64, 0x43,
//   0x61, 0x6c, 0x6c, 0x3a, 0x30, 0x00, 0x00, 0x00, 0x02, 0x00, 0x00, 0x00,
//   0x01, 0x00, 0x00, 0x00, 0x09, 0x00, 0x00, 0x00, 0x1a, 0xf7, 0xff, 0xff,
//   0x00, 0x00, 0x00, 0x01, 0x14, 0x00, 0x00, 0x00, 0x1c, 0x00, 0x00, 0x00,
//   0x1c, 0x00, 0x00, 0x00, 0x15, 0x00, 0x00, 0x00, 0x74, 0x00, 0x00, 0x00,
//   0x02, 0x00, 0x00, 0x00, 0xff, 0xff, 0xff, 0xff, 0x10, 0x00, 0x00, 0x00,
//   0x00, 0xf7, 0xff, 0xff, 0x5b, 0x00, 0x00, 0x00, 0x73, 0x65, 0x71, 0x75,
//   0x65, 0x6e, 0x74, 0x69, 0x61, 0x6c, 0x5f, 0x39, 0x32, 0x2f, 0x64, 0x65,
//   0x6e, 0x73, 0x65, 0x5f, 0x32, 0x33, 0x38, 0x2f, 0x4d, 0x61, 0x74, 0x4d,
//   0x75, 0x6c, 0x3b, 0x73, 0x65, 0x71, 0x75, 0x65, 0x6e, 0x74, 0x69, 0x61,
//   0x6c, 0x5f, 0x39, 0x32, 0x2f, 0x64, 0x65, 0x6e, 0x73, 0x65, 0x5f, 0x32,
//   0x33, 0x38, 0x2f, 0x52, 0x65, 0x6c, 0x75, 0x3b, 0x73, 0x65, 0x71, 0x75,
//   0x65, 0x6e, 0x74, 0x69, 0x61, 0x6c, 0x5f, 0x39, 0x32, 0x2f, 0x64, 0x65,
//   0x6e, 0x73, 0x65, 0x5f, 0x32, 0x33, 0x38, 0x2f, 0x42, 0x69, 0x61, 0x73,
//   0x41, 0x64, 0x64, 0x00, 0x02, 0x00, 0x00, 0x00, 0x01, 0x00, 0x00, 0x00,
//   0x10, 0x00, 0x00, 0x00, 0xb2, 0xf7, 0xff, 0xff, 0x00, 0x00, 0x00, 0x01,
//   0x14, 0x00, 0x00, 0x00, 0x1c, 0x00, 0x00, 0x00, 0x1c, 0x00, 0x00, 0x00,
//   0x14, 0x00, 0x00, 0x00, 0x74, 0x00, 0x00, 0x00, 0x02, 0x00, 0x00, 0x00,
//   0xff, 0xff, 0xff, 0xff, 0x10, 0x00, 0x00, 0x00, 0x98, 0xf7, 0xff, 0xff,
//   0x5b, 0x00, 0x00, 0x00, 0x73, 0x65, 0x71, 0x75, 0x65, 0x6e, 0x74, 0x69,
//   0x61, 0x6c, 0x5f, 0x39, 0x32, 0x2f, 0x64, 0x65, 0x6e, 0x73, 0x65, 0x5f,
//   0x32, 0x33, 0x37, 0x2f, 0x4d, 0x61, 0x74, 0x4d, 0x75, 0x6c, 0x3b, 0x73,
//   0x65, 0x71, 0x75, 0x65, 0x6e, 0x74, 0x69, 0x61, 0x6c, 0x5f, 0x39, 0x32,
//   0x2f, 0x64, 0x65, 0x6e, 0x73, 0x65, 0x5f, 0x32, 0x33, 0x37, 0x2f, 0x52,
//   0x65, 0x6c, 0x75, 0x3b, 0x73, 0x65, 0x71, 0x75, 0x65, 0x6e, 0x74, 0x69,
//   0x61, 0x6c, 0x5f, 0x39, 0x32, 0x2f, 0x64, 0x65, 0x6e, 0x73, 0x65, 0x5f,
//   0x32, 0x33, 0x37, 0x2f, 0x42, 0x69, 0x61, 0x73, 0x41, 0x64, 0x64, 0x00,
//   0x02, 0x00, 0x00, 0x00, 0x01, 0x00, 0x00, 0x00, 0x10, 0x00, 0x00, 0x00,
//   0x4a, 0xf8, 0xff, 0xff, 0x00, 0x00, 0x00, 0x01, 0x14, 0x00, 0x00, 0x00,
//   0x1c, 0x00, 0x00, 0x00, 0x1c, 0x00, 0x00, 0x00, 0x13, 0x00, 0x00, 0x00,
//   0x3c, 0x00, 0x00, 0x00, 0x02, 0x00, 0x00, 0x00, 0xff, 0xff, 0xff, 0xff,
//   0x48, 0x00, 0x00, 0x00, 0x30, 0xf8, 0xff, 0xff, 0x20, 0x00, 0x00, 0x00,
//   0x73, 0x65, 0x71, 0x75, 0x65, 0x6e, 0x74, 0x69, 0x61, 0x6c, 0x5f, 0x39,
//   0x32, 0x2f, 0x66, 0x6c, 0x61, 0x74, 0x74, 0x65, 0x6e, 0x5f, 0x34, 0x39,
//   0x2f, 0x52, 0x65, 0x73, 0x68, 0x61, 0x70, 0x65, 0x00, 0x00, 0x00, 0x00,
//   0x02, 0x00, 0x00, 0x00, 0x01, 0x00, 0x00, 0x00, 0x48, 0x00, 0x00, 0x00,
//   0xaa, 0xf8, 0xff, 0xff, 0x00, 0x00, 0x00, 0x01, 0x14, 0x00, 0x00, 0x00,
//   0x24, 0x00, 0x00, 0x00, 0x24, 0x00, 0x00, 0x00, 0x12, 0x00, 0x00, 0x00,
//   0x48, 0x00, 0x00, 0x00, 0x04, 0x00, 0x00, 0x00, 0xff, 0xff, 0xff, 0xff,
//   0x09, 0x00, 0x00, 0x00, 0x01, 0x00, 0x00, 0x00, 0x08, 0x00, 0x00, 0x00,
//   0x98, 0xf8, 0xff, 0xff, 0x25, 0x00, 0x00, 0x00, 0x73, 0x65, 0x71, 0x75,
//   0x65, 0x6e, 0x74, 0x69, 0x61, 0x6c, 0x5f, 0x39, 0x32, 0x2f, 0x6d, 0x61,
//   0x78, 0x5f, 0x70, 0x6f, 0x6f, 0x6c, 0x69, 0x6e, 0x67, 0x31, 0x64, 0x5f,
//   0x35, 0x2f, 0x4d, 0x61, 0x78, 0x50, 0x6f, 0x6f, 0x6c, 0x00, 0x00, 0x00,
//   0x04, 0x00, 0x00, 0x00, 0x01, 0x00, 0x00, 0x00, 0x09, 0x00, 0x00, 0x00,
//   0x01, 0x00, 0x00, 0x00, 0x08, 0x00, 0x00, 0x00, 0x1e, 0xf9, 0xff, 0xff,
//   0x00, 0x00, 0x00, 0x01, 0x14, 0x00, 0x00, 0x00, 0x24, 0x00, 0x00, 0x00,
//   0x24, 0x00, 0x00, 0x00, 0x11, 0x00, 0x00, 0x00, 0x4c, 0x00, 0x00, 0x00,
//   0x04, 0x00, 0x00, 0x00, 0xff, 0xff, 0xff, 0xff, 0x12, 0x00, 0x00, 0x00,
//   0x01, 0x00, 0x00, 0x00, 0x08, 0x00, 0x00, 0x00, 0x0c, 0xf9, 0xff, 0xff,
//   0x28, 0x00, 0x00, 0x00, 0x73, 0x65, 0x71, 0x75, 0x65, 0x6e, 0x74, 0x69,
//   0x61, 0x6c, 0x5f, 0x39, 0x32, 0x2f, 0x6d, 0x61, 0x78, 0x5f, 0x70, 0x6f,
//   0x6f, 0x6c, 0x69, 0x6e, 0x67, 0x31, 0x64, 0x5f, 0x35, 0x2f, 0x45, 0x78,
//   0x70, 0x61, 0x6e, 0x64, 0x44, 0x69, 0x6d, 0x73, 0x00, 0x00, 0x00, 0x00,
//   0x04, 0x00, 0x00, 0x00, 0x01, 0x00, 0x00, 0x00, 0x12, 0x00, 0x00, 0x00,
//   0x01, 0x00, 0x00, 0x00, 0x08, 0x00, 0x00, 0x00, 0x96, 0xf9, 0xff, 0xff,
//   0x00, 0x00, 0x00, 0x01, 0x14, 0x00, 0x00, 0x00, 0x20, 0x00, 0x00, 0x00,
//   0x20, 0x00, 0x00, 0x00, 0x10, 0x00, 0x00, 0x00, 0xb0, 0x00, 0x00, 0x00,
//   0x03, 0x00, 0x00, 0x00, 0xff, 0xff, 0xff, 0xff, 0x12, 0x00, 0x00, 0x00,
//   0x08, 0x00, 0x00, 0x00, 0x80, 0xf9, 0xff, 0xff, 0x92, 0x00, 0x00, 0x00,
//   0x73, 0x65, 0x71, 0x75, 0x65, 0x6e, 0x74, 0x69, 0x61, 0x6c, 0x5f, 0x39,
//   0x32, 0x2f, 0x63, 0x6f, 0x6e, 0x76, 0x31, 0x64, 0x5f, 0x31, 0x30, 0x2f,
//   0x52, 0x65, 0x6c, 0x75, 0x3b, 0x73, 0x65, 0x71, 0x75, 0x65, 0x6e, 0x74,
//   0x69, 0x61, 0x6c, 0x5f, 0x39, 0x32, 0x2f, 0x63, 0x6f, 0x6e, 0x76, 0x31,
//   0x64, 0x5f, 0x31, 0x30, 0x2f, 0x42, 0x69, 0x61, 0x73, 0x41, 0x64, 0x64,
//   0x3b, 0x73, 0x65, 0x71, 0x75, 0x65, 0x6e, 0x74, 0x69, 0x61, 0x6c, 0x5f,
//   0x39, 0x32, 0x2f, 0x63, 0x6f, 0x6e, 0x76, 0x31, 0x64, 0x5f, 0x31, 0x30,
//   0x2f, 0x43, 0x6f, 0x6e, 0x76, 0x31, 0x44, 0x2f, 0x53, 0x71, 0x75, 0x65,
//   0x65, 0x7a, 0x65, 0x3b, 0x73, 0x65, 0x71, 0x75, 0x65, 0x6e, 0x74, 0x69,
//   0x61, 0x6c, 0x5f, 0x39, 0x32, 0x2f, 0x63, 0x6f, 0x6e, 0x76, 0x31, 0x64,
//   0x5f, 0x31, 0x30, 0x2f, 0x42, 0x69, 0x61, 0x73, 0x41, 0x64, 0x64, 0x2f,
//   0x52, 0x65, 0x61, 0x64, 0x56, 0x61, 0x72, 0x69, 0x61, 0x62, 0x6c, 0x65,
//   0x4f, 0x70, 0x00, 0x00, 0x03, 0x00, 0x00, 0x00, 0x01, 0x00, 0x00, 0x00,
//   0x12, 0x00, 0x00, 0x00, 0x08, 0x00, 0x00, 0x00, 0x6e, 0xfa, 0xff, 0xff,
//   0x00, 0x00, 0x00, 0x01, 0x14, 0x00, 0x00, 0x00, 0x24, 0x00, 0x00, 0x00,
//   0x24, 0x00, 0x00, 0x00, 0x0f, 0x00, 0x00, 0x00, 0xd4, 0x00, 0x00, 0x00,
//   0x04, 0x00, 0x00, 0x00, 0xff, 0xff, 0xff, 0xff, 0x01, 0x00, 0x00, 0x00,
//   0x12, 0x00, 0x00, 0x00, 0x08, 0x00, 0x00, 0x00, 0x5c, 0xfa, 0xff, 0xff,
//   0xb1, 0x00, 0x00, 0x00, 0x73, 0x65, 0x71, 0x75, 0x65, 0x6e, 0x74, 0x69,
//   0x61, 0x6c, 0x5f, 0x39, 0x32, 0x2f, 0x63, 0x6f, 0x6e, 0x76, 0x31, 0x64,
//   0x5f, 0x31, 0x30, 0x2f, 0x52, 0x65, 0x6c, 0x75, 0x3b, 0x73, 0x65, 0x71,
//   0x75, 0x65, 0x6e, 0x74, 0x69, 0x61, 0x6c, 0x5f, 0x39, 0x32, 0x2f, 0x63,
//   0x6f, 0x6e, 0x76, 0x31, 0x64, 0x5f, 0x31, 0x30, 0x2f, 0x42, 0x69, 0x61,
//   0x73, 0x41, 0x64, 0x64, 0x3b, 0x73, 0x65, 0x71, 0x75, 0x65, 0x6e, 0x74,
//   0x69, 0x61, 0x6c, 0x5f, 0x39, 0x32, 0x2f, 0x63, 0x6f, 0x6e, 0x76, 0x31,
//   0x64, 0x5f, 0x31, 0x30, 0x2f, 0x43, 0x6f, 0x6e, 0x76, 0x31, 0x44, 0x2f,
//   0x53, 0x71, 0x75, 0x65, 0x65, 0x7a, 0x65, 0x3b, 0x73, 0x65, 0x71, 0x75,
//   0x65, 0x6e, 0x74, 0x69, 0x61, 0x6c, 0x5f, 0x39, 0x32, 0x2f, 0x63, 0x6f,
//   0x6e, 0x76, 0x31, 0x64, 0x5f, 0x31, 0x30, 0x2f, 0x42, 0x69, 0x61, 0x73,
//   0x41, 0x64, 0x64, 0x2f, 0x52, 0x65, 0x61, 0x64, 0x56, 0x61, 0x72, 0x69,
//   0x61, 0x62, 0x6c, 0x65, 0x4f, 0x70, 0x3b, 0x73, 0x65, 0x71, 0x75, 0x65,
//   0x6e, 0x74, 0x69, 0x61, 0x6c, 0x5f, 0x39, 0x32, 0x2f, 0x63, 0x6f, 0x6e,
//   0x76, 0x31, 0x64, 0x5f, 0x31, 0x30, 0x2f, 0x43, 0x6f, 0x6e, 0x76, 0x31,
//   0x44, 0x00, 0x00, 0x00, 0x04, 0x00, 0x00, 0x00, 0x01, 0x00, 0x00, 0x00,
//   0x01, 0x00, 0x00, 0x00, 0x12, 0x00, 0x00, 0x00, 0x08, 0x00, 0x00, 0x00,
//   0x6e, 0xfb, 0xff, 0xff, 0x00, 0x00, 0x00, 0x01, 0x14, 0x00, 0x00, 0x00,
//   0x24, 0x00, 0x00, 0x00, 0x24, 0x00, 0x00, 0x00, 0x0e, 0x00, 0x00, 0x00,
//   0x4c, 0x00, 0x00, 0x00, 0x04, 0x00, 0x00, 0x00, 0xff, 0xff, 0xff, 0xff,
//   0x01, 0x00, 0x00, 0x00, 0x14, 0x00, 0x00, 0x00, 0x09, 0x00, 0x00, 0x00,
//   0x5c, 0xfb, 0xff, 0xff, 0x29, 0x00, 0x00, 0x00, 0x73, 0x65, 0x71, 0x75,
//   0x65, 0x6e, 0x74, 0x69, 0x61, 0x6c, 0x5f, 0x39, 0x32, 0x2f, 0x63, 0x6f,
//   0x6e, 0x76, 0x31, 0x64, 0x5f, 0x31, 0x30, 0x2f, 0x43, 0x6f, 0x6e, 0x76,
//   0x31, 0x44, 0x2f, 0x45, 0x78, 0x70, 0x61, 0x6e, 0x64, 0x44, 0x69, 0x6d,
//   0x73, 0x00, 0x00, 0x00, 0x04, 0x00, 0x00, 0x00, 0x01, 0x00, 0x00, 0x00,
//   0x01, 0x00, 0x00, 0x00, 0x14, 0x00, 0x00, 0x00, 0x09, 0x00, 0x00, 0x00,
//   0x56, 0xfc, 0xff, 0xff, 0x00, 0x00, 0x00, 0x01, 0x10, 0x00, 0x00, 0x00,
//   0x10, 0x00, 0x00, 0x00, 0x0d, 0x00, 0x00, 0x00, 0x2c, 0x00, 0x00, 0x00,
//   0xbc, 0xfb, 0xff, 0xff, 0x1e, 0x00, 0x00, 0x00, 0x73, 0x65, 0x71, 0x75,
//   0x65, 0x6e, 0x74, 0x69, 0x61, 0x6c, 0x5f, 0x39, 0x32, 0x2f, 0x64, 0x65,
//   0x6e, 0x73, 0x65, 0x5f, 0x32, 0x33, 0x39, 0x2f, 0x4d, 0x61, 0x74, 0x4d,
//   0x75, 0x6c, 0x00, 0x00, 0x02, 0x00, 0x00, 0x00, 0x09, 0x00, 0x00, 0x00,
//   0x10, 0x00, 0x00, 0x00, 0xa2, 0xfc, 0xff, 0xff, 0x00, 0x00, 0x00, 0x01,
//   0x10, 0x00, 0x00, 0x00, 0x10, 0x00, 0x00, 0x00, 0x0c, 0x00, 0x00, 0x00,
//   0x2c, 0x00, 0x00, 0x00, 0x08, 0xfc, 0xff, 0xff, 0x1e, 0x00, 0x00, 0x00,
//   0x73, 0x65, 0x71, 0x75, 0x65, 0x6e, 0x74, 0x69, 0x61, 0x6c, 0x5f, 0x39,
//   0x32, 0x2f, 0x64, 0x65, 0x6e, 0x73, 0x65, 0x5f, 0x32, 0x33, 0x38, 0x2f,
//   0x4d, 0x61, 0x74, 0x4d, 0x75, 0x6c, 0x00, 0x00, 0x02, 0x00, 0x00, 0x00,
//   0x10, 0x00, 0x00, 0x00, 0x10, 0x00, 0x00, 0x00, 0xee, 0xfc, 0xff, 0xff,
//   0x00, 0x00, 0x00, 0x01, 0x10, 0x00, 0x00, 0x00, 0x10, 0x00, 0x00, 0x00,
//   0x0b, 0x00, 0x00, 0x00, 0x2c, 0x00, 0x00, 0x00, 0x54, 0xfc, 0xff, 0xff,
//   0x1e, 0x00, 0x00, 0x00, 0x73, 0x65, 0x71, 0x75, 0x65, 0x6e, 0x74, 0x69,
//   0x61, 0x6c, 0x5f, 0x39, 0x32, 0x2f, 0x64, 0x65, 0x6e, 0x73, 0x65, 0x5f,
//   0x32, 0x33, 0x37, 0x2f, 0x4d, 0x61, 0x74, 0x4d, 0x75, 0x6c, 0x00, 0x00,
//   0x02, 0x00, 0x00, 0x00, 0x10, 0x00, 0x00, 0x00, 0x48, 0x00, 0x00, 0x00,
//   0xa6, 0xfd, 0xff, 0xff, 0x00, 0x00, 0x00, 0x01, 0x14, 0x00, 0x00, 0x00,
//   0x14, 0x00, 0x00, 0x00, 0x0a, 0x00, 0x00, 0x00, 0x00, 0x00, 0x00, 0x02,
//   0x3c, 0x00, 0x00, 0x00, 0xa4, 0xfc, 0xff, 0xff, 0x2d, 0x00, 0x00, 0x00,
//   0x73, 0x65, 0x71, 0x75, 0x65, 0x6e, 0x74, 0x69, 0x61, 0x6c, 0x5f, 0x39,
//   0x32, 0x2f, 0x63, 0x6f, 0x6e, 0x76, 0x31, 0x64, 0x5f, 0x31, 0x30, 0x2f,
//   0x43, 0x6f, 0x6e, 0x76, 0x31, 0x44, 0x2f, 0x45, 0x78, 0x70, 0x61, 0x6e,
//   0x64, 0x44, 0x69, 0x6d, 0x73, 0x2f, 0x64, 0x69, 0x6d, 0x00, 0x00, 0x00,
//   0x00, 0x00, 0x00, 0x00, 0xfe, 0xfd, 0xff, 0xff, 0x00, 0x00, 0x00, 0x01,
//   0x14, 0x00, 0x00, 0x00, 0x14, 0x00, 0x00, 0x00, 0x09, 0x00, 0x00, 0x00,
//   0x00, 0x00, 0x00, 0x02, 0x2c, 0x00, 0x00, 0x00, 0xfc, 0xfc, 0xff, 0xff,
//   0x1e, 0x00, 0x00, 0x00, 0x73, 0x65, 0x71, 0x75, 0x65, 0x6e, 0x74, 0x69,
//   0x61, 0x6c, 0x5f, 0x39, 0x32, 0x2f, 0x66, 0x6c, 0x61, 0x74, 0x74, 0x65,
//   0x6e, 0x5f, 0x34, 0x39, 0x2f, 0x43, 0x6f, 0x6e, 0x73, 0x74, 0x00, 0x00,
//   0x01, 0x00, 0x00, 0x00, 0x02, 0x00, 0x00, 0x00, 0x4a, 0xfe, 0xff, 0xff,
//   0x00, 0x00, 0x00, 0x01, 0x14, 0x00, 0x00, 0x00, 0x14, 0x00, 0x00, 0x00,
//   0x08, 0x00, 0x00, 0x00, 0x00, 0x00, 0x00, 0x02, 0x3c, 0x00, 0x00, 0x00,
//   0x48, 0xfd, 0xff, 0xff, 0x2c, 0x00, 0x00, 0x00, 0x73, 0x65, 0x71, 0x75,
//   0x65, 0x6e, 0x74, 0x69, 0x61, 0x6c, 0x5f, 0x39, 0x32, 0x2f, 0x6d, 0x61,
//   0x78, 0x5f, 0x70, 0x6f, 0x6f, 0x6c, 0x69, 0x6e, 0x67, 0x31, 0x64, 0x5f,
//   0x35, 0x2f, 0x45, 0x78, 0x70, 0x61, 0x6e, 0x64, 0x44, 0x69, 0x6d, 0x73,
//   0x2f, 0x64, 0x69, 0x6d, 0x00, 0x00, 0x00, 0x00, 0x00, 0x00, 0x00, 0x00,
//   0x36, 0xfe, 0xff, 0xff, 0x00, 0x00, 0x00, 0x01, 0x10, 0x00, 0x00, 0x00,
//   0x10, 0x00, 0x00, 0x00, 0x07, 0x00, 0x00, 0x00, 0x3c, 0x00, 0x00, 0x00,
//   0x9c, 0xfd, 0xff, 0xff, 0x2e, 0x00, 0x00, 0x00, 0x73, 0x65, 0x71, 0x75,
//   0x65, 0x6e, 0x74, 0x69, 0x61, 0x6c, 0x5f, 0x39, 0x32, 0x2f, 0x64, 0x65,
//   0x6e, 0x73, 0x65, 0x5f, 0x32, 0x33, 0x37, 0x2f, 0x42, 0x69, 0x61, 0x73,
//   0x41, 0x64, 0x64, 0x2f, 0x52, 0x65, 0x61, 0x64, 0x56, 0x61, 0x72, 0x69,
//   0x61, 0x62, 0x6c, 0x65, 0x4f, 0x70, 0x00, 0x00, 0x01, 0x00, 0x00, 0x00,
//   0x10, 0x00, 0x00, 0x00, 0x8e, 0xfe, 0xff, 0xff, 0x00, 0x00, 0x00, 0x01,
//   0x10, 0x00, 0x00, 0x00, 0x10, 0x00, 0x00, 0x00, 0x06, 0x00, 0x00, 0x00,
//   0x3c, 0x00, 0x00, 0x00, 0xf4, 0xfd, 0xff, 0xff, 0x2e, 0x00, 0x00, 0x00,
//   0x73, 0x65, 0x71, 0x75, 0x65, 0x6e, 0x74, 0x69, 0x61, 0x6c, 0x5f, 0x39,
//   0x32, 0x2f, 0x64, 0x65, 0x6e, 0x73, 0x65, 0x5f, 0x32, 0x33, 0x38, 0x2f,
//   0x42, 0x69, 0x61, 0x73, 0x41, 0x64, 0x64, 0x2f, 0x52, 0x65, 0x61, 0x64,
//   0x56, 0x61, 0x72, 0x69, 0x61, 0x62, 0x6c, 0x65, 0x4f, 0x70, 0x00, 0x00,
//   0x01, 0x00, 0x00, 0x00, 0x10, 0x00, 0x00, 0x00, 0xe6, 0xfe, 0xff, 0xff,
//   0x00, 0x00, 0x00, 0x01, 0x10, 0x00, 0x00, 0x00, 0x10, 0x00, 0x00, 0x00,
//   0x05, 0x00, 0x00, 0x00, 0x3c, 0x00, 0x00, 0x00, 0x4c, 0xfe, 0xff, 0xff,
//   0x2e, 0x00, 0x00, 0x00, 0x73, 0x65, 0x71, 0x75, 0x65, 0x6e, 0x74, 0x69,
//   0x61, 0x6c, 0x5f, 0x39, 0x32, 0x2f, 0x64, 0x65, 0x6e, 0x73, 0x65, 0x5f,
//   0x32, 0x33, 0x39, 0x2f, 0x42, 0x69, 0x61, 0x73, 0x41, 0x64, 0x64, 0x2f,
//   0x52, 0x65, 0x61, 0x64, 0x56, 0x61, 0x72, 0x69, 0x61, 0x62, 0x6c, 0x65,
//   0x4f, 0x70, 0x00, 0x00, 0x01, 0x00, 0x00, 0x00, 0x09, 0x00, 0x00, 0x00,
//   0x3e, 0xff, 0xff, 0xff, 0x00, 0x00, 0x00, 0x01, 0x10, 0x00, 0x00, 0x00,
//   0x10, 0x00, 0x00, 0x00, 0x04, 0x00, 0x00, 0x00, 0x2c, 0x00, 0x00, 0x00,
//   0xa4, 0xfe, 0xff, 0xff, 0x1e, 0x00, 0x00, 0x00, 0x73, 0x65, 0x71, 0x75,
//   0x65, 0x6e, 0x74, 0x69, 0x61, 0x6c, 0x5f, 0x39, 0x32, 0x2f, 0x63, 0x6f,
//   0x6e, 0x76, 0x31, 0x64, 0x5f, 0x31, 0x30, 0x2f, 0x43, 0x6f, 0x6e, 0x76,
//   0x31, 0x44, 0x00, 0x00, 0x04, 0x00, 0x00, 0x00, 0x08, 0x00, 0x00, 0x00,
//   0x01, 0x00, 0x00, 0x00, 0x03, 0x00, 0x00, 0x00, 0x09, 0x00, 0x00, 0x00,
//   0x00, 0x00, 0x16, 0x00, 0x1c, 0x00, 0x18, 0x00, 0x17, 0x00, 0x10, 0x00,
//   0x0c, 0x00, 0x08, 0x00, 0x00, 0x00, 0x00, 0x00, 0x00, 0x00, 0x07, 0x00,
//   0x16, 0x00, 0x00, 0x00, 0x00, 0x00, 0x00, 0x01, 0x14, 0x00, 0x00, 0x00,
//   0x14, 0x00, 0x00, 0x00, 0x03, 0x00, 0x00, 0x00, 0x00, 0x00, 0x00, 0x02,
//   0x34, 0x00, 0x00, 0x00, 0x14, 0xff, 0xff, 0xff, 0x26, 0x00, 0x00, 0x00,
//   0x73, 0x65, 0x71, 0x75, 0x65, 0x6e, 0x74, 0x69, 0x61, 0x6c, 0x5f, 0x39,
//   0x32, 0x2f, 0x63, 0x6f, 0x6e, 0x76, 0x31, 0x64, 0x5f, 0x31, 0x30, 0x2f,
//   0x43, 0x6f, 0x6e, 0x76, 0x31, 0x44, 0x2f, 0x53, 0x71, 0x75, 0x65, 0x65,
//   0x7a, 0x65, 0x00, 0x00, 0x01, 0x00, 0x00, 0x00, 0x03, 0x00, 0x00, 0x00,
//   0x00, 0x00, 0x16, 0x00, 0x18, 0x00, 0x14, 0x00, 0x00, 0x00, 0x10, 0x00,
//   0x0c, 0x00, 0x08, 0x00, 0x00, 0x00, 0x00, 0x00, 0x00, 0x00, 0x07, 0x00,
//   0x16, 0x00, 0x00, 0x00, 0x00, 0x00, 0x00, 0x01, 0x10, 0x00, 0x00, 0x00,
//   0x10, 0x00, 0x00, 0x00, 0x02, 0x00, 0x00, 0x00, 0x3c, 0x00, 0x00, 0x00,
//   0x7c, 0xff, 0xff, 0xff, 0x2e, 0x00, 0x00, 0x00, 0x73, 0x65, 0x71, 0x75,
//   0x65, 0x6e, 0x74, 0x69, 0x61, 0x6c, 0x5f, 0x39, 0x32, 0x2f, 0x63, 0x6f,
//   0x6e, 0x76, 0x31, 0x64, 0x5f, 0x31, 0x30, 0x2f, 0x42, 0x69, 0x61, 0x73,
//   0x41, 0x64, 0x64, 0x2f, 0x52, 0x65, 0x61, 0x64, 0x56, 0x61, 0x72, 0x69,
//   0x61, 0x62, 0x6c, 0x65, 0x4f, 0x70, 0x00, 0x00, 0x01, 0x00, 0x00, 0x00,
//   0x08, 0x00, 0x00, 0x00, 0x00, 0x00, 0x16, 0x00, 0x1c, 0x00, 0x18, 0x00,
//   0x00, 0x00, 0x14, 0x00, 0x10, 0x00, 0x0c, 0x00, 0x00, 0x00, 0x00, 0x00,
//   0x08, 0x00, 0x07, 0x00, 0x16, 0x00, 0x00, 0x00, 0x00, 0x00, 0x00, 0x01,
//   0x14, 0x00, 0x00, 0x00, 0x24, 0x00, 0x00, 0x00, 0x24, 0x00, 0x00, 0x00,
//   0x01, 0x00, 0x00, 0x00, 0x44, 0x00, 0x00, 0x00, 0x03, 0x00, 0x00, 0x00,
//   0xff, 0xff, 0xff, 0xff, 0x14, 0x00, 0x00, 0x00, 0x09, 0x00, 0x00, 0x00,
//   0x04, 0x00, 0x04, 0x00, 0x04, 0x00, 0x00, 0x00, 0x21, 0x00, 0x00, 0x00,
//   0x73, 0x65, 0x72, 0x76, 0x69, 0x6e, 0x67, 0x5f, 0x64, 0x65, 0x66, 0x61,
//   0x75, 0x6c, 0x74, 0x5f, 0x63, 0x6f, 0x6e, 0x76, 0x31, 0x64, 0x5f, 0x31,
//   0x30, 0x5f, 0x69, 0x6e, 0x70, 0x75, 0x74, 0x3a, 0x30, 0x00, 0x00, 0x00,
//   0x03, 0x00, 0x00, 0x00, 0x01, 0x00, 0x00, 0x00, 0x14, 0x00, 0x00, 0x00,
//   0x09, 0x00, 0x00, 0x00, 0x05, 0x00, 0x00, 0x00, 0x50, 0x00, 0x00, 0x00,
//   0x34, 0x00, 0x00, 0x00, 0x24, 0x00, 0x00, 0x00, 0x14, 0x00, 0x00, 0x00,
//   0x04, 0x00, 0x00, 0x00, 0xd0, 0xff, 0xff, 0xff, 0x09, 0x00, 0x00, 0x00,
//   0x00, 0x00, 0x00, 0x09, 0xdc, 0xff, 0xff, 0xff, 0x11, 0x00, 0x00, 0x00,
//   0x00, 0x00, 0x00, 0x11, 0xe8, 0xff, 0xff, 0xff, 0x16, 0x00, 0x00, 0x00,
//   0x00, 0x00, 0x00, 0x16, 0xf4, 0xff, 0xff, 0xff, 0x03, 0x00, 0x00, 0x00,
//   0x00, 0x00, 0x00, 0x03, 0x0c, 0x00, 0x0c, 0x00, 0x0b, 0x00, 0x00, 0x00,
//   0x00, 0x00, 0x04, 0x00, 0x0c, 0x00, 0x00, 0x00, 0x46, 0x00, 0x00, 0x00,
//   0x00, 0x00, 0x00, 0x46
// };
// const int g_model_len = sizeof(g_model);
