#include "model.h"

alignas(16) const char g_model[] = {
  0x1c, 0x00, 0x00, 0x00, 0x54, 0x46, 0x4c, 0x33, 0x14, 0x00, 0x20, 0x00,
  0x1c, 0x00, 0x18, 0x00, 0x14, 0x00, 0x10, 0x00, 0x0c, 0x00, 0x00, 0x00,
  0x08, 0x00, 0x04, 0x00, 0x14, 0x00, 0x00, 0x00, 0x1c, 0x00, 0x00, 0x00,
  0x9c, 0x00, 0x00, 0x00, 0xf4, 0x00, 0x00, 0x00, 0x0c, 0x36, 0x00, 0x00,
  0x1c, 0x36, 0x00, 0x00, 0x68, 0x3c, 0x00, 0x00, 0x03, 0x00, 0x00, 0x00,
  0x01, 0x00, 0x00, 0x00, 0x10, 0x00, 0x00, 0x00, 0x00, 0x00, 0x0a, 0x00,
  0x10, 0x00, 0x0c, 0x00, 0x08, 0x00, 0x04, 0x00, 0x0a, 0x00, 0x00, 0x00,
  0x0c, 0x00, 0x00, 0x00, 0x1c, 0x00, 0x00, 0x00, 0x3c, 0x00, 0x00, 0x00,
  0x0f, 0x00, 0x00, 0x00, 0x73, 0x65, 0x72, 0x76, 0x69, 0x6e, 0x67, 0x5f,
  0x64, 0x65, 0x66, 0x61, 0x75, 0x6c, 0x74, 0x00, 0x01, 0x00, 0x00, 0x00,
  0x04, 0x00, 0x00, 0x00, 0x8c, 0xff, 0xff, 0xff, 0x0b, 0x00, 0x00, 0x00,
  0x04, 0x00, 0x00, 0x00, 0x09, 0x00, 0x00, 0x00, 0x64, 0x65, 0x6e, 0x73,
  0x65, 0x5f, 0x31, 0x38, 0x32, 0x00, 0x00, 0x00, 0x01, 0x00, 0x00, 0x00,
  0x04, 0x00, 0x00, 0x00, 0xa6, 0xca, 0xff, 0xff, 0x04, 0x00, 0x00, 0x00,
  0x10, 0x00, 0x00, 0x00, 0x66, 0x6c, 0x61, 0x74, 0x74, 0x65, 0x6e, 0x5f,
  0x33, 0x30, 0x5f, 0x69, 0x6e, 0x70, 0x75, 0x74, 0x00, 0x00, 0x00, 0x00,
  0x02, 0x00, 0x00, 0x00, 0x34, 0x00, 0x00, 0x00, 0x04, 0x00, 0x00, 0x00,
  0xdc, 0xff, 0xff, 0xff, 0x0e, 0x00, 0x00, 0x00, 0x04, 0x00, 0x00, 0x00,
  0x13, 0x00, 0x00, 0x00, 0x43, 0x4f, 0x4e, 0x56, 0x45, 0x52, 0x53, 0x49,
  0x4f, 0x4e, 0x5f, 0x4d, 0x45, 0x54, 0x41, 0x44, 0x41, 0x54, 0x41, 0x00,
  0x08, 0x00, 0x0c, 0x00, 0x08, 0x00, 0x04, 0x00, 0x08, 0x00, 0x00, 0x00,
  0x0d, 0x00, 0x00, 0x00, 0x04, 0x00, 0x00, 0x00, 0x13, 0x00, 0x00, 0x00,
  0x6d, 0x69, 0x6e, 0x5f, 0x72, 0x75, 0x6e, 0x74, 0x69, 0x6d, 0x65, 0x5f,
  0x76, 0x65, 0x72, 0x73, 0x69, 0x6f, 0x6e, 0x00, 0x0f, 0x00, 0x00, 0x00,
  0x14, 0x35, 0x00, 0x00, 0x0c, 0x35, 0x00, 0x00, 0xd8, 0x34, 0x00, 0x00,
  0x80, 0x34, 0x00, 0x00, 0x30, 0x34, 0x00, 0x00, 0x18, 0x34, 0x00, 0x00,
  0x08, 0x07, 0x00, 0x00, 0xf8, 0x02, 0x00, 0x00, 0xa8, 0x00, 0x00, 0x00,
  0xa0, 0x00, 0x00, 0x00, 0x98, 0x00, 0x00, 0x00, 0x90, 0x00, 0x00, 0x00,
  0x88, 0x00, 0x00, 0x00, 0x68, 0x00, 0x00, 0x00, 0x04, 0x00, 0x00, 0x00,
  0x62, 0xcb, 0xff, 0xff, 0x04, 0x00, 0x00, 0x00, 0x54, 0x00, 0x00, 0x00,
  0x0c, 0x00, 0x00, 0x00, 0x08, 0x00, 0x0e, 0x00, 0x08, 0x00, 0x04, 0x00,
  0x08, 0x00, 0x00, 0x00, 0x10, 0x00, 0x00, 0x00, 0x24, 0x00, 0x00, 0x00,
  0x00, 0x00, 0x06, 0x00, 0x08, 0x00, 0x04, 0x00, 0x06, 0x00, 0x00, 0x00,
  0x04, 0x00, 0x00, 0x00, 0x00, 0x00, 0x00, 0x00, 0x00, 0x00, 0x0a, 0x00,
  0x10, 0x00, 0x0c, 0x00, 0x08, 0x00, 0x04, 0x00, 0x0a, 0x00, 0x00, 0x00,
  0x02, 0x00, 0x00, 0x00, 0x02, 0x00, 0x00, 0x00, 0x04, 0x00, 0x00, 0x00,
  0x06, 0x00, 0x00, 0x00, 0x32, 0x2e, 0x31, 0x31, 0x2e, 0x30, 0x00, 0x00,
  0xc2, 0xcb, 0xff, 0xff, 0x04, 0x00, 0x00, 0x00, 0x10, 0x00, 0x00, 0x00,
  0x31, 0x2e, 0x35, 0x2e, 0x30, 0x00, 0x00, 0x00, 0x00, 0x00, 0x00, 0x00,
  0x00, 0x00, 0x00, 0x00, 0x7c, 0xc5, 0xff, 0xff, 0x80, 0xc5, 0xff, 0xff,
  0x84, 0xc5, 0xff, 0xff, 0x88, 0xc5, 0xff, 0xff, 0xee, 0xcb, 0xff, 0xff,
  0x04, 0x00, 0x00, 0x00, 0x40, 0x02, 0x00, 0x00, 0x77, 0x2e, 0xb2, 0xbc,
  0xc5, 0x12, 0xa9, 0x3e, 0x40, 0x3f, 0x88, 0xbe, 0xe0, 0x4d, 0x07, 0xbd,
  0x9f, 0x51, 0x8a, 0x3c, 0x04, 0x3e, 0xcd, 0xbe, 0xea, 0xd2, 0xcc, 0xbd,
  0x98, 0xa0, 0x04, 0x3f, 0xb2, 0x3d, 0xf7, 0x3c, 0x07, 0x16, 0x12, 0x3e,
  0xca, 0x8f, 0x9d, 0x3d, 0xee, 0xd7, 0x16, 0xbe, 0xe7, 0xfe, 0x37, 0xbe,
  0x66, 0xf3, 0x5d, 0x3d, 0x98, 0xa5, 0x82, 0x3e, 0x5c, 0xd4, 0xb2, 0x3d,
  0xe7, 0x51, 0xdb, 0xbd, 0x3a, 0xf8, 0xd1, 0xbb, 0x4d, 0x1e, 0xcf, 0x3c,
  0x21, 0x51, 0xb2, 0xbe, 0x61, 0x6d, 0x8e, 0xbe, 0xb3, 0x2f, 0x00, 0xbe,
  0x52, 0x74, 0x87, 0x3d, 0xd1, 0x22, 0xca, 0xbe, 0x4c, 0x72, 0x52, 0xbe,
  0x4a, 0x9a, 0xce, 0x3e, 0x17, 0x13, 0xd7, 0x3d, 0x85, 0x23, 0xbf, 0x3e,
  0xee, 0x25, 0x64, 0x3e, 0x95, 0x39, 0x72, 0x3e, 0x89, 0x2e, 0x98, 0x3e,
  0x94, 0x95, 0xdb, 0xbd, 0xbd, 0x6c, 0x9b, 0x3e, 0x60, 0xee, 0xe5, 0x3e,
  0xc6, 0xb7, 0x9d, 0x3e, 0x76, 0x3e, 0xb2, 0xbe, 0x60, 0xec, 0xd0, 0x3e,
  0x1a, 0x22, 0xe5, 0x3e, 0xeb, 0x61, 0xc0, 0x3d, 0x19, 0xf0, 0x27, 0x3e,
  0x9e, 0xe6, 0xc5, 0x3e, 0xc9, 0x07, 0xdb, 0x3e, 0x01, 0xa2, 0x4f, 0xbe,
  0x08, 0x2c, 0x96, 0xbe, 0x23, 0xf6, 0x12, 0xbe, 0x1a, 0x71, 0xa8, 0xbe,
  0xc3, 0xc6, 0x89, 0xbd, 0x74, 0x68, 0x36, 0xbe, 0xe2, 0xb9, 0xcf, 0xbe,
  0xae, 0xe5, 0x4b, 0xbe, 0x7e, 0xfe, 0xd8, 0x3d, 0xac, 0xf6, 0x02, 0x3e,
  0x4f, 0xf0, 0xda, 0xbe, 0xa4, 0x80, 0x8e, 0x3c, 0xb5, 0x3f, 0xb0, 0xbc,
  0x18, 0x80, 0x36, 0x3d, 0x91, 0xa6, 0x2b, 0x3e, 0x10, 0x4b, 0xb7, 0x3d,
  0x7c, 0x0a, 0x3c, 0x3e, 0x29, 0xfa, 0xc3, 0x39, 0x7c, 0x30, 0x75, 0xbe,
  0xec, 0x84, 0xa9, 0x3e, 0xe9, 0x10, 0xdf, 0xbd, 0xff, 0xa1, 0xe1, 0xbe,
  0xe3, 0x78, 0x7e, 0xbe, 0xee, 0x9d, 0xae, 0x3d, 0x9e, 0xb8, 0x3a, 0x3e,
  0xab, 0xf4, 0xc3, 0xbd, 0x9b, 0x8b, 0xef, 0xbe, 0x72, 0xd4, 0x12, 0xbf,
  0xf9, 0x68, 0xa2, 0x3c, 0x51, 0x97, 0xaa, 0x3e, 0xc5, 0xb1, 0xa9, 0x3e,
  0xa4, 0xe7, 0x84, 0x3d, 0x9c, 0xf4, 0x23, 0x3d, 0x20, 0x2f, 0x20, 0xbc,
  0x11, 0xff, 0x82, 0xbe, 0xd2, 0x37, 0x51, 0x3e, 0x3a, 0x54, 0x49, 0x3e,
  0x41, 0x22, 0xce, 0xbd, 0x50, 0xb8, 0x2f, 0xbe, 0x60, 0x18, 0xb6, 0x3e,
  0xb6, 0x5a, 0x6a, 0xbe, 0x42, 0x06, 0x21, 0x3e, 0x97, 0x1d, 0xa4, 0xbd,
  0xcb, 0xff, 0xc1, 0xbd, 0x6f, 0xca, 0xdf, 0xbe, 0x3f, 0x14, 0xb9, 0x3e,
  0x69, 0xcf, 0x46, 0xbe, 0x15, 0x94, 0xc0, 0xbd, 0xda, 0x1b, 0x0c, 0x3f,
  0x10, 0xa4, 0xdc, 0xbc, 0x42, 0x4f, 0xd9, 0xbe, 0x74, 0x6c, 0xba, 0xbe,
  0x4a, 0xaa, 0x9d, 0x3e, 0x16, 0x24, 0x66, 0x3e, 0xc1, 0xfc, 0x88, 0x3e,
  0x58, 0x3c, 0x08, 0xbf, 0x95, 0x2a, 0x12, 0xbd, 0x7b, 0xc0, 0x8f, 0x3e,
  0x05, 0xee, 0xd1, 0x3e, 0x62, 0xda, 0x9f, 0x3e, 0xe5, 0x8b, 0xfb, 0xbc,
  0xeb, 0xd6, 0xa3, 0xbd, 0xd0, 0x96, 0xac, 0xbd, 0x5c, 0x53, 0xa5, 0x3e,
  0x42, 0x22, 0x4e, 0xbe, 0x23, 0x2c, 0x40, 0x3d, 0x4a, 0xac, 0x21, 0x3d,
  0x3a, 0xf2, 0xcf, 0xbe, 0x5c, 0xb3, 0xd5, 0x3d, 0xe6, 0x24, 0x8f, 0xbd,
  0x2f, 0x0f, 0xf0, 0xbd, 0xf8, 0xae, 0x6e, 0xbe, 0x13, 0x4e, 0x5e, 0xbe,
  0x11, 0xd4, 0x0d, 0x3f, 0x3f, 0x71, 0xde, 0xbe, 0x3c, 0x8c, 0x45, 0x3e,
  0x4b, 0xe4, 0x88, 0xbe, 0xdf, 0x3e, 0x84, 0x3e, 0xf4, 0x1c, 0x57, 0xbe,
  0x0f, 0x05, 0xbd, 0x3d, 0xdb, 0x54, 0x65, 0xbe, 0x36, 0xee, 0x56, 0xbe,
  0x2b, 0x70, 0xea, 0x3e, 0x80, 0xee, 0xa6, 0x3e, 0x09, 0xb7, 0x8b, 0x3e,
  0xea, 0x4d, 0x3a, 0x3d, 0xb6, 0x9a, 0xab, 0x3e, 0x42, 0xcc, 0xaf, 0x3e,
  0x98, 0x23, 0xd4, 0xbe, 0xae, 0xe2, 0x02, 0x3f, 0x83, 0x2d, 0x8f, 0x3e,
  0x46, 0xc9, 0xcc, 0xbe, 0x04, 0x6f, 0x7e, 0xbe, 0x94, 0xe0, 0xd8, 0xbe,
  0x98, 0x35, 0x8c, 0xbd, 0xd9, 0x4b, 0xcc, 0xbd, 0xd1, 0x8e, 0x93, 0xbe,
  0x14, 0xa2, 0x33, 0xbe, 0x69, 0xf4, 0x67, 0xbc, 0x42, 0x53, 0xe3, 0xbd,
  0x5a, 0xbd, 0xd2, 0xbe, 0x0a, 0x19, 0x4e, 0x3d, 0x3a, 0xce, 0xff, 0xff,
  0x04, 0x00, 0x00, 0x00, 0x00, 0x04, 0x00, 0x00, 0xc0, 0x9a, 0x67, 0x3e,
  0x5b, 0x10, 0x85, 0x3e, 0xaf, 0x9d, 0xdb, 0xbe, 0xd4, 0x36, 0x68, 0xbe,
  0x77, 0x29, 0x93, 0xbe, 0x69, 0xce, 0x78, 0x3e, 0x05, 0x58, 0x48, 0x3e,
  0x77, 0x4f, 0x90, 0x3d, 0xfa, 0xe8, 0x1a, 0xbe, 0x31, 0xef, 0x04, 0x3e,
  0x1e, 0xb8, 0x1f, 0xbe, 0xc3, 0x40, 0x94, 0xbe, 0x38, 0x45, 0x06, 0x3e,
  0xcd, 0xa6, 0x94, 0xbe, 0x89, 0x7b, 0x20, 0x3d, 0xf8, 0x29, 0x78, 0x3e,
  0x28, 0xe4, 0x25, 0xbe, 0xb0, 0xa5, 0x05, 0x3e, 0xc8, 0x65, 0x15, 0xbd,
  0x68, 0xa4, 0x8a, 0xbe, 0x0f, 0x92, 0x1b, 0x3e, 0x1c, 0x43, 0xbf, 0x3c,
  0x0d, 0x8c, 0xb0, 0xbc, 0x99, 0x90, 0x3b, 0xbd, 0x46, 0xe1, 0x21, 0xbe,
  0x49, 0x69, 0x87, 0xbc, 0x06, 0xd4, 0x99, 0x3c, 0x1a, 0x10, 0x95, 0x3e,
  0xce, 0x1b, 0xaa, 0x3e, 0xbb, 0xb2, 0x27, 0x3d, 0xe4, 0xd0, 0x0e, 0xbe,
  0x33, 0xb1, 0x00, 0x3e, 0xa1, 0xdb, 0xd4, 0xbe, 0xc5, 0xdd, 0x7e, 0x3e,
  0xa6, 0x3b, 0x01, 0xbe, 0xea, 0x7a, 0xbd, 0x3c, 0x30, 0x7e, 0x3e, 0x3e,
  0xf0, 0x02, 0xb8, 0xbd, 0x2f, 0xb5, 0xc6, 0x3e, 0xdf, 0xa8, 0x71, 0x3e,
  0x84, 0xc3, 0x9f, 0xbe, 0x9f, 0x6a, 0xd2, 0x3d, 0x7f, 0xef, 0x2e, 0xbe,
  0x00, 0xe1, 0xda, 0xbe, 0x6b, 0x3f, 0x10, 0x3e, 0x1b, 0xd5, 0xec, 0xbd,
  0xf4, 0x4a, 0x4f, 0x3e, 0x31, 0x9b, 0xb4, 0xbe, 0x47, 0x03, 0x06, 0x3e,
  0x5c, 0x04, 0x90, 0x3e, 0x8b, 0x67, 0xfc, 0xbd, 0xef, 0x1e, 0x53, 0xbd,
  0x4f, 0x21, 0x17, 0xbe, 0xda, 0xc4, 0xe2, 0xbe, 0x3e, 0x57, 0x81, 0x3d,
  0xb8, 0xcf, 0xb9, 0xbe, 0x95, 0xed, 0x96, 0xbe, 0xd0, 0xb3, 0x77, 0xbd,
  0xc2, 0x33, 0x8b, 0xbe, 0xb0, 0x2c, 0x2c, 0x3c, 0x2f, 0x64, 0x88, 0x3c,
  0x69, 0xff, 0x30, 0xbe, 0x6d, 0x90, 0x5c, 0xbe, 0x30, 0x59, 0x91, 0x3e,
  0xa8, 0x7e, 0x46, 0xbe, 0x7a, 0xfc, 0x63, 0xbe, 0x89, 0xd9, 0x8e, 0x3e,
  0xf4, 0x57, 0xb9, 0x3e, 0xc2, 0xee, 0x95, 0x3e, 0x15, 0xe6, 0x87, 0xbd,
  0x52, 0xc8, 0x8f, 0x3e, 0xa2, 0xbd, 0xd6, 0xbc, 0x80, 0xd2, 0x3c, 0xbd,
  0xfa, 0xf0, 0x6c, 0xbe, 0x99, 0x2f, 0xab, 0x3e, 0xd7, 0x1d, 0x98, 0xbe,
  0x3e, 0x4c, 0x3e, 0x3e, 0x58, 0x1d, 0x0f, 0xbe, 0x48, 0x13, 0xdd, 0xbe,
  0xfe, 0x1f, 0x88, 0xbe, 0xed, 0xd0, 0xbe, 0x3e, 0x2d, 0xb1, 0xdf, 0x3d,
  0x42, 0x90, 0x55, 0x3d, 0x8f, 0x70, 0x1b, 0xbe, 0x55, 0x74, 0x94, 0xbe,
  0xa4, 0x8c, 0xa9, 0xbe, 0x3a, 0x6b, 0xcb, 0xbe, 0xf5, 0x39, 0x73, 0x3e,
  0x17, 0x54, 0x0a, 0xbd, 0xfe, 0xc3, 0xc8, 0x3e, 0xa8, 0xce, 0x66, 0x3e,
  0xdb, 0xd9, 0x33, 0x3e, 0x31, 0xd5, 0xb9, 0x3e, 0x09, 0x9a, 0xd2, 0x3d,
  0xa3, 0x45, 0x9a, 0x3e, 0x43, 0x76, 0xf3, 0xbd, 0x19, 0xf5, 0x73, 0xbe,
  0x4f, 0x59, 0x1a, 0x3d, 0xa6, 0x8a, 0xa9, 0xbe, 0xc7, 0xca, 0xe4, 0x3e,
  0x9d, 0x4d, 0xe0, 0xbe, 0x7b, 0xda, 0xb4, 0x3e, 0x05, 0xa7, 0xc6, 0x3e,
  0x4f, 0xaa, 0x08, 0x3e, 0xb1, 0x86, 0x75, 0x3e, 0x53, 0x11, 0x7b, 0x3e,
  0x64, 0xed, 0x91, 0x3d, 0x33, 0xfc, 0xba, 0xbe, 0x35, 0x7d, 0xe1, 0x3d,
  0x37, 0x80, 0xab, 0xbe, 0x37, 0x55, 0x1b, 0xbd, 0xb5, 0x74, 0x32, 0xbe,
  0x3b, 0xcf, 0x3f, 0xbe, 0xb7, 0x64, 0xa1, 0xbe, 0xec, 0x9b, 0x57, 0x3e,
  0x3f, 0x18, 0xaf, 0xbd, 0xcc, 0x3f, 0x9a, 0x3c, 0xf8, 0xff, 0xbd, 0xbe,
  0x2f, 0x28, 0x13, 0x3d, 0x75, 0x96, 0x9c, 0xbe, 0x91, 0x3f, 0xcf, 0x3e,
  0x5c, 0xa6, 0x58, 0xbd, 0xf5, 0xb3, 0x31, 0xbe, 0xc2, 0x03, 0x53, 0x3e,
  0x7f, 0x6d, 0x2c, 0xbe, 0x07, 0xc1, 0xc2, 0xbe, 0x11, 0x87, 0x94, 0x3e,
  0x06, 0x2f, 0x1c, 0x3e, 0x69, 0x0f, 0xe2, 0xbd, 0x1a, 0x27, 0xc6, 0xbe,
  0x38, 0xff, 0x32, 0x3e, 0x99, 0x0a, 0x4c, 0x3e, 0x69, 0x64, 0x67, 0xbe,
  0xfa, 0xd8, 0x90, 0xbe, 0x7f, 0x87, 0xaf, 0x3e, 0x7e, 0x3e, 0xe4, 0xbe,
  0x83, 0xef, 0x2b, 0x3e, 0xed, 0x52, 0xa9, 0x3e, 0x07, 0x97, 0x2b, 0x3e,
  0xf0, 0x9d, 0xeb, 0xbd, 0x95, 0xa6, 0xb3, 0xbe, 0x24, 0x85, 0x94, 0xbd,
  0x87, 0x5e, 0x11, 0xbd, 0x18, 0x81, 0x81, 0x3d, 0x9e, 0xe8, 0x0b, 0xbe,
  0x4b, 0x74, 0x1a, 0xbe, 0xe0, 0x90, 0xa3, 0xbe, 0x08, 0x57, 0xb1, 0xbe,
  0xe5, 0x68, 0x53, 0xbe, 0xda, 0x53, 0xdb, 0x3d, 0xe0, 0x12, 0xc2, 0xbe,
  0x33, 0xf4, 0xbe, 0x3e, 0x11, 0x78, 0x3b, 0x3e, 0xef, 0xb5, 0x6d, 0x3d,
  0xac, 0x70, 0x95, 0x3e, 0x42, 0x6a, 0x0b, 0x3d, 0xc5, 0xdb, 0x6c, 0x3e,
  0x39, 0xaf, 0xe6, 0xbe, 0x22, 0x6f, 0xa5, 0xbd, 0x6f, 0x80, 0x3f, 0x3e,
  0xb9, 0xc3, 0x56, 0x3d, 0x0f, 0x12, 0x30, 0x3d, 0x2f, 0xab, 0xd6, 0x3e,
  0x63, 0x2f, 0x35, 0x3e, 0x08, 0xa7, 0xa5, 0xbe, 0x86, 0xed, 0x5c, 0x3e,
  0x50, 0x8a, 0x9e, 0x3e, 0x65, 0x76, 0xd8, 0x3e, 0x08, 0x94, 0x23, 0xbc,
  0xe0, 0xe0, 0xb8, 0xbe, 0x15, 0x37, 0xad, 0xbe, 0x4e, 0xf7, 0x88, 0xbe,
  0xdf, 0x87, 0xa5, 0xbe, 0xf3, 0x24, 0x4d, 0x3e, 0xdd, 0xf0, 0x04, 0x3d,
  0x30, 0xd5, 0x9a, 0x3d, 0xba, 0xb7, 0xc9, 0xbd, 0xc8, 0xee, 0x2f, 0x3c,
  0xc7, 0x4b, 0xec, 0xbe, 0x7f, 0x1e, 0xb4, 0xbe, 0x1a, 0x92, 0xb0, 0x3d,
  0x4f, 0x8c, 0xcd, 0x3a, 0xab, 0x82, 0xb6, 0xbe, 0xda, 0x10, 0x1b, 0xbe,
  0x83, 0xc6, 0x1c, 0xbc, 0xfd, 0x71, 0xbd, 0x3e, 0xa7, 0xd3, 0x95, 0xbe,
  0x03, 0xe4, 0x82, 0xbe, 0x2d, 0x1d, 0x9b, 0xbd, 0x8f, 0x6c, 0x21, 0xbe,
  0x9c, 0x1e, 0x2b, 0x3e, 0x66, 0xc0, 0x2c, 0x3e, 0x91, 0xb3, 0x89, 0x3e,
  0xa8, 0xb1, 0xb6, 0xbe, 0xbf, 0x7e, 0x01, 0xbe, 0x3e, 0x49, 0xfe, 0x3d,
  0xd1, 0xe0, 0x8c, 0xbd, 0x0c, 0x31, 0xac, 0xbe, 0xc8, 0x43, 0x22, 0x3e,
  0x74, 0x44, 0x7c, 0xbe, 0x61, 0xc6, 0x55, 0xbd, 0x4d, 0xe6, 0x5b, 0x3e,
  0x0f, 0xa3, 0xa4, 0xbe, 0xce, 0x38, 0xba, 0xbe, 0x18, 0xa2, 0x37, 0x3c,
  0x37, 0x5e, 0x06, 0x3d, 0x83, 0x09, 0x83, 0x3e, 0x36, 0xc3, 0xd5, 0x3d,
  0x63, 0x11, 0x3d, 0xbd, 0x99, 0xdb, 0xde, 0x3e, 0x11, 0x6d, 0x84, 0xbe,
  0x98, 0x2c, 0x15, 0x3e, 0xd9, 0x8a, 0xdc, 0xbd, 0xfd, 0xfa, 0x86, 0xbe,
  0x1d, 0xb8, 0x20, 0x3e, 0xe2, 0xd2, 0x9c, 0x3e, 0x25, 0xe5, 0x95, 0x3e,
  0x2d, 0xbb, 0x4c, 0x3e, 0xd2, 0xfd, 0xf5, 0xbd, 0x74, 0x51, 0x81, 0x3e,
  0x2d, 0x94, 0x18, 0x3e, 0x89, 0x4a, 0x2a, 0xbe, 0x56, 0xc4, 0x3a, 0x3d,
  0xde, 0x82, 0xb6, 0xbe, 0xea, 0x2e, 0x82, 0xbe, 0x55, 0x44, 0x99, 0xbe,
  0x19, 0x6e, 0x8a, 0x3e, 0x66, 0x53, 0x3d, 0x3e, 0xab, 0x57, 0x1c, 0x3b,
  0x3b, 0xc3, 0x71, 0x3e, 0x60, 0x91, 0x01, 0x3e, 0x90, 0x44, 0x95, 0xbb,
  0xda, 0x6e, 0xe4, 0x3d, 0x47, 0x40, 0x5f, 0x3d, 0x4d, 0xd1, 0x82, 0x3e,
  0x45, 0x99, 0x0b, 0x3e, 0xe6, 0x18, 0xd1, 0xbe, 0x52, 0x55, 0x24, 0xbe,
  0x25, 0xd0, 0x76, 0xbe, 0xce, 0x11, 0x9a, 0xbc, 0xa8, 0x7c, 0xcd, 0x3d,
  0xb8, 0x44, 0x7f, 0x3e, 0xe7, 0xd0, 0x1d, 0x3e, 0xc5, 0x81, 0xc0, 0x3e,
  0x3d, 0x62, 0x77, 0x3e, 0x01, 0x34, 0x0e, 0xbe, 0x99, 0x6f, 0x9b, 0x3d,
  0x47, 0x9c, 0x8b, 0x3e, 0x1d, 0x1e, 0xc1, 0x3d, 0x90, 0xeb, 0x7e, 0x3e,
  0x7b, 0x86, 0x86, 0x3e, 0x2c, 0x9e, 0x49, 0xbe, 0x0d, 0x23, 0xf2, 0xbe,
  0x8e, 0xb1, 0x5e, 0xbd, 0x20, 0x6a, 0xdc, 0x3d, 0xd6, 0x23, 0xd3, 0xbd,
  0x46, 0xd2, 0xff, 0xff, 0x04, 0x00, 0x00, 0x00, 0x00, 0x2d, 0x00, 0x00,
  0xbb, 0x0e, 0x15, 0x3e, 0xcc, 0x88, 0x07, 0xbe, 0x7f, 0x95, 0x2a, 0xbd,
  0xdf, 0xe3, 0x82, 0xbd, 0x9f, 0x63, 0x15, 0x3d, 0xb2, 0xbc, 0x83, 0xbd,
  0x32, 0x96, 0x39, 0x3d, 0x54, 0xa4, 0xa1, 0x3d, 0x10, 0xc5, 0x07, 0xbe,
  0xd5, 0xef, 0x13, 0xbd, 0x70, 0x76, 0x5a, 0xbd, 0x3a, 0x7c, 0x8f, 0x3c,
  0x8b, 0x59, 0x72, 0xbd, 0x15, 0x27, 0x27, 0xbe, 0x97, 0x96, 0xa5, 0xbd,
  0x8e, 0x39, 0x16, 0x3e, 0x74, 0xcf, 0x89, 0x3d, 0x82, 0xb9, 0x28, 0x39,
  0xdc, 0xc9, 0x44, 0xbc, 0xa3, 0x48, 0xa5, 0xbc, 0x5e, 0x85, 0x86, 0x3d,
  0x51, 0x8a, 0x74, 0xbc, 0x6a, 0xe0, 0x0a, 0xbe, 0x3c, 0x43, 0x06, 0xbe,
  0x13, 0x9c, 0x20, 0x3e, 0xf2, 0x61, 0x8e, 0x3a, 0x01, 0x08, 0x3c, 0x3c,
  0x6a, 0xd2, 0x51, 0xbd, 0x9f, 0x59, 0x1c, 0xbe, 0x8a, 0x3b, 0x1b, 0x3e,
  0x87, 0x3d, 0x37, 0xbc, 0x4b, 0x69, 0xca, 0x3c, 0xdf, 0x5e, 0x5b, 0xbd,
  0xe1, 0x90, 0xe2, 0xbc, 0x78, 0x33, 0xcc, 0xbd, 0x99, 0xdd, 0x13, 0x3e,
  0x5b, 0xde, 0x1d, 0xbe, 0x31, 0xb3, 0x8f, 0xbd, 0x82, 0x1d, 0x25, 0xbe,
  0xae, 0xf5, 0xba, 0xbd, 0x0f, 0xea, 0xee, 0x3c, 0xa7, 0xd2, 0x44, 0xbd,
  0x7f, 0x03, 0xe4, 0x3d, 0xb7, 0xde, 0xf9, 0x3d, 0xbd, 0x46, 0x13, 0x3e,
  0x6a, 0x86, 0xb4, 0xbc, 0x85, 0x92, 0x1d, 0xbd, 0x5a, 0xbc, 0x81, 0x3b,
  0x5c, 0xeb, 0x3f, 0xbd, 0x56, 0x04, 0x35, 0xbd, 0x03, 0xd0, 0x55, 0x3d,
  0x4b, 0xa6, 0x9f, 0x3d, 0x29, 0x58, 0xc7, 0xbd, 0x7f, 0x0e, 0x03, 0xbe,
  0x58, 0xfb, 0x1f, 0xbd, 0xbd, 0x49, 0xab, 0xbd, 0x0c, 0x76, 0x77, 0xbc,
  0xbe, 0x28, 0xd4, 0xbd, 0x55, 0x1c, 0xcc, 0x3b, 0xe8, 0x86, 0xae, 0x3d,
  0x73, 0x6d, 0x65, 0xbd, 0x74, 0xf7, 0x1d, 0xbe, 0x61, 0xfd, 0xb4, 0xbd,
  0xac, 0x0f, 0x18, 0xbe, 0x33, 0xe1, 0x12, 0xbd, 0xf6, 0x45, 0x58, 0xbd,
  0x96, 0xf0, 0xc4, 0x3d, 0x99, 0xda, 0x56, 0x3c, 0x8e, 0x51, 0xc2, 0x3d,
  0x1e, 0xd3, 0x1a, 0x3c, 0x52, 0xc4, 0x16, 0xbe, 0x12, 0x8d, 0x2c, 0x3e,
  0xf7, 0xbd, 0x46, 0xbe, 0x37, 0xb7, 0xd3, 0x3d, 0x17, 0x64, 0x0a, 0x3e,
  0x07, 0xc1, 0x7c, 0x3d, 0xfb, 0x30, 0xe6, 0x3d, 0x14, 0x83, 0x50, 0xbd,
  0xba, 0xb2, 0x0b, 0x3e, 0x12, 0x87, 0x0a, 0xbd, 0x1f, 0x4a, 0x9b, 0x3b,
  0x4c, 0x54, 0xbc, 0x3d, 0x97, 0xb2, 0xeb, 0x3d, 0x31, 0x1a, 0x3a, 0xbe,
  0x12, 0x59, 0x6b, 0x3c, 0xa6, 0x15, 0x28, 0x3e, 0x16, 0x61, 0x05, 0x3e,
  0xa8, 0xe5, 0x46, 0x3e, 0x63, 0xe1, 0x97, 0xbd, 0x53, 0x06, 0xf4, 0x3d,
  0x2a, 0x34, 0x13, 0x3e, 0x1a, 0x91, 0x8b, 0x3d, 0xa2, 0x99, 0xa6, 0x3d,
  0xf7, 0xef, 0x86, 0x3c, 0x0b, 0x15, 0x84, 0x3c, 0xaf, 0x1e, 0xd0, 0x3d,
  0x6c, 0x7e, 0x49, 0x3e, 0xd4, 0x0e, 0xaf, 0x3d, 0x70, 0xf6, 0x20, 0x3e,
  0x58, 0x9f, 0x19, 0xbd, 0x15, 0x00, 0x30, 0xbc, 0xbe, 0x85, 0x0f, 0xbe,
  0xde, 0xfe, 0x1a, 0x3e, 0xef, 0xb9, 0xc4, 0xbd, 0x29, 0xfb, 0xba, 0x3d,
  0x7a, 0x87, 0x21, 0x3e, 0x17, 0x16, 0x35, 0x3e, 0x1c, 0xac, 0xd4, 0x3d,
  0xb5, 0xa3, 0xe3, 0xbd, 0xaf, 0xf9, 0x1c, 0xbe, 0x87, 0x38, 0x80, 0xbd,
  0xf7, 0x9e, 0xad, 0xbd, 0x9f, 0x6d, 0x8a, 0xbd, 0x79, 0x65, 0xfd, 0x3d,
  0x19, 0x59, 0x9d, 0xbd, 0x55, 0x6a, 0xdb, 0xbd, 0xd5, 0xe7, 0x74, 0x3c,
  0x41, 0x6f, 0x25, 0xbe, 0x10, 0x85, 0x0b, 0xbb, 0xcf, 0x48, 0xb5, 0x3d,
  0x50, 0xe7, 0x88, 0x3b, 0x43, 0x14, 0x0c, 0xbe, 0xf2, 0x9a, 0x7b, 0x3d,
  0x1f, 0xdc, 0x02, 0x3e, 0xd7, 0x28, 0xef, 0x3d, 0x31, 0x0b, 0x14, 0xbe,
  0xb9, 0x58, 0xfc, 0xbd, 0x7a, 0xde, 0xb4, 0x3d, 0xba, 0x4e, 0xf9, 0xbd,
  0xea, 0x70, 0xd4, 0x3d, 0x6e, 0x1b, 0x86, 0xbd, 0x9a, 0xce, 0xd3, 0xbd,
  0xd2, 0x77, 0x13, 0xbe, 0xa3, 0xec, 0x9f, 0xbd, 0x80, 0xff, 0xe8, 0xbc,
  0xc2, 0xfe, 0xf2, 0x3d, 0xe7, 0x1b, 0xfb, 0xbd, 0x33, 0x21, 0xe2, 0xbd,
  0x80, 0x2f, 0x37, 0xbe, 0xa1, 0x0f, 0xde, 0xbc, 0x96, 0x4c, 0x34, 0xbe,
  0x4a, 0xd7, 0xbf, 0xbd, 0x76, 0xd7, 0x26, 0x3e, 0xf5, 0x32, 0xc9, 0xbd,
  0x73, 0x0c, 0x10, 0xbc, 0xe8, 0x17, 0x05, 0xbd, 0x86, 0x17, 0x08, 0xbe,
  0x57, 0xdf, 0x80, 0x3d, 0x87, 0xee, 0x0a, 0xbe, 0x0a, 0x33, 0xe8, 0xbd,
  0x90, 0x78, 0x45, 0xbd, 0xc7, 0x2f, 0xfd, 0xbd, 0x52, 0x73, 0xce, 0x3d,
  0x05, 0xe5, 0x82, 0xbd, 0x07, 0x74, 0x08, 0xbe, 0x36, 0x55, 0x8c, 0xbd,
  0xed, 0x70, 0x19, 0xbe, 0xd5, 0xa8, 0xee, 0x3d, 0xe6, 0x95, 0x55, 0xbd,
  0x70, 0x67, 0xa4, 0xbd, 0xcd, 0x0c, 0x73, 0x3d, 0xee, 0x7a, 0xfd, 0xbd,
  0x11, 0xc4, 0x27, 0xbd, 0x50, 0x29, 0x8a, 0xbd, 0x13, 0x79, 0x0e, 0x3d,
  0xef, 0x9b, 0x12, 0x3e, 0xa8, 0xbd, 0x4f, 0xbc, 0x38, 0x9e, 0xe7, 0x3d,
  0x60, 0xfd, 0x81, 0xbd, 0xeb, 0x12, 0x56, 0xbd, 0xc5, 0xa7, 0x26, 0xbe,
  0x28, 0xb2, 0x46, 0x3d, 0x9c, 0xae, 0x87, 0x3d, 0x14, 0xcb, 0x87, 0x3c,
  0x7b, 0x61, 0x08, 0x3c, 0x49, 0xad, 0x1a, 0xbe, 0xa0, 0xe1, 0x2b, 0xbd,
  0x47, 0x86, 0x9b, 0x3d, 0x71, 0xf8, 0x25, 0xbe, 0x64, 0x09, 0x9a, 0x3d,
  0xc3, 0x41, 0x9d, 0xbd, 0xe8, 0xcb, 0x03, 0x3e, 0x75, 0x24, 0x64, 0xbd,
  0xb8, 0xd2, 0x9d, 0x3d, 0xf0, 0x1b, 0x11, 0x3e, 0x11, 0xa5, 0x28, 0xbe,
  0x3f, 0x48, 0xb6, 0x3d, 0xb7, 0xbc, 0x3a, 0x3e, 0x7e, 0x11, 0x1b, 0xbe,
  0x00, 0xe1, 0xab, 0x3d, 0x54, 0xb0, 0xb5, 0xbc, 0x4e, 0xb7, 0x92, 0xbd,
  0x40, 0x21, 0xea, 0xbb, 0x1c, 0xc6, 0x1d, 0xbd, 0x45, 0x1c, 0x6f, 0x3d,
  0xd7, 0x0b, 0x31, 0xbe, 0x7f, 0x0e, 0x86, 0xbd, 0x26, 0x9a, 0xd1, 0x3d,
  0xd4, 0x0a, 0x0a, 0x3c, 0x49, 0xe8, 0x57, 0x3c, 0x3b, 0x5f, 0x80, 0x3e,
  0x5d, 0x8d, 0x93, 0xbd, 0x84, 0x3f, 0xb2, 0xbc, 0x36, 0x3c, 0x6e, 0xbd,
  0xbc, 0xf7, 0xa9, 0xbd, 0x58, 0xb0, 0xf2, 0x3d, 0x3f, 0x69, 0x15, 0xbd,
  0x7e, 0x58, 0x38, 0xbd, 0x63, 0xed, 0x0d, 0xbe, 0xe9, 0x44, 0x01, 0x3e,
  0x0c, 0xaf, 0xf9, 0xbd, 0xfd, 0x5c, 0x22, 0xbe, 0x11, 0x78, 0xaa, 0xbd,
  0x9c, 0x5d, 0xee, 0xbc, 0xfc, 0xf6, 0xc8, 0xbd, 0x7e, 0x16, 0x2f, 0x3d,
  0x10, 0xce, 0x4a, 0xbd, 0x38, 0xd8, 0x16, 0x3e, 0x00, 0xc9, 0x88, 0xbd,
  0xcb, 0x91, 0xdd, 0x3d, 0xac, 0x93, 0xc5, 0xbd, 0x60, 0x98, 0xc4, 0x3d,
  0xe5, 0x1d, 0x67, 0xbe, 0xbf, 0x67, 0xe7, 0xbc, 0x8f, 0x7f, 0x67, 0x3d,
  0xcf, 0xf4, 0xca, 0x3d, 0x83, 0xfd, 0x15, 0xbe, 0xa8, 0x9c, 0x27, 0x3e,
  0xc8, 0xb8, 0x26, 0x3e, 0x7a, 0x9f, 0xbd, 0x3b, 0xe1, 0x58, 0x6e, 0x3b,
  0xe4, 0x36, 0x28, 0x3d, 0x3f, 0x1b, 0x21, 0x3e, 0x61, 0x77, 0xf8, 0xbd,
  0x1d, 0x6d, 0x6c, 0x3e, 0xdd, 0x04, 0x06, 0xbe, 0x0a, 0x1e, 0x18, 0x3e,
  0xbb, 0xef, 0x09, 0x3e, 0x3b, 0xb0, 0xf2, 0xbd, 0x12, 0x16, 0x38, 0xbd,
  0x9b, 0xf3, 0x57, 0xbe, 0xd1, 0xc8, 0x99, 0x3d, 0xf6, 0x8a, 0xfa, 0xbc,
  0x7f, 0x2a, 0x20, 0x3e, 0xc3, 0xe9, 0x6e, 0x3c, 0xe9, 0xfd, 0x4b, 0x3e,
  0xf6, 0x49, 0x97, 0xbd, 0x0f, 0xbf, 0x37, 0x3e, 0x9f, 0x9a, 0x91, 0xbd,
  0x1d, 0x5d, 0x5a, 0xbd, 0xae, 0xd0, 0x8b, 0xbd, 0xc0, 0xfd, 0x93, 0xbc,
  0x35, 0x14, 0xff, 0x3d, 0xb0, 0xd1, 0x20, 0xbe, 0xf0, 0xa9, 0x7a, 0x3e,
  0x49, 0xe8, 0xca, 0x3c, 0xb0, 0xf1, 0x2a, 0x3e, 0xe8, 0x0d, 0x55, 0xba,
  0x95, 0xd2, 0x62, 0x3c, 0x54, 0xbf, 0xaa, 0xbd, 0xa5, 0x55, 0x01, 0xbe,
  0xd0, 0xb9, 0x01, 0x3e, 0x26, 0x55, 0x7b, 0xbc, 0xf6, 0x25, 0xa9, 0x3d,
  0x1f, 0xfd, 0x33, 0xbd, 0x8f, 0xa6, 0xca, 0xbd, 0x89, 0xd9, 0xe6, 0x3c,
  0x53, 0xc9, 0x9a, 0x3d, 0x19, 0x3a, 0x2e, 0x3e, 0x2b, 0x12, 0xda, 0x3d,
  0x4e, 0x1b, 0x33, 0x3d, 0x6e, 0xd4, 0x70, 0xbd, 0x44, 0xdb, 0x61, 0x3e,
  0xd1, 0x7b, 0xa9, 0xbd, 0xa4, 0x0e, 0x18, 0x3b, 0x0d, 0xfc, 0x24, 0x3e,
  0xfb, 0x01, 0xcb, 0xbd, 0x38, 0xa7, 0xb8, 0x3d, 0xf2, 0xe5, 0x34, 0x3c,
  0x71, 0xc0, 0xd0, 0x3c, 0x85, 0xe3, 0x36, 0x3d, 0x07, 0x12, 0x8b, 0x3d,
  0xcd, 0x2a, 0xdf, 0x3d, 0xb2, 0xae, 0xd1, 0xbd, 0x2e, 0x05, 0x54, 0xbd,
  0x67, 0x08, 0x4f, 0xbe, 0xef, 0x3c, 0xb5, 0xbc, 0x71, 0x11, 0xb7, 0x3d,
  0x3d, 0x36, 0x28, 0x3d, 0x33, 0x6f, 0xe2, 0x3d, 0x63, 0xe2, 0x10, 0x3e,
  0x51, 0x2a, 0x02, 0xbe, 0x7f, 0x13, 0x8a, 0xbd, 0x77, 0x58, 0x29, 0x3e,
  0x0b, 0xad, 0x4d, 0x3b, 0x05, 0xac, 0xdb, 0x3d, 0x93, 0xe2, 0x24, 0x3e,
  0xba, 0x7c, 0xbd, 0xbd, 0x2a, 0xd7, 0xbd, 0x3d, 0xf5, 0x41, 0x13, 0x3e,
  0xe3, 0x1f, 0x56, 0x3d, 0x78, 0x2c, 0x25, 0xbd, 0x1b, 0x18, 0xb0, 0xbd,
  0xf7, 0x60, 0xa2, 0x3d, 0xa8, 0x57, 0x6d, 0xbd, 0x90, 0xb7, 0x94, 0x3d,
  0xcb, 0xa6, 0x81, 0xbd, 0x2a, 0xcb, 0x1d, 0xbe, 0x97, 0x37, 0xa3, 0xbc,
  0x2c, 0x10, 0x24, 0xbe, 0x7f, 0x26, 0x05, 0x3c, 0xf9, 0xc9, 0x36, 0x3e,
  0x46, 0x28, 0x5c, 0xbe, 0xf0, 0x19, 0x8f, 0xbc, 0x28, 0x21, 0xb8, 0x3d,
  0x30, 0xff, 0x0f, 0xbd, 0x33, 0x3d, 0xda, 0x3d, 0xcb, 0xb4, 0x42, 0xbd,
  0x3d, 0x7e, 0xdc, 0xbd, 0x48, 0x39, 0x87, 0x3c, 0x30, 0xdb, 0x6c, 0xbd,
  0x82, 0x97, 0x3b, 0xbe, 0x66, 0x95, 0x4a, 0x3e, 0xbf, 0xe2, 0x15, 0x3e,
  0x2f, 0xa4, 0x35, 0x3d, 0x11, 0x4f, 0x6b, 0x3d, 0x7e, 0x96, 0xc3, 0xbb,
  0x1c, 0x39, 0xff, 0x3d, 0x2c, 0x53, 0x12, 0xbe, 0x74, 0x6f, 0x1c, 0xbe,
  0x14, 0x2f, 0x49, 0xbe, 0xef, 0x67, 0xb3, 0xbd, 0x0a, 0xaf, 0x04, 0x3e,
  0x64, 0x29, 0x4e, 0x3e, 0x6c, 0x2c, 0x93, 0xbd, 0xbe, 0x69, 0x4d, 0xbd,
  0xe4, 0x70, 0x11, 0x3e, 0xc6, 0xed, 0x0d, 0xbe, 0x75, 0x73, 0xd8, 0xbd,
  0x35, 0xf7, 0x3e, 0xbe, 0x23, 0xbb, 0x52, 0x3e, 0xb4, 0xa1, 0xb7, 0x3c,
  0xcd, 0x82, 0xdf, 0x3d, 0xb2, 0x4b, 0x54, 0x3d, 0x11, 0xd2, 0xcd, 0x3d,
  0x35, 0x64, 0xe8, 0x3d, 0x40, 0xc1, 0x00, 0xbe, 0xa2, 0x4d, 0x72, 0x3d,
  0x55, 0xdb, 0xcc, 0xbd, 0x0f, 0x3a, 0xa6, 0xbd, 0x4d, 0x77, 0x0c, 0x3e,
  0xa6, 0x89, 0x02, 0x3e, 0x73, 0x13, 0x87, 0xbd, 0x74, 0x32, 0x59, 0x3d,
  0xf7, 0x66, 0xdc, 0x3d, 0x2e, 0xa9, 0xf5, 0x3d, 0xbf, 0x42, 0xd2, 0x3d,
  0x29, 0x60, 0xf2, 0x3b, 0x7f, 0xb8, 0x4d, 0x3e, 0x6e, 0x2d, 0x0d, 0xbe,
  0xf2, 0xae, 0x4f, 0x3d, 0x28, 0x5a, 0x90, 0xbc, 0x67, 0x45, 0x5e, 0xbd,
  0x15, 0xe7, 0x0e, 0x3e, 0x6b, 0x53, 0x11, 0xbd, 0x1b, 0xad, 0x6e, 0xbd,
  0x7a, 0xae, 0x18, 0xbe, 0x0e, 0xeb, 0x36, 0x3e, 0xbd, 0x62, 0x60, 0xbc,
  0x51, 0x5e, 0xa1, 0x3c, 0x6a, 0x44, 0x6f, 0x3d, 0x8a, 0xe6, 0xac, 0xbd,
  0x7b, 0x16, 0x4f, 0x3e, 0x8a, 0x2f, 0xc4, 0x3d, 0xdc, 0x18, 0xb3, 0xbd,
  0xdc, 0xc9, 0x1f, 0xbe, 0x89, 0x5f, 0xe6, 0x3d, 0x80, 0x0b, 0x30, 0xbe,
  0xaf, 0x1d, 0x96, 0xbd, 0x27, 0x9c, 0xd2, 0x3d, 0xf0, 0xf6, 0x56, 0x3d,
  0xec, 0xd2, 0xa7, 0x3d, 0x68, 0x90, 0x03, 0x3e, 0x5a, 0x6e, 0x2e, 0x3d,
  0xfa, 0xee, 0x20, 0xbe, 0x45, 0x03, 0xa8, 0x3d, 0x53, 0xb1, 0x94, 0x3d,
  0x90, 0x60, 0x18, 0xbe, 0xca, 0x5c, 0x46, 0x3a, 0xdd, 0x7f, 0xa4, 0x3d,
  0x6d, 0x15, 0x0f, 0x3c, 0x7b, 0x1f, 0x32, 0x3c, 0x14, 0x8e, 0x9c, 0xbd,
  0xef, 0xcb, 0xfe, 0x3d, 0x4b, 0xe7, 0x29, 0xbe, 0x56, 0x0c, 0xb4, 0xbd,
  0x11, 0xf9, 0x23, 0xbd, 0x77, 0x9c, 0x11, 0x3e, 0x2d, 0x74, 0x50, 0xbd,
  0x20, 0x77, 0x95, 0xbd, 0x02, 0x22, 0xe5, 0x3d, 0x4d, 0xd5, 0xb4, 0x3d,
  0xc5, 0xe2, 0xa2, 0x3d, 0xec, 0x45, 0x27, 0xbe, 0xb9, 0x56, 0xbc, 0x3d,
  0x21, 0x9a, 0x07, 0x3d, 0x50, 0x6a, 0xd3, 0xbd, 0xfa, 0x00, 0x97, 0xbd,
  0x9b, 0xe6, 0x50, 0x3d, 0xc5, 0x4d, 0xac, 0x3d, 0xb2, 0x17, 0xaa, 0x3d,
  0x42, 0x5b, 0x09, 0x3e, 0x46, 0x41, 0xea, 0x3a, 0x41, 0xdf, 0xce, 0xbd,
  0x42, 0x38, 0xe5, 0x3d, 0x65, 0xec, 0x91, 0xbc, 0xca, 0x0b, 0x7f, 0x3d,
  0x84, 0xa3, 0x65, 0xbc, 0xb3, 0x86, 0x4f, 0xbd, 0x04, 0x52, 0x76, 0xbc,
  0x84, 0x85, 0x2d, 0x3e, 0x2f, 0x12, 0xde, 0xbd, 0xf6, 0x72, 0x82, 0x3d,
  0xd3, 0xa2, 0x0d, 0xbe, 0xd8, 0x80, 0x60, 0x3e, 0xd3, 0x83, 0x51, 0xbc,
  0xb9, 0x27, 0x17, 0xbc, 0xa8, 0x38, 0xd2, 0xbd, 0x85, 0xd2, 0x14, 0xbe,
  0x94, 0xb4, 0xa0, 0x3d, 0x21, 0xf6, 0x08, 0xbe, 0xd9, 0x35, 0x1b, 0xbe,
  0xce, 0x12, 0xc5, 0xbd, 0xb8, 0xd6, 0xa6, 0xbd, 0xe7, 0xe9, 0xa8, 0x3d,
  0x79, 0xd2, 0xa0, 0x3d, 0xb5, 0xfb, 0x32, 0xbe, 0x33, 0x99, 0x2a, 0xbe,
  0xf4, 0xc2, 0x37, 0x3b, 0xbe, 0xe2, 0x42, 0xbe, 0x13, 0xee, 0xf7, 0xbd,
  0x68, 0x10, 0x21, 0x3e, 0xc2, 0x8a, 0xe2, 0xbc, 0xf4, 0x2e, 0xb0, 0xbd,
  0xd3, 0x70, 0x1a, 0x3c, 0x69, 0xef, 0x05, 0x3e, 0xc1, 0x5f, 0xf5, 0x3d,
  0xed, 0x52, 0x57, 0xbd, 0x9c, 0xfb, 0xb7, 0xbd, 0x1b, 0x68, 0x93, 0xbd,
  0x36, 0x93, 0x23, 0x3e, 0xec, 0x75, 0xc1, 0x3d, 0xbd, 0xa5, 0x85, 0xbc,
  0x67, 0xa8, 0xa3, 0xbd, 0xc5, 0xd8, 0xd6, 0x3d, 0x6f, 0x24, 0xab, 0x3c,
  0x96, 0xc5, 0x22, 0xbe, 0x25, 0x29, 0x69, 0xbb, 0xd1, 0xf4, 0x33, 0xbe,
  0xc0, 0x78, 0xc2, 0xbd, 0x58, 0xc5, 0xd0, 0x3c, 0xa1, 0x91, 0x56, 0x3d,
  0xd1, 0x24, 0xb2, 0x3d, 0xeb, 0x5a, 0x08, 0xbe, 0xf3, 0xf1, 0x0e, 0xbe,
  0x8d, 0xd4, 0x2f, 0xbe, 0x99, 0xb2, 0xa4, 0x3d, 0x32, 0x21, 0xa9, 0xbd,
  0x20, 0x67, 0xa6, 0x3a, 0x78, 0xa8, 0x10, 0x3d, 0x83, 0x51, 0xff, 0x3d,
  0xfe, 0xc5, 0xe5, 0x3d, 0xcc, 0xce, 0xfb, 0x3d, 0x91, 0xef, 0xdb, 0xbd,
  0xcf, 0xd9, 0xdd, 0xbd, 0x91, 0x13, 0x0f, 0x3e, 0x71, 0xb3, 0x69, 0xbd,
  0xa0, 0x35, 0x26, 0xbe, 0x95, 0xce, 0xc1, 0xbd, 0x84, 0x89, 0x1a, 0x3e,
  0x1a, 0x18, 0x8a, 0x3c, 0xd0, 0xa2, 0xab, 0x3d, 0x49, 0x23, 0x4c, 0xbd,
  0xfd, 0xce, 0x20, 0xbe, 0x1a, 0xff, 0x15, 0xbe, 0x99, 0x3c, 0x1d, 0x3d,
  0xa4, 0x82, 0x82, 0xbd, 0x64, 0x69, 0xa8, 0xbd, 0x57, 0x7b, 0x87, 0x3d,
  0x43, 0x1b, 0x04, 0xbe, 0x5c, 0xa3, 0xf3, 0xbc, 0x48, 0xee, 0xf6, 0x3d,
  0x4c, 0x53, 0x20, 0x3d, 0x0f, 0xc2, 0x4c, 0xbd, 0x1f, 0x44, 0x0f, 0x3e,
  0xef, 0x8b, 0xe6, 0xbd, 0x6a, 0x2f, 0x26, 0x3e, 0x0d, 0x61, 0x30, 0x3e,
  0x4d, 0x99, 0x4e, 0x3c, 0x29, 0xd4, 0x46, 0xbe, 0x70, 0x5b, 0x13, 0x3e,
  0x9f, 0x17, 0x25, 0x3e, 0xe1, 0x14, 0xd7, 0x3c, 0xe9, 0x1e, 0x23, 0xbd,
  0x99, 0xa1, 0x3b, 0xbd, 0x35, 0xec, 0x12, 0x3e, 0x33, 0xc9, 0x8d, 0xbd,
  0x8a, 0xef, 0x05, 0xbe, 0xfc, 0x5c, 0x45, 0xbe, 0x47, 0x86, 0x94, 0x3c,
  0xe2, 0x21, 0xc8, 0x3d, 0x58, 0x8c, 0x05, 0x3d, 0x2d, 0xda, 0xfa, 0x3d,
  0xb2, 0x0b, 0xf5, 0xbd, 0xf3, 0x7a, 0x3b, 0x3e, 0xba, 0x02, 0x10, 0x3e,
  0xd6, 0xcf, 0x88, 0xbc, 0x5f, 0x40, 0xb6, 0x3a, 0x71, 0x7d, 0x5e, 0x3d,
  0xcf, 0x48, 0x1a, 0xbe, 0x01, 0xd7, 0xf7, 0xbd, 0x7f, 0xa5, 0xfe, 0xbd,
  0x07, 0x9a, 0x24, 0xbe, 0x67, 0x99, 0xf2, 0xbd, 0xd8, 0x2e, 0x41, 0x3e,
  0x22, 0x61, 0xf0, 0xbd, 0xe3, 0xb1, 0xd5, 0x3c, 0x6b, 0xd9, 0x29, 0x3e,
  0x4c, 0xe0, 0x95, 0xbd, 0xee, 0x9a, 0x06, 0x3e, 0x3f, 0xcf, 0x60, 0x3d,
  0x49, 0x92, 0xd8, 0xbb, 0x1f, 0xf4, 0xd0, 0x3d, 0x0a, 0x2a, 0xfe, 0x3d,
  0x1e, 0x08, 0xe2, 0x3c, 0x05, 0x8e, 0xaa, 0xbd, 0xea, 0xd1, 0x2a, 0x3e,
  0xb6, 0x5d, 0x81, 0x3c, 0x27, 0x02, 0x88, 0xbd, 0xe9, 0x40, 0x47, 0xbd,
  0x6e, 0x34, 0x7d, 0xbd, 0x55, 0x20, 0xb8, 0xbd, 0xc0, 0xf0, 0x26, 0x3e,
  0xad, 0xf6, 0xe2, 0x3d, 0xa7, 0x19, 0x88, 0xbd, 0xaa, 0x53, 0xac, 0x3d,
  0x8a, 0xe3, 0x22, 0xbd, 0xfd, 0x83, 0xdd, 0x3d, 0x19, 0x26, 0xa1, 0xbd,
  0xb3, 0x7c, 0x1e, 0x3d, 0x2f, 0x43, 0x55, 0xbd, 0x27, 0xac, 0x8a, 0x3c,
  0xbd, 0x80, 0x18, 0x3c, 0x52, 0x88, 0xa5, 0xbc, 0xe8, 0x09, 0xca, 0x3d,
  0x19, 0xc3, 0xed, 0x3d, 0x91, 0x39, 0x89, 0xbd, 0x72, 0xe1, 0xb7, 0x3b,
  0xe2, 0x01, 0x2f, 0x3e, 0x79, 0x45, 0x2c, 0xbe, 0x73, 0x5e, 0x74, 0x3b,
  0xc3, 0x4f, 0x03, 0x3e, 0x30, 0xbb, 0x90, 0x3d, 0xc5, 0x5c, 0x08, 0x3e,
  0x42, 0x28, 0xbe, 0xbd, 0x31, 0xf3, 0x89, 0xbd, 0x33, 0x26, 0x74, 0xbd,
  0x19, 0x53, 0x0c, 0xbe, 0x0a, 0xe0, 0xbb, 0x3d, 0x4b, 0x1e, 0xfb, 0x3b,
  0x6a, 0x51, 0xc0, 0x3d, 0x5d, 0x6d, 0xf3, 0xbd, 0x57, 0x4a, 0x18, 0x3e,
  0xec, 0xf9, 0x2d, 0xbd, 0xeb, 0xb5, 0x84, 0x3d, 0xf4, 0x32, 0xb8, 0x3d,
  0x93, 0x65, 0xfa, 0xbc, 0x00, 0x39, 0x70, 0xbd, 0x5a, 0xad, 0x0e, 0xbe,
  0xc3, 0xd7, 0xf5, 0xbc, 0x5c, 0x5b, 0x7a, 0x3d, 0x81, 0xf5, 0x11, 0x3e,
  0x23, 0x0a, 0xe0, 0xbd, 0xe9, 0xd8, 0x1e, 0x3e, 0x38, 0xc0, 0x51, 0xbd,
  0xd5, 0xfc, 0x9e, 0x3d, 0x85, 0x94, 0x76, 0xbd, 0x7f, 0x85, 0x06, 0x3e,
  0x6b, 0x45, 0x97, 0x3d, 0x59, 0xd3, 0x01, 0xbe, 0x35, 0xf9, 0xd7, 0x3d,
  0x85, 0xfe, 0xd0, 0x3d, 0xcc, 0x81, 0x1f, 0x3e, 0x9b, 0x4b, 0x9f, 0xbc,
  0x4e, 0xcb, 0xbf, 0xbd, 0x71, 0x5b, 0x38, 0xbb, 0x46, 0x69, 0xd7, 0xbd,
  0x4f, 0xcc, 0xb5, 0xbd, 0x8d, 0xea, 0x25, 0x3e, 0x4b, 0x1c, 0xcd, 0x3c,
  0xcc, 0x73, 0x9c, 0x3d, 0x18, 0x9a, 0x1b, 0x3e, 0xe4, 0xc0, 0x26, 0xbc,
  0xbd, 0x05, 0xe8, 0xbc, 0x38, 0xc2, 0x80, 0x3d, 0x63, 0xc6, 0xe6, 0xbc,
  0x83, 0x19, 0x2b, 0x3e, 0xdd, 0x48, 0xa0, 0x3d, 0xea, 0x05, 0x49, 0x3d,
  0x4f, 0x0d, 0xdb, 0x3d, 0x1c, 0x8d, 0x2b, 0x3e, 0x2d, 0x9e, 0xf4, 0x3c,
  0xc5, 0x9e, 0x41, 0x3e, 0x2c, 0x37, 0x2e, 0xbe, 0x35, 0x3d, 0x15, 0x3e,
  0x8f, 0xe9, 0x11, 0x3e, 0xd2, 0xd5, 0x7c, 0x3d, 0x55, 0x29, 0x6d, 0x3c,
  0xf8, 0x0c, 0xc4, 0x3d, 0xd6, 0xa6, 0x60, 0xbc, 0x71, 0xfe, 0x9a, 0x3c,
  0x5f, 0x78, 0x3f, 0x3e, 0x5c, 0x00, 0xb9, 0x3d, 0x92, 0xfb, 0xce, 0x3c,
  0x55, 0xc9, 0x15, 0xbe, 0x30, 0x16, 0xa0, 0xbd, 0xba, 0x60, 0xc8, 0xbd,
  0x40, 0x1b, 0x0b, 0x3e, 0x01, 0x0e, 0x81, 0xbd, 0x1c, 0xfa, 0x3e, 0xbe,
  0x00, 0x9e, 0x00, 0xbe, 0x34, 0x74, 0x4b, 0x3c, 0x07, 0x15, 0x16, 0xbd,
  0x70, 0x80, 0x12, 0x3d, 0xa2, 0xfb, 0xd2, 0xbd, 0xde, 0x98, 0x19, 0x3c,
  0x97, 0x0c, 0x4c, 0x3d, 0x44, 0x83, 0xc0, 0x3d, 0xdb, 0xa6, 0x39, 0xbe,
  0xd0, 0x42, 0xd4, 0xbc, 0xf8, 0xec, 0x2a, 0x3d, 0x19, 0xc7, 0xee, 0x3c,
  0x1c, 0x4f, 0x8e, 0xbd, 0xae, 0x25, 0x6e, 0x3c, 0x3a, 0x7e, 0xd8, 0xbd,
  0x63, 0xd5, 0x63, 0x3d, 0x4d, 0x5f, 0x50, 0x3d, 0x63, 0x95, 0x1c, 0xbe,
  0xdd, 0x92, 0xda, 0xbd, 0x34, 0xf3, 0x18, 0x3d, 0x93, 0xa6, 0x85, 0xbd,
  0xaa, 0x15, 0x36, 0xbe, 0x59, 0xc0, 0x5a, 0x3e, 0x38, 0x62, 0x5b, 0xbc,
  0xa7, 0x1e, 0x8a, 0xbd, 0xfc, 0xa9, 0x99, 0xbd, 0x73, 0xab, 0xd3, 0xbc,
  0xeb, 0xb3, 0x08, 0xbe, 0xb5, 0xfa, 0x98, 0xbb, 0x5b, 0xd3, 0x44, 0x3e,
  0x70, 0x18, 0xcb, 0x3d, 0x96, 0x28, 0x0a, 0x3d, 0x26, 0xef, 0x66, 0xbd,
  0x4c, 0x5a, 0x2b, 0x3d, 0xfd, 0xec, 0x6e, 0x3d, 0xe0, 0x90, 0x54, 0x3d,
  0xb7, 0x6a, 0x2e, 0x3e, 0xa9, 0x43, 0x57, 0x3c, 0xf7, 0xd9, 0x09, 0x3e,
  0x1b, 0x60, 0x71, 0xbd, 0x08, 0xf9, 0x4a, 0x3e, 0xbe, 0xe8, 0xe5, 0xbd,
  0xa0, 0x70, 0xa0, 0x3d, 0xb3, 0x81, 0x82, 0xbd, 0x45, 0x38, 0x1c, 0xbd,
  0xf9, 0xc5, 0x14, 0xbe, 0xbd, 0x3d, 0x15, 0xbe, 0x35, 0xf4, 0xcb, 0xbd,
  0xb5, 0x64, 0xf4, 0xbc, 0xbe, 0x88, 0xc5, 0xbd, 0x60, 0xfb, 0xb8, 0xbd,
  0x46, 0xd8, 0x79, 0xbd, 0x5b, 0x94, 0xbe, 0xbc, 0xdc, 0x92, 0xb1, 0xbc,
  0x29, 0x3b, 0x11, 0xbe, 0x79, 0x90, 0x97, 0xbd, 0xad, 0x3e, 0xfe, 0xbd,
  0x41, 0xa0, 0x2a, 0xbd, 0x14, 0x56, 0x45, 0x3e, 0x0d, 0xe6, 0xad, 0xbd,
  0x46, 0xbe, 0xda, 0x3d, 0x24, 0x10, 0x1f, 0x3e, 0x51, 0x58, 0xfd, 0x3a,
  0x2b, 0x38, 0x92, 0xbd, 0x15, 0x11, 0x31, 0xbe, 0xea, 0xa9, 0x8e, 0xbd,
  0x96, 0xcc, 0x0a, 0x3c, 0x0a, 0x41, 0x09, 0x3e, 0xbd, 0xba, 0xa5, 0xbc,
  0x97, 0xa7, 0xea, 0xbd, 0x16, 0xcc, 0x24, 0xbe, 0x4a, 0xab, 0x20, 0x3d,
  0x1e, 0x82, 0x12, 0x3e, 0x09, 0x0d, 0xbf, 0x3d, 0x75, 0xeb, 0xfe, 0xbd,
  0x9b, 0xbd, 0xcc, 0x3d, 0xa8, 0xae, 0x18, 0x3c, 0x25, 0x5d, 0xbc, 0x3d,
  0xfe, 0x65, 0xcc, 0xbd, 0x3b, 0xc6, 0x2f, 0x3d, 0x64, 0xc0, 0x14, 0xbe,
  0xf1, 0x59, 0xed, 0xbd, 0x59, 0xf6, 0x02, 0xbe, 0xd2, 0x64, 0xb9, 0x3c,
  0x99, 0x90, 0xfd, 0xbd, 0xbe, 0x55, 0x38, 0xbd, 0x30, 0xfc, 0x06, 0x3d,
  0x6e, 0x29, 0x42, 0xbd, 0x20, 0x0e, 0x25, 0x3e, 0x5a, 0xb0, 0xba, 0xbd,
  0x20, 0x4f, 0x22, 0x3d, 0xd9, 0xe0, 0x8e, 0x3d, 0xbc, 0x7c, 0x0f, 0x3e,
  0xa5, 0xfa, 0x1b, 0x3e, 0x80, 0xfa, 0x8e, 0x3c, 0xdb, 0x4b, 0xa9, 0x3c,
  0x8a, 0x5a, 0x04, 0xbe, 0x9a, 0x2f, 0x27, 0xbd, 0x5d, 0xc2, 0xd6, 0x3d,
  0x51, 0x9c, 0xa1, 0xbd, 0x68, 0x7d, 0xcd, 0xbd, 0x23, 0x5d, 0x26, 0x3d,
  0x66, 0x70, 0x0b, 0x3e, 0x94, 0xa9, 0x0f, 0xbb, 0x22, 0xd0, 0x23, 0x3d,
  0x41, 0x49, 0x43, 0xbe, 0x3a, 0xbc, 0x67, 0x3d, 0x22, 0x55, 0xb4, 0x3d,
  0xc8, 0x77, 0x52, 0x3e, 0x2e, 0xc1, 0x55, 0x3d, 0x8a, 0xee, 0x31, 0x3e,
  0x73, 0xa3, 0x84, 0x3d, 0xa5, 0xfa, 0x25, 0x3d, 0x90, 0x40, 0x43, 0x3c,
  0xa1, 0xb1, 0x51, 0xbe, 0xe4, 0x27, 0xf0, 0x3c, 0xb1, 0x8b, 0x65, 0x3d,
  0x16, 0x74, 0xd1, 0xbd, 0xc4, 0xcc, 0xb3, 0xbd, 0x76, 0xec, 0xd6, 0xbb,
  0xb3, 0x1c, 0xa3, 0x3b, 0x7b, 0x52, 0xc3, 0x3d, 0x39, 0xcf, 0x67, 0x3d,
  0x83, 0x9f, 0xb9, 0xbd, 0x9d, 0x9c, 0x18, 0xbd, 0x65, 0xb7, 0xa5, 0xbc,
  0x9b, 0x84, 0xad, 0x3d, 0xda, 0x81, 0xfd, 0x3d, 0xf3, 0xeb, 0x33, 0x3e,
  0x58, 0x34, 0x0a, 0xbe, 0xee, 0xa2, 0x23, 0xbd, 0xdb, 0x84, 0x75, 0xbd,
  0x34, 0xdf, 0xab, 0x3d, 0x64, 0x4e, 0x11, 0x3e, 0x73, 0x2e, 0x79, 0xbd,
  0x18, 0x32, 0x0e, 0x3e, 0x3a, 0x90, 0x7a, 0xbd, 0xf4, 0xde, 0x02, 0x3e,
  0xb8, 0x21, 0x28, 0xbe, 0xcd, 0x32, 0xab, 0x3d, 0xbd, 0xec, 0xde, 0xbc,
  0xd7, 0x3b, 0x98, 0x3d, 0xc1, 0xea, 0x0b, 0x3e, 0x71, 0x72, 0x92, 0x3d,
  0x4d, 0x41, 0xf8, 0xbd, 0xf1, 0xaf, 0xec, 0x3d, 0xe7, 0x60, 0x06, 0xbe,
  0x86, 0xa0, 0x2d, 0xbe, 0x48, 0xb7, 0x84, 0xbc, 0x30, 0xdf, 0x30, 0xbd,
  0xb5, 0xba, 0x03, 0x3e, 0x10, 0x20, 0xc6, 0xbd, 0xf9, 0x84, 0x4c, 0x3a,
  0x4c, 0xcb, 0x07, 0x3d, 0xde, 0x1b, 0x15, 0x3b, 0x80, 0xaa, 0xad, 0x3d,
  0x59, 0x5a, 0x7e, 0xbd, 0xb0, 0xd7, 0x16, 0xbc, 0x06, 0x28, 0xd5, 0x3c,
  0x0d, 0xad, 0x12, 0xbe, 0x03, 0xae, 0x62, 0x3e, 0xf1, 0x51, 0xfb, 0x3d,
  0x79, 0x44, 0xfc, 0xbd, 0x11, 0x8e, 0x11, 0xbe, 0x15, 0x32, 0x5f, 0x3e,
  0xf9, 0x6e, 0x0d, 0xbe, 0xda, 0x24, 0xae, 0xbd, 0x7a, 0x4d, 0xd0, 0x3d,
  0x4d, 0xc3, 0x69, 0x3c, 0x76, 0x45, 0x75, 0xbd, 0xc4, 0xc9, 0x12, 0xbe,
  0x6c, 0xa7, 0xb7, 0x3d, 0x69, 0x08, 0xe9, 0x3d, 0x2c, 0xd7, 0x14, 0x3d,
  0x17, 0x34, 0xd3, 0x3d, 0x9a, 0x69, 0xad, 0xbc, 0x76, 0x69, 0xb5, 0xbc,
  0xeb, 0xec, 0x7c, 0xbd, 0xb8, 0xb4, 0x4d, 0x3d, 0xab, 0xe8, 0x94, 0x3d,
  0x70, 0x67, 0x2c, 0x3d, 0x4b, 0x0c, 0xfa, 0xbc, 0x11, 0xda, 0xf5, 0x3c,
  0x33, 0x62, 0x81, 0x3b, 0x6e, 0xe5, 0x97, 0x3d, 0xf3, 0xed, 0xa7, 0xbd,
  0x56, 0x79, 0x6b, 0x3d, 0xa5, 0x16, 0xa7, 0x3c, 0xa1, 0x21, 0xb1, 0xbc,
  0xd2, 0x8a, 0xb2, 0xbd, 0x71, 0x04, 0x85, 0xbd, 0x07, 0xa9, 0x2e, 0x3e,
  0x83, 0xf6, 0x80, 0x3d, 0x02, 0x12, 0x8d, 0xbd, 0x8e, 0x15, 0xd9, 0xbb,
  0x15, 0x94, 0x01, 0x3e, 0xbd, 0x98, 0xdf, 0xbd, 0x1b, 0x05, 0x8a, 0x3d,
  0x17, 0x82, 0x37, 0x3d, 0x15, 0x6b, 0x5e, 0x3e, 0xc3, 0xa5, 0x0f, 0xbd,
  0x14, 0x8c, 0x52, 0x3c, 0xdc, 0xa8, 0xf0, 0x3d, 0x86, 0x21, 0xc0, 0x3d,
  0x26, 0x3c, 0x4b, 0xbe, 0xbd, 0x1e, 0xd0, 0xbd, 0x2c, 0x0f, 0x0b, 0xbe,
  0x6c, 0x8a, 0x1b, 0x3d, 0x81, 0x19, 0x5d, 0xbd, 0x60, 0xfa, 0xeb, 0xbd,
  0xcc, 0x09, 0xf2, 0xbc, 0x19, 0x2d, 0xd3, 0xbd, 0xad, 0xb0, 0x22, 0xbd,
  0xbc, 0x62, 0xb3, 0x3d, 0x3e, 0x7c, 0xb4, 0xbd, 0xab, 0xc5, 0xdd, 0x3c,
  0x60, 0x6f, 0x4d, 0x3d, 0x0e, 0x27, 0x3e, 0x3e, 0x85, 0x39, 0x29, 0x3e,
  0xa5, 0x6d, 0x65, 0xbe, 0x52, 0xe9, 0x88, 0x3c, 0xf4, 0x83, 0x67, 0xbd,
  0x6a, 0x4d, 0xc4, 0x3b, 0xaa, 0xb3, 0xb2, 0x3b, 0x5a, 0xeb, 0x23, 0xbe,
  0x1c, 0x7f, 0x07, 0xbe, 0x80, 0x4c, 0x30, 0x3e, 0x1a, 0xba, 0x16, 0x3d,
  0x2c, 0xca, 0xaf, 0x3d, 0xcc, 0x0f, 0xca, 0x3d, 0x79, 0x26, 0xdc, 0xbb,
  0xc8, 0xf0, 0x0a, 0x3d, 0x08, 0xcc, 0x2f, 0xbd, 0xd3, 0x2f, 0xd7, 0x3d,
  0x87, 0xf3, 0x4d, 0x3e, 0xbd, 0xcd, 0x6c, 0x3e, 0x0b, 0xbe, 0x5d, 0x3e,
  0x8e, 0x57, 0x63, 0xbe, 0x43, 0x27, 0xfc, 0x3d, 0xd9, 0x51, 0x93, 0xbd,
  0xb8, 0x46, 0x51, 0xbe, 0x96, 0xbf, 0xd9, 0xbd, 0xd8, 0x39, 0x1e, 0x3e,
  0x33, 0xc2, 0x26, 0xbd, 0xd6, 0xa6, 0xc3, 0xbd, 0x36, 0x8e, 0x1b, 0x3d,
  0xe7, 0x2a, 0x45, 0xbe, 0xc3, 0x32, 0x5e, 0x3e, 0x19, 0x99, 0xeb, 0xbd,
  0xae, 0xf7, 0x5a, 0xbe, 0x85, 0x59, 0x0c, 0x3e, 0xe4, 0x4b, 0xcb, 0x3d,
  0x83, 0x4c, 0x65, 0x3d, 0x34, 0xbd, 0xc7, 0xbd, 0x91, 0x4b, 0x3d, 0x3e,
  0x0d, 0x8b, 0x9c, 0xbd, 0x76, 0xe1, 0x60, 0x3d, 0x90, 0xad, 0x78, 0x3d,
  0xed, 0x45, 0x6d, 0x3c, 0xd6, 0x04, 0x8e, 0xbd, 0xa8, 0x7b, 0x6b, 0x3d,
  0x53, 0x5c, 0x4b, 0xbd, 0x8e, 0x0b, 0x2a, 0x3e, 0x04, 0x89, 0xb8, 0x3d,
  0x7f, 0xac, 0x95, 0x3c, 0x07, 0x8a, 0x5d, 0x3e, 0xaa, 0xba, 0x14, 0x3d,
  0xed, 0xf5, 0x49, 0xbe, 0x7e, 0x9b, 0x5b, 0x3c, 0x5a, 0x61, 0x39, 0xbd,
  0x61, 0x5c, 0x9b, 0x3d, 0x28, 0xaf, 0x12, 0xbe, 0xd2, 0x7c, 0x0e, 0x3e,
  0x42, 0x9f, 0xe7, 0xbd, 0xd1, 0xa0, 0x21, 0x3e, 0x95, 0xf2, 0xa2, 0xbd,
  0xd3, 0xcf, 0x9d, 0xbc, 0xbf, 0x86, 0xf4, 0xbd, 0x1f, 0x98, 0xf3, 0x3d,
  0x2e, 0x91, 0xff, 0x3c, 0x85, 0xcb, 0x3e, 0x3e, 0xb5, 0x16, 0xf2, 0xbd,
  0xaf, 0x5d, 0x01, 0x3d, 0xb7, 0xa0, 0x33, 0x3e, 0x3c, 0xd7, 0x45, 0xbd,
  0x5e, 0xfb, 0xf7, 0x3d, 0xaf, 0xd0, 0xa3, 0xbd, 0x23, 0xac, 0x04, 0x3e,
  0x37, 0x42, 0x0e, 0xbe, 0x5f, 0x44, 0xbc, 0x3c, 0x09, 0xd7, 0xef, 0x3b,
  0x20, 0x5e, 0x13, 0x3e, 0x5b, 0x1d, 0xec, 0xbd, 0xc4, 0x76, 0x62, 0xbd,
  0x58, 0x9e, 0x22, 0xbd, 0x93, 0x48, 0x8e, 0xbb, 0x10, 0xec, 0x2a, 0x3d,
  0x8a, 0x7d, 0xfb, 0x3d, 0xa7, 0x53, 0xea, 0x3c, 0x09, 0x95, 0xb9, 0x3d,
  0x4e, 0x98, 0x83, 0x3d, 0xf8, 0xfc, 0xa2, 0x3c, 0xe0, 0x0d, 0x24, 0x3e,
  0x5f, 0x42, 0x24, 0x3e, 0x73, 0x6d, 0xc3, 0xbc, 0x47, 0x5f, 0xfe, 0xbd,
  0x20, 0xa3, 0xd7, 0xbd, 0x2b, 0xea, 0xe0, 0xbd, 0x43, 0x04, 0xfa, 0xbd,
  0x1a, 0xeb, 0xf8, 0x3d, 0xcc, 0x58, 0xd8, 0xbd, 0xb2, 0x78, 0x91, 0xb8,
  0x22, 0x2d, 0x08, 0x3e, 0x8c, 0xc4, 0xb7, 0x3d, 0x59, 0xd6, 0xe1, 0xbc,
  0xdd, 0x24, 0xb8, 0xbd, 0xa4, 0x4f, 0xde, 0xbd, 0x20, 0x07, 0x31, 0xbe,
  0xd1, 0x9a, 0xa2, 0xbd, 0x11, 0x04, 0x09, 0x3d, 0x27, 0xc3, 0x59, 0xbc,
  0xe6, 0x47, 0x92, 0xbd, 0x4c, 0xe2, 0x9d, 0x3c, 0xdf, 0x21, 0xa9, 0xbd,
  0x28, 0x0f, 0x17, 0xbd, 0xac, 0xb9, 0x38, 0x3e, 0xf1, 0xfe, 0x1f, 0xbd,
  0x34, 0x7c, 0xec, 0xbc, 0x32, 0x2d, 0x97, 0xbd, 0x44, 0xde, 0x09, 0x3e,
  0x94, 0x7b, 0x76, 0xbd, 0xd4, 0x28, 0x8c, 0xbd, 0xf8, 0xbd, 0x0a, 0x3e,
  0x41, 0xf3, 0xba, 0xbd, 0x21, 0xef, 0x05, 0xbe, 0x2d, 0x28, 0x14, 0x3e,
  0x4b, 0x55, 0x59, 0xbd, 0x48, 0xaf, 0xe7, 0xbd, 0x6c, 0xe3, 0x6e, 0xbc,
  0xd8, 0x28, 0xdb, 0xbd, 0x3a, 0x5d, 0x97, 0xbd, 0xbe, 0xc3, 0x39, 0xbe,
  0x79, 0xb0, 0xb6, 0x3d, 0xa9, 0xd5, 0xc3, 0xbd, 0xb0, 0x90, 0x10, 0xbe,
  0xdb, 0xd4, 0xc9, 0x3d, 0xc0, 0x0d, 0x7d, 0xbd, 0xb8, 0x4b, 0xb7, 0xbd,
  0xf5, 0xcc, 0xc2, 0xbd, 0xbb, 0x2f, 0x99, 0xbd, 0x94, 0x3f, 0xd6, 0x3c,
  0x50, 0xd3, 0x45, 0x3d, 0x96, 0x36, 0x0b, 0xbe, 0x8e, 0x4a, 0xfd, 0xbd,
  0x3d, 0x52, 0x17, 0xbe, 0x15, 0x62, 0xcf, 0x3d, 0xd6, 0x74, 0x43, 0xbe,
  0xe7, 0x58, 0x04, 0x3e, 0x68, 0x1c, 0x0a, 0x3e, 0x2d, 0xa7, 0x07, 0xbe,
  0x27, 0x28, 0x95, 0x3d, 0xfd, 0xff, 0xd4, 0x3d, 0x90, 0x52, 0x07, 0xbe,
  0xa2, 0x1e, 0xcb, 0xbd, 0x1a, 0x6b, 0x9e, 0xbd, 0x74, 0xec, 0x6e, 0xbd,
  0xab, 0xed, 0xab, 0x3b, 0x60, 0x46, 0xaf, 0xbd, 0x2c, 0x2b, 0xd0, 0xbd,
  0x00, 0x81, 0xfa, 0x3d, 0x26, 0x8c, 0x57, 0x3d, 0xc9, 0x62, 0x1c, 0x3d,
  0x89, 0x10, 0x0c, 0x3e, 0x7e, 0xe1, 0xa9, 0x3d, 0xa2, 0xfa, 0xf3, 0xbd,
  0x4c, 0xf5, 0xff, 0xbc, 0xbc, 0xa1, 0x2f, 0xbe, 0x90, 0xf8, 0x54, 0xbd,
  0x40, 0x5a, 0x82, 0xbd, 0xea, 0xbb, 0xa3, 0xbc, 0x74, 0xf8, 0x60, 0xba,
  0xde, 0xf1, 0x50, 0xbd, 0xb1, 0xaf, 0x16, 0xbe, 0xec, 0x81, 0xbd, 0x3d,
  0xae, 0xd0, 0x04, 0xbe, 0x69, 0x26, 0x3f, 0xbe, 0xbb, 0x3b, 0xf3, 0x3d,
  0x95, 0x6a, 0x05, 0x3e, 0x88, 0xbb, 0x66, 0xbc, 0x05, 0x59, 0xbf, 0x3c,
  0x21, 0x01, 0xa4, 0x3c, 0x8d, 0xad, 0xd7, 0x3d, 0x10, 0xc4, 0x78, 0xbc,
  0x81, 0x4c, 0x46, 0xbd, 0xd1, 0xa3, 0x0c, 0x3d, 0xa1, 0x55, 0xab, 0xbd,
  0x57, 0x67, 0x8b, 0xbd, 0x31, 0xf4, 0x60, 0x3d, 0x9e, 0x44, 0x47, 0x3d,
  0x89, 0x32, 0x88, 0x3d, 0xf7, 0xdc, 0xe0, 0x3c, 0xb5, 0x14, 0x21, 0x3d,
  0x98, 0xaa, 0xee, 0x3d, 0x80, 0x39, 0x04, 0x3d, 0x05, 0x97, 0xf3, 0xbc,
  0x23, 0x68, 0x3e, 0xbd, 0xb5, 0x9d, 0xc1, 0xbc, 0x4c, 0x77, 0x93, 0x3d,
  0x0a, 0x35, 0x8f, 0xbb, 0x1d, 0x6c, 0x0d, 0x3e, 0x81, 0x64, 0xaa, 0xbc,
  0xf5, 0x51, 0x1b, 0x3e, 0xb8, 0x22, 0x7f, 0x3d, 0xcb, 0x8c, 0xde, 0xbd,
  0xdb, 0x58, 0x2f, 0xbe, 0xe7, 0xa4, 0x26, 0x3d, 0x8a, 0xc9, 0x06, 0xbe,
  0x71, 0x43, 0xe0, 0x3c, 0x09, 0x8f, 0x4e, 0xbc, 0x64, 0x1e, 0xf8, 0xbd,
  0x3e, 0x14, 0xe6, 0x3c, 0x5e, 0x45, 0xce, 0xbd, 0x2a, 0xa0, 0x8b, 0x3d,
  0x65, 0x3e, 0x9e, 0x3d, 0x45, 0x31, 0x73, 0xbd, 0x03, 0xdb, 0xe5, 0x3c,
  0x33, 0x9f, 0xec, 0xbc, 0xe8, 0x33, 0xcf, 0xbd, 0xe2, 0x7f, 0x10, 0xbe,
  0x1b, 0xd0, 0x4f, 0xbd, 0xab, 0x74, 0x5a, 0xbe, 0xf3, 0x6a, 0x75, 0x3d,
  0xde, 0x7e, 0xe1, 0xbc, 0x55, 0x07, 0xec, 0x3c, 0xbd, 0xef, 0xed, 0x3d,
  0x27, 0x44, 0x86, 0xbd, 0x0e, 0x85, 0x92, 0xbd, 0x43, 0x19, 0x09, 0x3e,
  0xb0, 0x3f, 0x18, 0xbe, 0x5e, 0x42, 0x64, 0x3d, 0x4f, 0x26, 0x2e, 0xbe,
  0xcd, 0x73, 0x06, 0x3d, 0xd9, 0xce, 0x56, 0x3d, 0x1a, 0xa5, 0x17, 0x3e,
  0xff, 0x50, 0xa0, 0x3d, 0xc5, 0x56, 0xc1, 0x3d, 0x53, 0x7b, 0x3e, 0x3d,
  0x04, 0x68, 0x1b, 0xbe, 0xa7, 0x8a, 0x4c, 0xbe, 0xe3, 0xbb, 0x2d, 0x3e,
  0xa1, 0xba, 0x09, 0x3e, 0x70, 0x14, 0x25, 0xbe, 0x28, 0x40, 0x38, 0x3d,
  0x8e, 0xd9, 0x43, 0xbd, 0x11, 0x2a, 0x1e, 0xbe, 0x87, 0xcb, 0x1f, 0xbe,
  0x49, 0xf0, 0x0a, 0x3d, 0x0d, 0xa4, 0x2e, 0xbd, 0xf9, 0x0a, 0x8c, 0x3d,
  0x70, 0x2c, 0xc2, 0xbd, 0x90, 0xa1, 0x26, 0xbe, 0xcb, 0x3d, 0x06, 0xbc,
  0x78, 0x3f, 0xb8, 0xbd, 0x25, 0x93, 0xf2, 0x3d, 0x06, 0x9f, 0x1c, 0xbe,
  0x9f, 0x5c, 0x2f, 0x3e, 0xbc, 0xda, 0x28, 0x3e, 0x01, 0xc9, 0xc6, 0x3d,
  0xbd, 0x2b, 0x05, 0x3e, 0x13, 0x7b, 0x8d, 0xbc, 0x2f, 0x89, 0x49, 0x3d,
  0xbc, 0x00, 0x1e, 0x3e, 0xb0, 0xb0, 0xb6, 0x3d, 0x56, 0x4d, 0x2b, 0xbe,
  0x91, 0x1e, 0x13, 0xbe, 0xff, 0xa9, 0x15, 0xbe, 0xe1, 0x78, 0x9f, 0xbd,
  0x99, 0x78, 0x1f, 0x3e, 0xbc, 0x5d, 0x1b, 0xbd, 0xef, 0xa7, 0x91, 0x3d,
  0x8c, 0x63, 0x47, 0x3c, 0xdc, 0x0e, 0x5b, 0x3d, 0xd6, 0x1a, 0x89, 0x3d,
  0x7b, 0x45, 0x1e, 0xbe, 0xee, 0x57, 0x02, 0x3e, 0xb2, 0x09, 0xa3, 0x3d,
  0x74, 0xb5, 0x9f, 0x3d, 0xb1, 0x50, 0x36, 0xbe, 0xbe, 0x0c, 0x2d, 0x3d,
  0x4f, 0x6f, 0xd6, 0xbd, 0x70, 0x57, 0xa8, 0x3d, 0xf1, 0xaf, 0xa6, 0xbb,
  0x56, 0x0b, 0xb9, 0x3d, 0xc2, 0xfc, 0x0b, 0x3e, 0xe4, 0x38, 0xc2, 0x3c,
  0x5d, 0xa4, 0x7e, 0xbd, 0x09, 0x4a, 0x0b, 0xbd, 0x07, 0x21, 0x26, 0x3e,
  0x2c, 0x7d, 0x09, 0x3e, 0x08, 0xd4, 0x06, 0x3d, 0xac, 0x89, 0x2d, 0xbe,
  0x7f, 0xbf, 0xe5, 0xbd, 0x08, 0xbe, 0x10, 0x3e, 0x17, 0x78, 0xe5, 0x3d,
  0x2c, 0x38, 0xfd, 0x3c, 0xf6, 0xa4, 0xae, 0xbd, 0x4f, 0x47, 0x60, 0xbc,
  0x2b, 0x61, 0xc9, 0x3d, 0xa7, 0xa1, 0x65, 0x3d, 0x33, 0x99, 0x99, 0x3d,
  0x89, 0xe6, 0xdd, 0xbd, 0xaf, 0x76, 0xfb, 0xbd, 0xbe, 0x0d, 0x0e, 0x3d,
  0x56, 0xe2, 0x0b, 0x3e, 0xa8, 0x82, 0x29, 0xbe, 0xc8, 0x51, 0x0b, 0xbe,
  0xd1, 0x4b, 0x9d, 0x3d, 0x11, 0x3f, 0x73, 0xbd, 0x4f, 0x55, 0xd1, 0x3c,
  0x34, 0xe6, 0x7e, 0x3b, 0x56, 0xc0, 0x22, 0xbe, 0x8b, 0xa0, 0xc7, 0x3c,
  0x30, 0x0b, 0x14, 0xbe, 0x64, 0xa7, 0x1a, 0x3d, 0xa2, 0x4a, 0x38, 0xbc,
  0xfb, 0x42, 0x87, 0x3d, 0x75, 0x6d, 0x7e, 0x3d, 0x37, 0x6c, 0x26, 0xbe,
  0x2d, 0x3b, 0xbc, 0x3d, 0x18, 0xd9, 0x16, 0x3e, 0xbc, 0xdf, 0x97, 0xbd,
  0xcd, 0x25, 0xa9, 0xbd, 0x75, 0x75, 0x40, 0xbd, 0x68, 0xcc, 0xe8, 0x3c,
  0xb1, 0xc9, 0xd8, 0x3d, 0xdb, 0x91, 0x88, 0x3b, 0x3b, 0x18, 0xf7, 0xbd,
  0xa0, 0xf3, 0xc7, 0x3d, 0xda, 0xfc, 0x0f, 0xbe, 0x10, 0x28, 0xdf, 0x3d,
  0x51, 0x79, 0xda, 0xbd, 0x28, 0x29, 0x10, 0xbe, 0x24, 0x48, 0xe1, 0x3c,
  0x0f, 0xac, 0xcd, 0x3d, 0x2e, 0xc5, 0x4f, 0xbd, 0x06, 0xc0, 0xbb, 0xbd,
  0x8c, 0xa3, 0xc8, 0xbc, 0x65, 0x94, 0x16, 0xbe, 0x84, 0x54, 0xf7, 0xbd,
  0x36, 0xa7, 0x8f, 0xbd, 0xc5, 0x98, 0x25, 0xbe, 0x55, 0xea, 0xa1, 0xbd,
  0x99, 0x1a, 0x1d, 0x3d, 0x36, 0xfb, 0x7a, 0xbd, 0x97, 0x21, 0x2c, 0xbe,
  0x40, 0x58, 0xfa, 0x3d, 0xd5, 0x7d, 0x5a, 0xbc, 0x16, 0x90, 0x5d, 0x3d,
  0x55, 0xfd, 0x2c, 0xbe, 0xc3, 0xcc, 0x77, 0x3d, 0x3b, 0xea, 0x7e, 0x3d,
  0x84, 0xbb, 0xc8, 0x3b, 0xde, 0xa2, 0x88, 0xbd, 0xb9, 0x2a, 0x25, 0xbe,
  0xf4, 0xe2, 0x1b, 0x3e, 0x30, 0x01, 0x47, 0xbd, 0xc2, 0x52, 0x02, 0x3e,
  0x9e, 0x23, 0xdd, 0x3c, 0x43, 0xd1, 0x36, 0xbe, 0x84, 0x05, 0x11, 0xbe,
  0x67, 0x0a, 0x15, 0xbe, 0x97, 0x34, 0xfd, 0xbc, 0x7a, 0x6e, 0x1d, 0xbe,
  0x62, 0x67, 0x95, 0x3d, 0x58, 0x50, 0x90, 0xbc, 0x3f, 0x26, 0x68, 0xbd,
  0x77, 0x22, 0x9f, 0xbd, 0x1d, 0x91, 0x06, 0x3d, 0x65, 0xbc, 0x14, 0xbe,
  0xaf, 0x16, 0x01, 0x3e, 0x8c, 0x61, 0xaf, 0x3c, 0xd6, 0x77, 0x34, 0xbe,
  0x4f, 0x25, 0x15, 0xbe, 0x98, 0x37, 0xed, 0xbd, 0x7c, 0x7a, 0x47, 0xbc,
  0x88, 0xf6, 0xf3, 0xba, 0x1f, 0x5f, 0x0b, 0x3d, 0x9d, 0x5d, 0xe2, 0x3c,
  0xe4, 0xf8, 0x29, 0x3e, 0x55, 0x6a, 0x67, 0x3d, 0xdb, 0xda, 0xbe, 0x3c,
  0x72, 0x77, 0x2a, 0x3e, 0xb8, 0x85, 0xef, 0x3d, 0x27, 0x55, 0x00, 0xbe,
  0x67, 0x22, 0x6b, 0x3d, 0x76, 0xac, 0x9f, 0xbd, 0x1c, 0xf0, 0x0c, 0x3e,
  0xee, 0x84, 0x3d, 0xbb, 0x1e, 0xc4, 0x93, 0x3d, 0xc4, 0x38, 0x97, 0x3d,
  0xe6, 0x14, 0x0a, 0x3e, 0x04, 0x0b, 0x69, 0x3d, 0x36, 0xd5, 0x09, 0x3e,
  0xcc, 0x59, 0x02, 0xbe, 0xc4, 0x13, 0x15, 0x3e, 0x71, 0x30, 0x4e, 0x3a,
  0x11, 0x4c, 0x30, 0x3e, 0x80, 0xb2, 0xc0, 0xbd, 0x38, 0x0f, 0x16, 0xbe,
  0x46, 0xf0, 0xc7, 0xbd, 0x2f, 0x9c, 0x1a, 0x3c, 0x34, 0xff, 0x47, 0xbe,
  0x4f, 0x2f, 0x85, 0x3d, 0x3b, 0xcd, 0x87, 0x3d, 0x8b, 0x8c, 0x29, 0x3e,
  0xee, 0x23, 0xc8, 0xbd, 0x3d, 0x18, 0xee, 0x3d, 0xc6, 0xe3, 0xec, 0xbd,
  0x83, 0x6e, 0x5b, 0x3d, 0x9c, 0xc3, 0x0a, 0x3e, 0x15, 0x36, 0x7b, 0xbd,
  0xe5, 0xae, 0x66, 0xbd, 0x09, 0xd3, 0x0f, 0x3e, 0xc5, 0xd5, 0xb0, 0xbd,
  0xaa, 0xad, 0xf0, 0xbd, 0xa4, 0x20, 0x23, 0x3c, 0x46, 0xbd, 0x1d, 0xbe,
  0xa8, 0xdb, 0x27, 0x3e, 0x3b, 0x8f, 0x53, 0xbd, 0x55, 0xe5, 0xdb, 0xbd,
  0x0a, 0xcb, 0xe5, 0xbd, 0xe3, 0x64, 0x1a, 0xbd, 0x1c, 0x35, 0x1d, 0xbe,
  0xa9, 0x2d, 0xd8, 0x3d, 0x52, 0x93, 0x10, 0x3e, 0xdb, 0x4e, 0x94, 0xbd,
  0xd8, 0x9f, 0x09, 0xbe, 0x0b, 0xa6, 0xfd, 0xbc, 0x24, 0x66, 0x05, 0xbe,
  0x5e, 0x13, 0xde, 0x3c, 0x4e, 0xf7, 0x16, 0xbd, 0x38, 0xdb, 0x04, 0x3e,
  0xa1, 0x7e, 0xe3, 0xbb, 0xb7, 0x38, 0x8f, 0xbc, 0x2b, 0x20, 0xf2, 0xbd,
  0x10, 0xcb, 0xeb, 0xbd, 0x21, 0x10, 0x63, 0xbd, 0xa5, 0x66, 0x4f, 0xbe,
  0xcc, 0xa0, 0xb1, 0x3d, 0xa5, 0x27, 0x20, 0xbd, 0x6f, 0xc0, 0x66, 0xbd,
  0x24, 0x87, 0xdc, 0xbd, 0x23, 0xfe, 0xad, 0x3d, 0x42, 0xc6, 0x18, 0xbe,
  0xfc, 0x61, 0x1b, 0x3e, 0x5a, 0xed, 0x92, 0x3d, 0xbf, 0x74, 0x62, 0x3d,
  0x66, 0x5c, 0x00, 0xbe, 0x16, 0xba, 0xa1, 0xbb, 0xa8, 0x79, 0xaa, 0xbd,
  0x41, 0xce, 0xb3, 0xbc, 0x98, 0xa2, 0x2c, 0x3d, 0x96, 0xee, 0xc0, 0xbc,
  0xf8, 0x80, 0x2b, 0x3d, 0x64, 0x7a, 0x07, 0x3e, 0xb9, 0x0a, 0xe2, 0x3d,
  0xd6, 0xcb, 0x14, 0x3d, 0xbe, 0xfd, 0xc9, 0xbc, 0x2e, 0xf1, 0xc1, 0x3d,
  0x93, 0xdc, 0x08, 0x3e, 0x1c, 0xd6, 0x92, 0xbd, 0x47, 0x0f, 0x80, 0x3b,
  0x04, 0x57, 0x38, 0x3e, 0xe4, 0x5e, 0x31, 0xbe, 0x18, 0x94, 0xeb, 0x3c,
  0x55, 0x67, 0x84, 0x3c, 0x31, 0xae, 0x0c, 0xbe, 0xd1, 0x2f, 0x3a, 0xbe,
  0x29, 0x7c, 0x8e, 0xbd, 0x9a, 0x3a, 0x94, 0xbd, 0x88, 0x79, 0x0b, 0xbd,
  0x5b, 0x43, 0x25, 0xbd, 0xc1, 0x3e, 0x9e, 0xbd, 0x16, 0x08, 0xde, 0xbb,
  0x9e, 0x93, 0xe6, 0x3c, 0x6f, 0x15, 0x10, 0x3e, 0x93, 0x3a, 0x41, 0xbe,
  0xa6, 0x1c, 0xd2, 0xbd, 0x9a, 0x99, 0x37, 0x3c, 0xd5, 0x38, 0x39, 0xbe,
  0x70, 0xa6, 0x9f, 0xbd, 0x10, 0x77, 0x1b, 0xbe, 0x5b, 0xc8, 0x03, 0x3e,
  0xce, 0x45, 0xc0, 0x3d, 0x83, 0x8d, 0x13, 0xbe, 0xa6, 0x68, 0xb2, 0xbd,
  0x52, 0x32, 0x04, 0xbe, 0x10, 0xb1, 0x00, 0xbe, 0xe6, 0x92, 0x72, 0xbd,
  0x0f, 0xf4, 0x3b, 0x3d, 0xe6, 0xe8, 0x32, 0xbe, 0xd6, 0x8d, 0xd5, 0x3d,
  0x45, 0xff, 0x98, 0x3d, 0x27, 0x66, 0xd8, 0xbd, 0x60, 0x90, 0x03, 0xbe,
  0x84, 0xf3, 0xc3, 0xbd, 0xbf, 0x4c, 0x71, 0xbb, 0x66, 0xa0, 0xbd, 0x3d,
  0x66, 0xaf, 0x49, 0xbd, 0xe3, 0x0e, 0x0b, 0xbe, 0x75, 0x22, 0xe2, 0xbc,
  0x83, 0xe5, 0x8f, 0x3d, 0xaf, 0xc0, 0xec, 0xbd, 0xc1, 0x55, 0x1d, 0x3e,
  0x46, 0x17, 0x08, 0xbe, 0x9c, 0x79, 0xaf, 0xbd, 0xf7, 0x36, 0x6b, 0xbd,
  0xf1, 0xc2, 0x1b, 0xbe, 0x15, 0xe4, 0xdc, 0xbc, 0x37, 0x45, 0x86, 0x3d,
  0x28, 0xc1, 0x05, 0x3d, 0xae, 0x7a, 0x35, 0xbe, 0xb4, 0x70, 0xef, 0xbd,
  0x18, 0xe5, 0xbc, 0x3d, 0x1d, 0xfc, 0xab, 0x3b, 0x76, 0x86, 0xcc, 0x3d,
  0x79, 0xe0, 0x76, 0x3d, 0x36, 0x17, 0xd9, 0x3c, 0x55, 0x65, 0xf7, 0x3d,
  0x75, 0xa6, 0xac, 0xbc, 0x60, 0x00, 0x6f, 0xbd, 0x1c, 0x52, 0x2c, 0xbe,
  0x4a, 0xe5, 0xe2, 0xbd, 0x49, 0xf6, 0x2c, 0x3e, 0xde, 0xce, 0x0e, 0xbe,
  0x8f, 0x65, 0x13, 0xbe, 0xa3, 0x23, 0xe4, 0x3d, 0x31, 0x3e, 0x0f, 0xbe,
  0x3d, 0xbc, 0x95, 0xbd, 0xab, 0xee, 0x46, 0xbd, 0x27, 0x31, 0x88, 0xbc,
  0xa4, 0x84, 0x15, 0x3e, 0x71, 0x14, 0xef, 0x3b, 0xe9, 0xe8, 0xde, 0xbb,
  0xb1, 0x73, 0xcd, 0x3d, 0x9f, 0x72, 0xd8, 0x3d, 0x7a, 0x6c, 0xd2, 0xbd,
  0x50, 0x76, 0xfb, 0xbd, 0x72, 0x60, 0x4d, 0xbc, 0xb3, 0x89, 0xad, 0x3d,
  0x06, 0x85, 0x44, 0xbd, 0x15, 0x83, 0x0b, 0xbe, 0x09, 0xbc, 0x00, 0x3e,
  0x7b, 0x15, 0x08, 0x3e, 0xd0, 0xa5, 0xeb, 0xbb, 0xbe, 0xea, 0xac, 0xbd,
  0xd0, 0x2d, 0x52, 0xbd, 0xd0, 0xad, 0x38, 0xbd, 0xa6, 0x44, 0x3b, 0xbe,
  0xab, 0x62, 0x74, 0x3d, 0x01, 0x84, 0x19, 0x3d, 0xfc, 0xbc, 0x44, 0x3c,
  0x7e, 0xca, 0xe9, 0x3d, 0x11, 0xc8, 0x37, 0xbd, 0x0e, 0xfe, 0x96, 0xbb,
  0x76, 0xfe, 0x89, 0xbd, 0x11, 0x32, 0x14, 0x3d, 0x59, 0x1b, 0xfd, 0x3d,
  0x75, 0x07, 0x8f, 0xbd, 0xaa, 0x9a, 0xee, 0x3d, 0xcb, 0xea, 0x38, 0xbd,
  0x1a, 0x36, 0xc8, 0xbc, 0x5e, 0x41, 0x12, 0xbe, 0x6b, 0x59, 0xc9, 0xbc,
  0x9b, 0x00, 0xce, 0x3d, 0x45, 0x7d, 0xca, 0xbd, 0x56, 0x02, 0xbd, 0x3c,
  0x44, 0xa6, 0x87, 0x3c, 0x2b, 0xd8, 0x3f, 0xbc, 0xa7, 0x4e, 0x22, 0x3e,
  0x5c, 0x34, 0xdb, 0xbd, 0xb1, 0x88, 0x8a, 0x3c, 0xc4, 0x6c, 0x51, 0xbe,
  0x9c, 0x1e, 0xd3, 0x3b, 0x1d, 0x7b, 0x48, 0xbd, 0x09, 0xa9, 0xfd, 0xbd,
  0x45, 0x6e, 0x2c, 0x3e, 0x84, 0x7d, 0x9a, 0x3d, 0x57, 0xbb, 0xb5, 0x3d,
  0xca, 0xaa, 0xca, 0x3c, 0x1d, 0xbf, 0x08, 0xbe, 0xf5, 0xc3, 0xd0, 0xbd,
  0xe7, 0x20, 0x4f, 0xbc, 0xdd, 0x7b, 0xbd, 0xbd, 0x6e, 0x71, 0x10, 0xbd,
  0xca, 0x76, 0x14, 0xbe, 0x99, 0x0b, 0x95, 0x3d, 0x5b, 0xf7, 0x56, 0xbd,
  0x1c, 0x4b, 0x05, 0xbe, 0x4f, 0x95, 0x17, 0x3e, 0xb7, 0xd1, 0x1d, 0x3d,
  0x0f, 0x96, 0xf8, 0xbd, 0xd1, 0x0b, 0x2b, 0x3d, 0x6e, 0xff, 0xab, 0xbd,
  0xb4, 0x20, 0x53, 0xbc, 0x5d, 0x8f, 0x94, 0x3d, 0x68, 0x04, 0x48, 0x3c,
  0x03, 0xdb, 0x24, 0x3e, 0x53, 0x5c, 0xa3, 0xbd, 0x01, 0x9b, 0x5f, 0xbd,
  0x45, 0xe4, 0xa9, 0xbc, 0x76, 0x3b, 0x3e, 0xbd, 0xcd, 0xdc, 0xaa, 0xbd,
  0xcf, 0x62, 0xea, 0xbc, 0x60, 0x51, 0xf7, 0x3d, 0xf5, 0xbb, 0xe2, 0x3d,
  0x06, 0xf7, 0xe4, 0x3d, 0x5a, 0x01, 0x94, 0x3d, 0x51, 0x9e, 0x40, 0xbd,
  0x74, 0x9c, 0x2a, 0x3e, 0x6c, 0x11, 0x87, 0x3c, 0xed, 0x1e, 0xe4, 0x3d,
  0x8b, 0x39, 0x00, 0x3e, 0x22, 0x8d, 0x0a, 0xbe, 0xdd, 0x4d, 0xde, 0x3c,
  0xd5, 0xf8, 0x1c, 0xbe, 0xbb, 0xbd, 0x18, 0xbe, 0x25, 0xfa, 0xb0, 0x3d,
  0xa5, 0xde, 0x87, 0xbd, 0x36, 0x9c, 0x64, 0xbd, 0xce, 0x23, 0x18, 0xbe,
  0xf9, 0x3f, 0x0b, 0x3e, 0x32, 0x9d, 0xaf, 0x3d, 0xcb, 0xa7, 0x01, 0x3e,
  0xd7, 0xf3, 0x27, 0x3e, 0x80, 0xf0, 0x9e, 0x3d, 0xb2, 0x6a, 0x1c, 0xbe,
  0xb2, 0x15, 0x01, 0xbe, 0xdc, 0x2b, 0x2a, 0xbe, 0xf7, 0xc0, 0xb4, 0xbd,
  0xf6, 0xac, 0x46, 0xbd, 0xf1, 0x36, 0x00, 0xbe, 0x64, 0x54, 0x50, 0xbd,
  0xc7, 0x25, 0xe8, 0xbd, 0xdf, 0xc3, 0x0d, 0xbe, 0xce, 0x70, 0xb9, 0x3d,
  0x10, 0x14, 0x87, 0x3d, 0x72, 0x82, 0x70, 0xbd, 0x8f, 0xae, 0x21, 0xbe,
  0xc5, 0xf5, 0x38, 0xbd, 0xc3, 0xf3, 0x82, 0x3c, 0x65, 0x55, 0xf4, 0xbb,
  0x51, 0x24, 0xbc, 0xbd, 0xf3, 0xa3, 0x22, 0xbd, 0x41, 0xf8, 0x05, 0xbe,
  0x4a, 0x12, 0xb4, 0xbc, 0x5b, 0x2f, 0x56, 0xbd, 0x80, 0x2a, 0x25, 0xbe,
  0x15, 0x4c, 0x6f, 0x3c, 0x0d, 0x7f, 0x23, 0x3c, 0xe2, 0x2c, 0x71, 0x3d,
  0x76, 0x4d, 0x71, 0x3c, 0xdc, 0xad, 0x69, 0xbd, 0x15, 0x24, 0x51, 0xbe,
  0xfd, 0x24, 0xeb, 0xbd, 0xde, 0x4a, 0xc8, 0x3d, 0xfa, 0x73, 0xe3, 0xbc,
  0x05, 0x14, 0x1e, 0xbc, 0xa1, 0x15, 0x17, 0xbe, 0xc3, 0xa5, 0x9d, 0xbc,
  0xa3, 0xa5, 0x1f, 0xbe, 0x89, 0xa6, 0x28, 0xbe, 0x23, 0xd1, 0xb8, 0xbc,
  0x0b, 0xb8, 0x99, 0xbd, 0xa3, 0x82, 0x77, 0x3d, 0x1a, 0x9f, 0x04, 0x3e,
  0xc1, 0xa0, 0xa1, 0xbd, 0x58, 0x72, 0x82, 0xbd, 0x84, 0xa5, 0x08, 0x3d,
  0xe7, 0x34, 0xc6, 0xbd, 0x48, 0xb4, 0xb3, 0x3d, 0x2d, 0xe8, 0x4c, 0xbe,
  0xeb, 0xdd, 0x01, 0x3c, 0x1a, 0xa7, 0x4b, 0xbe, 0x2f, 0xbc, 0x07, 0xbe,
  0x0a, 0x0a, 0xc7, 0xbd, 0x41, 0x74, 0x1f, 0x3e, 0x05, 0xd4, 0x08, 0xbe,
  0x5a, 0xcb, 0x3a, 0x3d, 0xe9, 0xd0, 0x11, 0xbd, 0x6d, 0x42, 0x9a, 0x3d,
  0x59, 0x5a, 0x5d, 0x3c, 0x1c, 0xf4, 0x16, 0xbe, 0x5f, 0x6c, 0xe5, 0xbd,
  0x59, 0xbe, 0x02, 0xbe, 0x88, 0xb9, 0xfa, 0xbd, 0xc8, 0x23, 0xb6, 0x3d,
  0xd7, 0xdc, 0x16, 0x3e, 0x91, 0xd8, 0xaa, 0x3d, 0x33, 0xcb, 0xa6, 0x3d,
  0x29, 0x59, 0x12, 0x3e, 0x27, 0x48, 0x2c, 0xbe, 0x4e, 0x82, 0x0a, 0x3d,
  0xe1, 0x06, 0xd5, 0xbd, 0xb7, 0xf8, 0x67, 0x3c, 0x27, 0x9c, 0x2d, 0x3e,
  0x39, 0x06, 0x18, 0xbe, 0xec, 0x1c, 0xef, 0x3d, 0x91, 0x3d, 0x15, 0xbe,
  0x40, 0x91, 0x71, 0x3d, 0x67, 0xec, 0xbd, 0xbd, 0x53, 0x06, 0x03, 0x3e,
  0xf2, 0x08, 0x33, 0x3e, 0x4f, 0x4e, 0x03, 0x3d, 0xbd, 0xc5, 0x66, 0xbd,
  0xee, 0xa3, 0x7b, 0x3d, 0xf5, 0xc9, 0x6d, 0x3c, 0x51, 0xc6, 0xea, 0xbc,
  0x89, 0x9b, 0x1d, 0xbe, 0xa2, 0x62, 0x72, 0x3c, 0x89, 0xce, 0xb4, 0xbd,
  0x4e, 0x7a, 0x04, 0xbe, 0x2a, 0xdd, 0xa6, 0xbd, 0x76, 0xc2, 0xfc, 0xbd,
  0x7e, 0xc8, 0x03, 0x3e, 0x65, 0xac, 0xc0, 0x3c, 0x44, 0xe9, 0x68, 0xbd,
  0x4c, 0x77, 0xd3, 0x3d, 0xa4, 0x5a, 0x4f, 0xbd, 0x0a, 0xc2, 0x28, 0xbe,
  0xa3, 0xde, 0x03, 0xbe, 0x1a, 0xdf, 0x7c, 0xbd, 0x5e, 0x90, 0x8f, 0x3d,
  0x7d, 0xff, 0xf9, 0xbd, 0x76, 0x52, 0x97, 0xbc, 0xeb, 0xd9, 0x59, 0xbe,
  0xb9, 0x8e, 0xf2, 0x3d, 0xef, 0x58, 0xee, 0xbd, 0x3a, 0x7f, 0xc2, 0xbc,
  0x81, 0x0f, 0x13, 0xbd, 0x8e, 0x00, 0x35, 0x3e, 0x2b, 0xa3, 0x80, 0xbd,
  0x85, 0x95, 0x12, 0x3e, 0xb7, 0xc7, 0xa0, 0xbd, 0x41, 0xc3, 0x63, 0x3d,
  0xe2, 0x81, 0x57, 0xbd, 0x0b, 0x45, 0x9b, 0xbd, 0x08, 0x08, 0x02, 0x3e,
  0x01, 0xd3, 0x2f, 0x3e, 0x82, 0x44, 0xc5, 0x3d, 0xcd, 0x65, 0x94, 0x3a,
  0xf0, 0x44, 0xae, 0xbd, 0xf2, 0xcd, 0x6c, 0x3d, 0x63, 0x2f, 0x27, 0x3b,
  0xc3, 0xad, 0x0e, 0x3e, 0x93, 0x83, 0x16, 0xbd, 0x29, 0xee, 0x7c, 0xbd,
  0x7c, 0x04, 0x05, 0x3d, 0x93, 0xc6, 0x8f, 0xbd, 0x76, 0xba, 0x4d, 0x3c,
  0x38, 0x30, 0x69, 0xbd, 0x41, 0xeb, 0x3d, 0x3e, 0xda, 0x5c, 0x32, 0xbe,
  0x5b, 0xe7, 0x14, 0x3e, 0x41, 0x22, 0xce, 0x3d, 0x31, 0xd1, 0x8d, 0xbd,
  0x35, 0xcb, 0xfd, 0xbd, 0x32, 0xd8, 0x50, 0xbd, 0x8c, 0xfc, 0x1e, 0x3e,
  0x07, 0xe3, 0x8f, 0x3d, 0x5c, 0xff, 0x4a, 0xba, 0x06, 0x47, 0x07, 0xbc,
  0x2a, 0x29, 0x89, 0xbd, 0xfb, 0x76, 0x4b, 0x3c, 0x3c, 0x97, 0xcc, 0x3d,
  0xb4, 0xa2, 0xc2, 0xbd, 0x18, 0x79, 0xfe, 0x3d, 0x79, 0x33, 0xb5, 0xbb,
  0xe0, 0xda, 0x18, 0x3d, 0x75, 0xf0, 0x02, 0x3e, 0xcd, 0xce, 0x78, 0xbd,
  0x0a, 0x3a, 0xab, 0xbd, 0xb2, 0x06, 0x2a, 0xbd, 0x57, 0xed, 0x21, 0xbe,
  0x23, 0x6c, 0xdd, 0x3d, 0x35, 0x48, 0xc7, 0x3d, 0x99, 0x74, 0x31, 0xbd,
  0xe3, 0xbd, 0x83, 0x3d, 0x4b, 0xea, 0x8e, 0xbd, 0x4d, 0x05, 0xf1, 0x3d,
  0x2f, 0x38, 0x18, 0x3d, 0xc2, 0xff, 0x95, 0xbd, 0x82, 0x56, 0x9d, 0x3d,
  0x19, 0xb1, 0x4a, 0xbd, 0x12, 0x44, 0x12, 0xbd, 0xfc, 0x69, 0x41, 0x3d,
  0xa5, 0x50, 0x9c, 0x3d, 0x1c, 0x53, 0x5f, 0x3c, 0xe8, 0x4d, 0x12, 0xbe,
  0x75, 0x04, 0x27, 0x3e, 0x58, 0x80, 0xbb, 0xbd, 0xa7, 0x4b, 0xf2, 0x3d,
  0xc4, 0xae, 0x9a, 0x3d, 0xa0, 0xf1, 0xc9, 0x3d, 0x27, 0x54, 0xe3, 0xbd,
  0x16, 0x1c, 0x56, 0x3d, 0x34, 0x11, 0xf0, 0x3d, 0xc2, 0xa6, 0x87, 0x3d,
  0xf4, 0x15, 0x1f, 0xbe, 0x9b, 0x4b, 0x6b, 0xbc, 0x34, 0x32, 0x51, 0xbd,
  0x8a, 0x36, 0xcc, 0x3d, 0x6f, 0xbe, 0xc5, 0x3d, 0xf5, 0xe8, 0x57, 0x3c,
  0xda, 0x28, 0xf8, 0x3c, 0x46, 0x06, 0x4e, 0xbd, 0xa7, 0xb6, 0x4a, 0x3d,
  0xcd, 0x47, 0x91, 0x3c, 0xa0, 0x86, 0x1f, 0xbe, 0xdc, 0x61, 0x0e, 0xbe,
  0x10, 0x7d, 0xa8, 0xbd, 0xe5, 0x32, 0x93, 0xbd, 0x98, 0xa0, 0xcf, 0x3d,
  0x83, 0x64, 0xca, 0x3d, 0x79, 0x9b, 0x4e, 0x3d, 0xda, 0x5a, 0xf1, 0x3d,
  0x02, 0xed, 0x29, 0x3e, 0xab, 0x86, 0x1e, 0xbe, 0x35, 0x9a, 0x14, 0x3e,
  0x69, 0xf4, 0x1d, 0xbd, 0xfc, 0x01, 0xe5, 0x3d, 0xb9, 0x69, 0x20, 0xbd,
  0x6b, 0xa6, 0x04, 0xbe, 0xe4, 0x41, 0x00, 0x3e, 0xc9, 0xbd, 0xce, 0x3c,
  0x44, 0xd2, 0x27, 0x3d, 0xac, 0xf2, 0x9a, 0x3d, 0x4b, 0x7b, 0x8c, 0x3b,
  0xc1, 0xca, 0x5c, 0x3d, 0xd4, 0x60, 0x9d, 0x3b, 0xa5, 0xa2, 0xab, 0x3d,
  0xd2, 0x63, 0x01, 0x3e, 0xa0, 0x86, 0x88, 0x3d, 0x83, 0x79, 0x39, 0xbd,
  0xe1, 0x65, 0xf4, 0xbd, 0xec, 0xe9, 0x09, 0xbc, 0x90, 0x23, 0x10, 0x3e,
  0xba, 0xc9, 0xf2, 0x3d, 0xd8, 0x1e, 0xaa, 0x3d, 0x8e, 0xab, 0xa4, 0xbd,
  0xe7, 0x70, 0x1d, 0xbe, 0x4d, 0x47, 0xc5, 0xbd, 0x97, 0x02, 0x36, 0x3e,
  0x5a, 0x00, 0xc5, 0xbd, 0x37, 0xec, 0xea, 0x3c, 0xfc, 0xb7, 0x17, 0xbe,
  0xc5, 0x1d, 0x0b, 0xbe, 0xf0, 0x77, 0x33, 0x3e, 0x7f, 0x98, 0x0b, 0x3d,
  0x7d, 0x6d, 0xaa, 0xbd, 0x7e, 0x37, 0xdc, 0x3d, 0x1d, 0xa9, 0x17, 0xbe,
  0xff, 0x5c, 0x1b, 0x3e, 0xc6, 0xb0, 0xb0, 0x3d, 0x0e, 0xae, 0x15, 0x3e,
  0xde, 0xa8, 0x92, 0x3d, 0xc0, 0x3f, 0xd5, 0xbd, 0xc4, 0x7e, 0xc7, 0x3d,
  0xf7, 0xc4, 0x17, 0xbd, 0xe0, 0x82, 0xba, 0xbd, 0xf8, 0xe7, 0xbd, 0x3d,
  0xd9, 0x83, 0x11, 0xbe, 0xd4, 0xa5, 0x18, 0xbe, 0x4f, 0xa1, 0xc7, 0xbd,
  0xee, 0x2a, 0x11, 0x3c, 0x90, 0x35, 0x3b, 0x3e, 0x8b, 0xb7, 0x02, 0x3e,
  0xe2, 0xbb, 0x22, 0xbe, 0x9e, 0x0a, 0xc3, 0xbd, 0x78, 0x45, 0x23, 0xbc,
  0xa0, 0xc5, 0x04, 0x3e, 0xfd, 0xf2, 0xf2, 0xbd, 0x62, 0x81, 0x0c, 0x3e,
  0x1f, 0x16, 0x01, 0xbd, 0x2f, 0xd3, 0x31, 0x3c, 0x48, 0x72, 0x2e, 0xbe,
  0x2f, 0xfb, 0xc6, 0xbd, 0xc0, 0xf4, 0x03, 0xbe, 0xb9, 0xe5, 0x27, 0xbe,
  0x8f, 0x8b, 0xd4, 0x3c, 0xfd, 0x88, 0x23, 0xbe, 0xe1, 0x9b, 0x7e, 0xbc,
  0x42, 0xa4, 0xeb, 0xbd, 0x2d, 0x45, 0xd9, 0xbd, 0x8c, 0x45, 0xed, 0x3d,
  0x3d, 0x77, 0x08, 0x3e, 0x81, 0xf9, 0x27, 0x3e, 0x85, 0xea, 0x64, 0x3d,
  0x36, 0x09, 0xc6, 0xbd, 0x68, 0x17, 0xaa, 0xbd, 0xb4, 0x2c, 0x8f, 0xbd,
  0xad, 0x28, 0xfb, 0xbd, 0x29, 0xb1, 0x3d, 0x3d, 0x1f, 0x8c, 0x75, 0x3d,
  0xb9, 0xa0, 0x10, 0xbd, 0xc9, 0xd3, 0x34, 0x3e, 0xf7, 0xb4, 0x0c, 0xbe,
  0x99, 0xb2, 0xa8, 0x3d, 0x39, 0x30, 0xed, 0x3c, 0xc5, 0x7b, 0x9b, 0x3d,
  0x8f, 0xf2, 0x16, 0xbe, 0x44, 0x74, 0xf9, 0x3a, 0xe9, 0x1d, 0xc8, 0xbd,
  0xae, 0x6b, 0x17, 0x3e, 0x83, 0x47, 0x7a, 0x3d, 0xc8, 0x62, 0x19, 0xbe,
  0x30, 0xd5, 0xd2, 0x3d, 0x41, 0xaf, 0x06, 0xbe, 0x9e, 0xe7, 0xff, 0x3c,
  0xd9, 0xa8, 0x11, 0x3e, 0x81, 0x4c, 0xe1, 0xbd, 0x55, 0xbc, 0x8e, 0xbd,
  0x25, 0x4f, 0x87, 0x3d, 0xce, 0x34, 0x9c, 0xbc, 0x4c, 0x87, 0x9c, 0xbd,
  0x61, 0xe7, 0x0d, 0xbe, 0x81, 0xb4, 0xb1, 0xbd, 0x7b, 0x13, 0x28, 0xbe,
  0x48, 0x40, 0x8a, 0x3d, 0xa5, 0x0f, 0xd1, 0x3c, 0x33, 0x9c, 0x00, 0xbe,
  0xc7, 0x25, 0x49, 0x3d, 0xfd, 0xf8, 0x5e, 0x3d, 0x2e, 0xf3, 0xe7, 0xbc,
  0x5a, 0x0c, 0xd5, 0x3c, 0x84, 0x76, 0xbb, 0x3d, 0x45, 0xd0, 0xb0, 0x3d,
  0x50, 0xd4, 0xcb, 0xbd, 0xc0, 0x4d, 0xa1, 0x3d, 0x16, 0x33, 0x9b, 0x3d,
  0xd6, 0xd1, 0x08, 0xbe, 0x9b, 0x4f, 0x8d, 0x3d, 0x90, 0x63, 0xe0, 0xbd,
  0x64, 0x0d, 0x08, 0xbe, 0x75, 0x79, 0xf7, 0xbd, 0x40, 0x8c, 0x1c, 0xbe,
  0x02, 0x44, 0xf1, 0xbb, 0x6c, 0x30, 0xa0, 0x3d, 0xcb, 0xcc, 0x2c, 0xbd,
  0x49, 0xd2, 0x94, 0x3d, 0x90, 0xcd, 0xb6, 0xbd, 0x95, 0x00, 0x9e, 0xbd,
  0x60, 0xca, 0x25, 0xbd, 0x1e, 0x7a, 0x4f, 0xbe, 0x24, 0xcf, 0x1f, 0xbe,
  0xa7, 0xb0, 0xff, 0xbd, 0xbe, 0xfc, 0x75, 0x3d, 0x80, 0x4c, 0xd7, 0xbd,
  0x62, 0x2b, 0xa0, 0x3d, 0x74, 0x35, 0xc7, 0x3d, 0x76, 0x8e, 0xe9, 0x3d,
  0x55, 0x86, 0xa1, 0xbd, 0xa4, 0xfe, 0xb9, 0x3d, 0xa9, 0xa2, 0x46, 0x3d,
  0xcf, 0xb4, 0x12, 0xbe, 0xbb, 0x9f, 0xcb, 0xbc, 0x6f, 0xdc, 0xdc, 0xbd,
  0x45, 0xab, 0x18, 0x3e, 0x50, 0xe9, 0x95, 0xbd, 0x52, 0xac, 0x3a, 0x3d,
  0xd4, 0x77, 0x37, 0xbd, 0x8a, 0x71, 0x12, 0x3d, 0x8f, 0xd1, 0xf2, 0xbd,
  0x49, 0x21, 0x2d, 0x3e, 0xa6, 0xf5, 0x27, 0x3d, 0x61, 0xeb, 0x41, 0x3d,
  0xda, 0x1b, 0x16, 0xbe, 0x74, 0xfb, 0x80, 0xbd, 0xfb, 0x26, 0x9d, 0x3d,
  0x48, 0x5d, 0xe2, 0x3c, 0x90, 0x35, 0x03, 0xbd, 0x72, 0x39, 0xe5, 0xbd,
  0x72, 0x96, 0x80, 0xbd, 0x83, 0x99, 0xff, 0xbd, 0x0a, 0xa1, 0x9c, 0xbd,
  0xcb, 0x31, 0x75, 0x3d, 0x39, 0x21, 0x03, 0x3e, 0xde, 0xd2, 0x70, 0x3d,
  0x32, 0x31, 0xb2, 0x3c, 0x76, 0xe6, 0x02, 0xbe, 0x22, 0x02, 0x19, 0x3e,
  0xbf, 0xe6, 0xe2, 0x3d, 0xc1, 0x0f, 0xfd, 0xbd, 0x06, 0xa5, 0xab, 0x3d,
  0x06, 0xae, 0xa4, 0xbd, 0xb6, 0xac, 0x14, 0xbe, 0xf5, 0xd3, 0x31, 0x3e,
  0x0b, 0x16, 0xc0, 0xbd, 0x7a, 0x0c, 0x0b, 0xbe, 0x8e, 0xd6, 0xf3, 0x3d,
  0x6e, 0xde, 0xdc, 0xbb, 0x24, 0x82, 0xc1, 0x3b, 0x26, 0x46, 0xc0, 0xbd,
  0xe0, 0x7f, 0x89, 0xbc, 0x88, 0x30, 0xcc, 0xbd, 0x3f, 0x95, 0x94, 0xbc,
  0xd5, 0x02, 0xf9, 0xbd, 0x42, 0x1c, 0x0a, 0xbe, 0xee, 0x55, 0x8c, 0x3d,
  0x33, 0x51, 0xae, 0xbd, 0x98, 0xc7, 0x07, 0x3e, 0xea, 0x22, 0xda, 0x3d,
  0x44, 0x58, 0x47, 0xbb, 0x92, 0xda, 0x9f, 0xbd, 0xf4, 0x38, 0xa8, 0xbd,
  0xb0, 0x32, 0x42, 0xbe, 0x87, 0xb6, 0xc3, 0xbd, 0xbd, 0xbe, 0x1b, 0xbc,
  0x64, 0xdd, 0x97, 0x3c, 0x50, 0xa3, 0x3f, 0xbd, 0x70, 0xd3, 0x38, 0x3e,
  0x34, 0x11, 0x0f, 0x3d, 0x3c, 0x18, 0x2f, 0xbd, 0x68, 0xcb, 0xfa, 0x3d,
  0x2f, 0x09, 0x12, 0x3e, 0x4e, 0x97, 0xfc, 0xbc, 0xdd, 0xf4, 0xb7, 0x3d,
  0x92, 0xe2, 0x19, 0x3e, 0x1e, 0x92, 0x91, 0xbc, 0xf3, 0x39, 0xca, 0x3c,
  0x74, 0xe8, 0xd1, 0x3d, 0xfc, 0x06, 0x26, 0x3e, 0xde, 0xb8, 0xe1, 0x3d,
  0x26, 0x73, 0x0f, 0xba, 0xc0, 0x05, 0x91, 0x3d, 0xb7, 0xcc, 0x06, 0x3e,
  0x44, 0x08, 0xd5, 0xbd, 0xdb, 0x3c, 0xf3, 0xbc, 0xec, 0xfb, 0xc3, 0xbd,
  0x79, 0x71, 0x2c, 0xbd, 0xd5, 0x5f, 0x09, 0xbe, 0x01, 0xca, 0xaa, 0xbc,
  0x6d, 0x4e, 0xe3, 0xba, 0xf3, 0x4a, 0x1e, 0xbe, 0xf2, 0xf0, 0x16, 0x3e,
  0x7e, 0x0c, 0xf5, 0xbd, 0xcd, 0x2c, 0x18, 0xbd, 0x69, 0xe8, 0xf1, 0xbc,
  0x1b, 0xde, 0x9f, 0x3d, 0xdf, 0x42, 0xdb, 0xbd, 0x73, 0x61, 0xee, 0x3d,
  0x5e, 0x59, 0xec, 0x3c, 0x9f, 0xc7, 0x42, 0xbe, 0x46, 0x38, 0x73, 0xbd,
  0x22, 0xff, 0xd0, 0x3d, 0x15, 0xbb, 0xc7, 0xbd, 0xf4, 0xb8, 0xca, 0xbd,
  0x66, 0x70, 0x0c, 0xbc, 0xec, 0xa4, 0x34, 0x3d, 0xff, 0x9a, 0x39, 0xbd,
  0x5a, 0x05, 0xb6, 0x3c, 0xac, 0x96, 0x6b, 0xbd, 0x76, 0x52, 0x9c, 0x3b,
  0xbb, 0x23, 0x22, 0xbe, 0x7b, 0xac, 0xcd, 0xbd, 0x32, 0x08, 0xf4, 0xbd,
  0xdf, 0xae, 0xc0, 0xbd, 0x21, 0x13, 0x5d, 0x3d, 0x1f, 0xb1, 0x71, 0xbd,
  0xbe, 0x79, 0xbd, 0xbd, 0xa1, 0xf2, 0xed, 0x3d, 0xeb, 0xe6, 0x28, 0xbe,
  0x4e, 0xdd, 0x51, 0x3d, 0xa4, 0xc7, 0xd1, 0x3c, 0xc7, 0xd0, 0x0a, 0xbe,
  0xf4, 0xea, 0x9a, 0xbc, 0x6f, 0xa5, 0x02, 0x3c, 0xbc, 0xfa, 0xcb, 0xbd,
  0xc3, 0xb4, 0x02, 0x3d, 0x45, 0x65, 0x12, 0x3e, 0x75, 0x41, 0x3b, 0xbb,
  0xf5, 0xe2, 0x95, 0xbd, 0xd5, 0x7c, 0xaf, 0x3c, 0xf3, 0x7e, 0x0d, 0xbe,
  0x0d, 0x66, 0x0f, 0x3d, 0xe2, 0x3c, 0x7d, 0x3c, 0x2e, 0x34, 0x5a, 0x3d,
  0xdb, 0x34, 0x92, 0xbd, 0x56, 0xab, 0xb6, 0x3d, 0x52, 0x28, 0xd6, 0xbc,
  0x1b, 0x4a, 0xae, 0xbd, 0x5d, 0x9a, 0x82, 0xbd, 0x38, 0x94, 0x1e, 0x3d,
  0x08, 0xa0, 0xcf, 0x3c, 0xa6, 0xfc, 0xb7, 0x3d, 0xbc, 0x05, 0xa8, 0x3d,
  0xa6, 0xde, 0x4e, 0x3c, 0xeb, 0x45, 0x88, 0xbd, 0x33, 0x73, 0x0c, 0xbe,
  0x80, 0x99, 0xcf, 0x3d, 0x2b, 0xae, 0x00, 0xbe, 0x5f, 0x89, 0x7e, 0x3d,
  0xa4, 0x67, 0xd8, 0x3b, 0x86, 0x16, 0xcb, 0xbd, 0x81, 0x4f, 0xdf, 0xbd,
  0xcf, 0x67, 0xd8, 0x3c, 0xd3, 0x3d, 0x08, 0xbd, 0x1c, 0xa4, 0xaf, 0x3d,
  0x2d, 0x11, 0x01, 0xbd, 0x01, 0xec, 0x06, 0xbe, 0xa4, 0xbb, 0x1e, 0xbe,
  0xe1, 0xf2, 0x29, 0x3d, 0x2e, 0x54, 0xae, 0x3c, 0x4d, 0xfe, 0xf5, 0xbd,
  0x9a, 0x4d, 0xac, 0x3a, 0x08, 0x54, 0x1e, 0xbe, 0x5f, 0xf9, 0x84, 0x3d,
  0x0b, 0x8f, 0x16, 0xbe, 0xcb, 0xa4, 0x1a, 0xbe, 0x0e, 0x58, 0xaf, 0x3c,
  0x0c, 0xab, 0x3b, 0x3e, 0x3c, 0x5f, 0xe7, 0x3d, 0xc5, 0xdf, 0x4a, 0xbb,
  0xf8, 0x79, 0xe7, 0xbd, 0x16, 0xe1, 0x88, 0xbc, 0x6c, 0x14, 0xe0, 0x3c,
  0x7d, 0x0c, 0xe2, 0x3d, 0x4b, 0xe0, 0x10, 0x3c, 0x91, 0xce, 0xfe, 0x3d,
  0xfd, 0x37, 0xea, 0xbd, 0xd8, 0xe6, 0xed, 0xbd, 0xbd, 0xe2, 0x0a, 0x3e,
  0x4a, 0x42, 0x47, 0x3d, 0xa0, 0x83, 0x13, 0x3e, 0xd9, 0xd0, 0x38, 0x3d,
  0xbf, 0x93, 0x5b, 0xbe, 0xef, 0x23, 0x40, 0x3e, 0xcb, 0x00, 0x15, 0x3e,
  0xe7, 0xaa, 0x15, 0x3e, 0x72, 0xd9, 0xbd, 0x3d, 0x20, 0x8f, 0x55, 0x3d,
  0x5d, 0xcb, 0x3c, 0xbe, 0xdd, 0xf0, 0xbc, 0xbd, 0x17, 0x37, 0x93, 0x3d,
  0xf2, 0x02, 0x01, 0x3d, 0xd5, 0x35, 0x2a, 0x3d, 0x2c, 0x8c, 0x8b, 0x3d,
  0x5d, 0xe3, 0x44, 0x3d, 0x8e, 0xfc, 0x10, 0xbe, 0x01, 0x5c, 0xc8, 0x3d,
  0x9d, 0x92, 0xc7, 0xbd, 0x02, 0x80, 0x4c, 0x3d, 0x7a, 0xf6, 0x2e, 0x3e,
  0xd1, 0xb9, 0x39, 0x3d, 0xb3, 0x22, 0x25, 0xbd, 0xce, 0xc2, 0x22, 0xbe,
  0x5c, 0xed, 0xc7, 0x3d, 0x7c, 0x3d, 0x13, 0x3e, 0x8b, 0x5c, 0xa5, 0x3d,
  0x63, 0x70, 0x3d, 0x3e, 0x7a, 0xd5, 0x23, 0x3e, 0xa1, 0x0c, 0x8f, 0x3a,
  0xed, 0x93, 0x28, 0xbe, 0xa6, 0x28, 0x47, 0x3e, 0x13, 0x92, 0x2e, 0xbd,
  0xd9, 0xc5, 0xae, 0xbd, 0xcb, 0x82, 0xb1, 0xbd, 0xe7, 0xa4, 0x20, 0xbb,
  0xb6, 0xd9, 0x6b, 0x3e, 0x7d, 0x71, 0x3f, 0x3e, 0x90, 0x47, 0x4a, 0x3e,
  0x5b, 0x1c, 0xf4, 0xbd, 0x97, 0xb6, 0xf0, 0x3d, 0xd3, 0xea, 0x50, 0x3d,
  0xcb, 0x65, 0x7c, 0xbd, 0xb7, 0xaf, 0xba, 0x3d, 0x13, 0x52, 0xb0, 0x3d,
  0xa6, 0xb8, 0x43, 0x3d, 0xe9, 0xb9, 0xa2, 0x3c, 0x81, 0xd8, 0x67, 0x3e,
  0xf0, 0x19, 0x18, 0xbe, 0x21, 0x96, 0xff, 0xbd, 0x84, 0x29, 0x7c, 0xbd,
  0x27, 0xd2, 0x6f, 0xbe, 0xb6, 0xe6, 0x3c, 0x3e, 0x7e, 0x93, 0x09, 0x3e,
  0xc8, 0xf3, 0x6d, 0x3d, 0x5e, 0x3b, 0x3d, 0x3e, 0x4e, 0x18, 0x76, 0x3d,
  0xd2, 0xff, 0x05, 0xbe, 0xb5, 0x22, 0x4d, 0xbd, 0x34, 0x31, 0x66, 0xbb,
  0x10, 0x59, 0x70, 0xbd, 0xab, 0x80, 0xbc, 0xbd, 0xd5, 0x54, 0x39, 0x3e,
  0x10, 0x17, 0xd8, 0x3d, 0xad, 0xb2, 0x6a, 0xbb, 0x3e, 0xdb, 0x92, 0x3d,
  0x03, 0x90, 0x28, 0xbe, 0xa7, 0xbb, 0x0d, 0xbe, 0x2c, 0xa1, 0x26, 0x3d,
  0x63, 0x01, 0x3f, 0xbd, 0x5f, 0x90, 0x62, 0xbc, 0x22, 0xfe, 0x45, 0x3c,
  0x03, 0x0a, 0x68, 0x3e, 0xed, 0xf1, 0x36, 0x3e, 0x5c, 0x62, 0x1d, 0x3e,
  0x93, 0x61, 0x0f, 0x3e, 0x9c, 0x96, 0xb6, 0xbc, 0x9c, 0x6b, 0x9c, 0xbd,
  0x74, 0x23, 0x82, 0x3d, 0x34, 0x6c, 0x98, 0x3c, 0x42, 0x06, 0x0d, 0xbd,
  0xc9, 0xcd, 0x4e, 0x3e, 0xb7, 0x80, 0xbf, 0x3c, 0x9c, 0x0d, 0x27, 0x3e,
  0xe1, 0xc8, 0x88, 0x3d, 0xe0, 0x41, 0x0b, 0x3e, 0xc2, 0x96, 0xd5, 0x3b,
  0x56, 0x4a, 0x03, 0xbe, 0x6b, 0x3e, 0x51, 0x3e, 0x56, 0x59, 0xa1, 0x3d,
  0x5f, 0x9f, 0xde, 0xbd, 0xf9, 0x09, 0x90, 0xbd, 0x30, 0x11, 0x0c, 0x3e,
  0x44, 0x24, 0x76, 0xbd, 0x00, 0xe3, 0x24, 0xbe, 0xe7, 0xc3, 0x30, 0x3e,
  0xad, 0xe1, 0x55, 0x3c, 0x59, 0x07, 0x3b, 0x3d, 0xd1, 0x77, 0x93, 0xbc,
  0x78, 0xe6, 0x6a, 0x3d, 0x4b, 0x6f, 0xe3, 0xbd, 0x9c, 0xb6, 0x3c, 0x3d,
  0x81, 0x35, 0x99, 0x3d, 0x95, 0x3f, 0xe8, 0x3d, 0x9b, 0xe8, 0x83, 0xbd,
  0x14, 0x3e, 0x95, 0xbd, 0xa7, 0x5e, 0x87, 0x3c, 0xe8, 0x40, 0x1d, 0xbd,
  0x03, 0x9a, 0x27, 0x3d, 0x4d, 0x47, 0x8d, 0xbb, 0xb0, 0x1f, 0x4a, 0x3e,
  0xfb, 0x22, 0x63, 0x3d, 0x7a, 0x31, 0x05, 0x3e, 0x6d, 0x7c, 0x7d, 0x3d,
  0xd7, 0x3e, 0xa3, 0xbd, 0x21, 0xd2, 0x98, 0x3d, 0x97, 0x69, 0xe6, 0x3c,
  0x14, 0x9c, 0xaa, 0x3d, 0x51, 0x08, 0x2e, 0x3d, 0xda, 0xf5, 0xba, 0x3d,
  0x2f, 0x33, 0xc4, 0x3d, 0xd0, 0x65, 0xdb, 0xbd, 0x98, 0x9c, 0xab, 0xba,
  0xb5, 0x8f, 0x58, 0xbe, 0xb7, 0xef, 0x80, 0xbd, 0xa4, 0x44, 0xb0, 0xbd,
  0x88, 0x9f, 0xbc, 0xbd, 0x4c, 0x6b, 0x25, 0xbc, 0x19, 0x72, 0xd4, 0xbd,
  0x34, 0x6e, 0xcf, 0x3d, 0x04, 0x13, 0x09, 0xbd, 0x4d, 0xfb, 0x9f, 0xbd,
  0xba, 0xfa, 0xe7, 0xbb, 0x09, 0xe7, 0x5c, 0x3e, 0x6e, 0x4e, 0x60, 0xbd,
  0x38, 0xf7, 0x65, 0x38, 0xd9, 0xd7, 0x91, 0x3d, 0xbb, 0x57, 0x96, 0x3d,
  0x4c, 0x19, 0x32, 0x3e, 0x5b, 0xcf, 0xc9, 0xbd, 0xb2, 0x4c, 0x14, 0xbe,
  0xae, 0x12, 0x6b, 0xbe, 0xe5, 0x31, 0xe3, 0xbd, 0x67, 0x7d, 0x27, 0x3e,
  0xfa, 0xdd, 0x4b, 0xbd, 0x21, 0x13, 0x11, 0x3e, 0x0c, 0x44, 0x91, 0x3b,
  0xb6, 0xe6, 0x93, 0x3d, 0xcf, 0xff, 0x84, 0x3d, 0x3b, 0x64, 0x2e, 0x3e,
  0xd7, 0xf0, 0x18, 0xbe, 0xe1, 0xf9, 0x2b, 0xbd, 0xab, 0xc0, 0x90, 0x3d,
  0x62, 0xef, 0x8b, 0x3d, 0x6d, 0x73, 0x5e, 0x3d, 0x3f, 0xf0, 0x8b, 0xbd,
  0x0d, 0x9e, 0xb5, 0xbd, 0xe4, 0x3d, 0x01, 0xbe, 0x0d, 0x46, 0xea, 0x3d,
  0xd2, 0xfc, 0xad, 0x3d, 0x65, 0x1d, 0x98, 0x3d, 0xff, 0x11, 0x8c, 0x3d,
  0xde, 0x61, 0x1f, 0xbc, 0xed, 0xe0, 0x1e, 0xbe, 0xd9, 0x59, 0xad, 0xbd,
  0xbc, 0x41, 0xeb, 0xbd, 0xc0, 0x46, 0x0e, 0x3e, 0x8c, 0x47, 0x0d, 0xbe,
  0x40, 0xb6, 0x15, 0xbe, 0x4b, 0xc5, 0xf9, 0x3b, 0xde, 0xc8, 0xd3, 0x3d,
  0xdd, 0x60, 0x2a, 0x3e, 0xd5, 0x01, 0xf6, 0x3d, 0xbf, 0x16, 0x66, 0x3e,
  0x86, 0x1e, 0x3b, 0x3e, 0x82, 0x0f, 0x91, 0xbd, 0xca, 0x9a, 0x28, 0xbd,
  0xe1, 0x8f, 0xae, 0x3d, 0xb1, 0x6a, 0xd7, 0x3b, 0xfc, 0xf8, 0xce, 0x3d,
  0x05, 0x64, 0xab, 0xbd, 0x93, 0x74, 0x52, 0x3d, 0x1e, 0xd7, 0xc3, 0xbc,
  0x8f, 0xaa, 0x1c, 0x3e, 0xaf, 0x41, 0x81, 0xbc, 0x62, 0x19, 0x18, 0xbe,
  0xa5, 0x21, 0x67, 0xbe, 0x8c, 0xd9, 0x05, 0xbc, 0x15, 0x6d, 0x01, 0xbe,
  0xed, 0x8e, 0x3f, 0xbd, 0xe0, 0xa8, 0x06, 0xbe, 0x31, 0x70, 0x76, 0x3d,
  0x0c, 0xe3, 0x45, 0x3d, 0xd8, 0x77, 0x0d, 0xbd, 0x9d, 0xf4, 0xb3, 0x3b,
  0xd6, 0xd9, 0xb0, 0x3b, 0xc4, 0x8c, 0x5c, 0x3e, 0xba, 0x85, 0xa9, 0x3d,
  0x24, 0x66, 0x3f, 0xbd, 0x0f, 0xe9, 0xf8, 0xbd, 0xd7, 0xa7, 0xfa, 0x3d,
  0xee, 0xaa, 0x39, 0xbe, 0x13, 0xe1, 0x26, 0x3d, 0xaa, 0x25, 0xb5, 0x3d,
  0xaa, 0xd2, 0x23, 0xbe, 0x90, 0x9f, 0xf9, 0x3c, 0x94, 0xfb, 0x59, 0xbb,
  0x63, 0xd0, 0x81, 0x3d, 0x0f, 0x43, 0xc7, 0x3c, 0xe9, 0x87, 0xfd, 0x3d,
  0xa6, 0x66, 0x72, 0x3d, 0x49, 0x7a, 0x83, 0xbd, 0xc1, 0xf8, 0x3b, 0x3e,
  0xe0, 0x5e, 0x9a, 0x3d, 0x6e, 0x84, 0x26, 0xbc, 0x0d, 0x7e, 0xa2, 0xbd,
  0x8e, 0x6e, 0x3f, 0x3d, 0x10, 0x31, 0x86, 0xbc, 0xfd, 0x67, 0x55, 0x3d,
  0x96, 0x64, 0x4b, 0xbb, 0x3d, 0x15, 0x96, 0xbd, 0xf1, 0x95, 0x14, 0xba,
  0x1d, 0xe8, 0x91, 0x3b, 0xd1, 0x71, 0x0f, 0xbe, 0x0c, 0x6e, 0xff, 0x3d,
  0x05, 0x00, 0x32, 0xbe, 0xe0, 0x5b, 0x0b, 0x3e, 0x5c, 0xe3, 0xd5, 0x3d,
  0x48, 0xbc, 0xa2, 0x3c, 0xbe, 0x16, 0x2e, 0x3e, 0x26, 0xee, 0xb8, 0xbd,
  0x98, 0xd1, 0xf3, 0x3d, 0x77, 0x9a, 0xb0, 0xbd, 0x4e, 0x1a, 0x0a, 0xbe,
  0x07, 0x9d, 0xd8, 0xbc, 0x3c, 0xe6, 0xff, 0xbd, 0x85, 0xf1, 0x24, 0xbd,
  0x9d, 0xc1, 0x23, 0x3e, 0x94, 0x6f, 0x9c, 0x3c, 0x9e, 0xfe, 0x06, 0xbe,
  0x79, 0xd7, 0xc5, 0xbd, 0xb0, 0x20, 0x1b, 0xbd, 0x4a, 0x58, 0x00, 0x3d,
  0x20, 0x1e, 0xe0, 0x3d, 0x88, 0x01, 0x2b, 0xbd, 0x27, 0xc8, 0x25, 0xbd,
  0x3e, 0x48, 0x07, 0x3c, 0x1b, 0xdc, 0xe4, 0x3d, 0x41, 0x24, 0x88, 0xbd,
  0x95, 0x4d, 0x18, 0x3e, 0x5b, 0xc6, 0xe0, 0x3c, 0x4e, 0xe5, 0x1e, 0xbe,
  0x65, 0x36, 0x09, 0x3e, 0x27, 0x5a, 0xdc, 0x3d, 0x51, 0x72, 0x80, 0x3d,
  0x9e, 0x5c, 0x7c, 0x3d, 0x56, 0xdd, 0x7d, 0x3c, 0x41, 0x90, 0xb9, 0x3c,
  0x84, 0x49, 0xb8, 0xbd, 0xa2, 0xe4, 0xb5, 0x3d, 0xb3, 0xc8, 0x46, 0x3d,
  0xf3, 0xc2, 0x9e, 0x3d, 0xf0, 0xe8, 0x88, 0x3d, 0xf2, 0xfd, 0x3d, 0xbd,
  0x62, 0x7b, 0x3f, 0xbe, 0xa1, 0x32, 0x9f, 0xbd, 0x90, 0x4f, 0x62, 0xbd,
  0x18, 0x9d, 0x17, 0xbe, 0xc5, 0xc2, 0xbe, 0xbd, 0x19, 0xd9, 0x88, 0x3d,
  0x82, 0x4e, 0x39, 0xbe, 0x17, 0x6f, 0x92, 0x3c, 0x2f, 0x48, 0x78, 0xbd,
  0x1f, 0xd9, 0x32, 0xbd, 0x22, 0x34, 0x23, 0xbe, 0x7a, 0xb9, 0x9f, 0x3c,
  0x78, 0xff, 0x80, 0xbd, 0x81, 0x5e, 0x97, 0x3d, 0x99, 0x9e, 0x91, 0x3c,
  0x67, 0xdb, 0x03, 0x3e, 0x63, 0x01, 0xf5, 0x3d, 0x98, 0xc8, 0x09, 0x3e,
  0x87, 0x36, 0x8d, 0xbd, 0x1b, 0xb5, 0xff, 0x3d, 0x7e, 0xe3, 0xa8, 0x3d,
  0xa0, 0x7e, 0x41, 0x3e, 0xf2, 0xfa, 0x0e, 0x3e, 0xea, 0x16, 0xde, 0x3c,
  0xb7, 0x20, 0x92, 0x3d, 0xcf, 0xae, 0x49, 0xbe, 0xf2, 0x84, 0x83, 0xbc,
  0x8b, 0x4e, 0x17, 0xbe, 0xef, 0xa1, 0x00, 0xbe, 0x84, 0xa4, 0x68, 0x3d,
  0x28, 0xe5, 0x89, 0x3d, 0xf4, 0x87, 0x23, 0x3d, 0xdd, 0xa8, 0x26, 0x3e,
  0x20, 0x2a, 0xb2, 0x3d, 0xfe, 0xe2, 0xad, 0xbd, 0x14, 0x12, 0xbb, 0x3d,
  0xd7, 0x54, 0xe8, 0x3d, 0x3a, 0xf1, 0x1d, 0xbe, 0x1f, 0x9c, 0x19, 0x3d,
  0xf8, 0x9d, 0xa6, 0x3d, 0x7c, 0xc8, 0x28, 0x3e, 0xf6, 0xd3, 0x44, 0xbd,
  0x08, 0x50, 0xdf, 0xbb, 0x6f, 0xd2, 0x02, 0xbd, 0xe9, 0x01, 0x9b, 0xbd,
  0xed, 0xa6, 0x11, 0x3e, 0xf5, 0xd0, 0xb4, 0x3d, 0x04, 0x06, 0xad, 0xbd,
  0x7c, 0x5b, 0xe6, 0xbd, 0x0d, 0xfd, 0x90, 0xbb, 0xf0, 0x0f, 0xc5, 0xbd,
  0x5b, 0xfe, 0xec, 0x3d, 0x26, 0x21, 0xea, 0xbc, 0x64, 0x2b, 0xe1, 0x3d,
  0xf6, 0x44, 0x1c, 0x3e, 0x40, 0x69, 0xdc, 0xbd, 0x8d, 0xeb, 0xf9, 0x3d,
  0x2d, 0xb8, 0x01, 0x3e, 0x58, 0x65, 0xae, 0xbd, 0x1f, 0xbd, 0x13, 0x3e,
  0xae, 0x0f, 0x92, 0xbc, 0x26, 0x3f, 0xa3, 0x3a, 0xed, 0x96, 0x48, 0xbd,
  0x15, 0x5b, 0x87, 0xbd, 0xf5, 0x77, 0xe4, 0x3d, 0xaf, 0xc8, 0x07, 0xbe,
  0x3d, 0xbb, 0x2d, 0x3c, 0x9d, 0x32, 0x09, 0xbe, 0xa6, 0xca, 0x3c, 0x3e,
  0xc9, 0x70, 0x31, 0xbd, 0x9e, 0x82, 0x09, 0xbe, 0x2f, 0x7f, 0x2b, 0xbd,
  0x72, 0x72, 0x23, 0xbe, 0x85, 0x55, 0x1f, 0xbe, 0xf4, 0x50, 0xb9, 0xbd,
  0xb7, 0x3e, 0xf6, 0x3d, 0x33, 0xea, 0x1f, 0x3e, 0x4b, 0xf3, 0x0f, 0xbe,
  0xb7, 0x08, 0x1d, 0xbd, 0xbc, 0x77, 0x26, 0xbd, 0xca, 0x62, 0xbf, 0xbc,
  0x3c, 0x1e, 0xbf, 0x3c, 0x92, 0xda, 0x73, 0x3c, 0x09, 0xb2, 0x04, 0xbe,
  0x7b, 0xde, 0xcd, 0xbd, 0x3d, 0x92, 0x1f, 0xbd, 0x3b, 0x66, 0x0e, 0xbe,
  0x9b, 0x96, 0x1c, 0x3e, 0xdb, 0xcc, 0x35, 0xbe, 0xb0, 0x0a, 0x90, 0xbd,
  0xd4, 0xec, 0x89, 0xbc, 0x60, 0x14, 0xe2, 0xbd, 0x8e, 0xc5, 0x92, 0xbc,
  0xf4, 0x44, 0x80, 0xbd, 0xdf, 0x05, 0x02, 0xbe, 0x65, 0x60, 0x76, 0xbd,
  0xca, 0xa8, 0x6e, 0xbd, 0x22, 0xa6, 0xcb, 0x3d, 0xc3, 0xf1, 0x36, 0x3d,
  0x94, 0x73, 0x7e, 0x3c, 0x51, 0xea, 0x5d, 0xbb, 0x8c, 0x88, 0x27, 0xbe,
  0x5a, 0xdf, 0xca, 0x3d, 0x2b, 0x3b, 0x14, 0xbe, 0x2f, 0x20, 0xe7, 0x3d,
  0xc1, 0x7a, 0x1a, 0x3e, 0x8d, 0x87, 0xe3, 0x3d, 0xe6, 0x50, 0xc4, 0xbc,
  0x20, 0x09, 0xfe, 0x3d, 0x7f, 0x65, 0x18, 0x3d, 0x4a, 0x22, 0xf3, 0x3d,
  0x81, 0x8e, 0x4b, 0x3d, 0x1a, 0xd2, 0xe0, 0xbc, 0xdd, 0xc0, 0x9b, 0xbd,
  0x86, 0x5d, 0xc3, 0x3b, 0x34, 0x89, 0xe9, 0xbd, 0xe9, 0xba, 0x6a, 0xbc,
  0xa7, 0xf3, 0xab, 0xbd, 0xbb, 0x37, 0x8e, 0xbd, 0x39, 0x03, 0xaf, 0xbd,
  0x90, 0x30, 0x36, 0x3c, 0xbe, 0x4d, 0x82, 0x3c, 0x2a, 0x21, 0xf7, 0x3d,
  0xe8, 0xad, 0xfb, 0xbc, 0x29, 0xf2, 0x09, 0x3e, 0x47, 0xd8, 0x95, 0x3d,
  0x49, 0xca, 0x62, 0x3d, 0x2c, 0xe1, 0x2b, 0xbc, 0x20, 0x6b, 0xcd, 0x3d,
  0x11, 0xea, 0x62, 0xbb, 0xf6, 0xb0, 0x48, 0xbd, 0x75, 0xe9, 0xa5, 0x3d,
  0x52, 0x4c, 0x1d, 0xbe, 0x83, 0x85, 0x8e, 0x3d, 0x73, 0xd8, 0x22, 0xbe,
  0x82, 0x95, 0x12, 0xbe, 0xd3, 0x28, 0x8d, 0x3d, 0x6b, 0xac, 0x91, 0x3d,
  0xec, 0x4f, 0x8f, 0xbd, 0x44, 0xd8, 0xfa, 0x3d, 0x6b, 0x66, 0xf9, 0xbc,
  0xcd, 0xf2, 0x02, 0xbd, 0x3a, 0x74, 0xfb, 0xbd, 0x9b, 0xa8, 0x20, 0x3b,
  0x93, 0xd4, 0x14, 0x3d, 0x99, 0x45, 0xcd, 0xbb, 0xd8, 0xfb, 0xc3, 0xbd,
  0x62, 0xe2, 0x83, 0x3d, 0x86, 0xe3, 0xf2, 0xbc, 0x73, 0x55, 0x24, 0x3e,
  0x1c, 0xba, 0x23, 0xbe, 0x3a, 0x90, 0x63, 0x3d, 0x1b, 0x3d, 0xef, 0x3d,
  0xe7, 0x13, 0xe8, 0xbd, 0x69, 0xcf, 0x7c, 0xbd, 0x41, 0x6a, 0x7c, 0xbc,
  0xdd, 0xec, 0x30, 0xbe, 0x1a, 0x0f, 0x98, 0x3d, 0xdb, 0xc1, 0x20, 0x3e,
  0x48, 0x22, 0x1c, 0xbe, 0xbb, 0xc1, 0x01, 0x3e, 0xb2, 0xff, 0x65, 0x3c,
  0xb8, 0x3c, 0x98, 0x3d, 0x4b, 0x5a, 0x37, 0xbd, 0xa7, 0xf0, 0xc1, 0xbd,
  0xf3, 0x12, 0xf2, 0xbd, 0xdc, 0x6b, 0x5b, 0xbd, 0xd7, 0x63, 0x15, 0xbd,
  0x4d, 0x78, 0x18, 0xbe, 0xc5, 0xc9, 0x0a, 0xbe, 0x14, 0x50, 0x9d, 0xbd,
  0x5a, 0xcc, 0x81, 0xbc, 0xd7, 0x50, 0x64, 0xbc, 0x65, 0xcb, 0x98, 0xbd,
  0xfa, 0xe9, 0x9b, 0xbd, 0x3c, 0x2b, 0x4e, 0x3d, 0x7d, 0x87, 0xf4, 0x3b,
  0x14, 0xb6, 0x03, 0xbe, 0x86, 0x22, 0x86, 0x3d, 0xb8, 0x79, 0xa3, 0xbd,
  0x24, 0x5f, 0x33, 0xbe, 0x5d, 0x1c, 0xd9, 0x3d, 0x08, 0x4e, 0x83, 0x3d,
  0x5f, 0xc1, 0x35, 0xbd, 0x49, 0x95, 0x3c, 0xbd, 0xe9, 0xd4, 0xd1, 0x3d,
  0x09, 0x00, 0x5a, 0x3c, 0x6e, 0xc3, 0x19, 0xbc, 0x46, 0xa3, 0x1b, 0x3e,
  0x42, 0x70, 0x45, 0x3d, 0x9e, 0x57, 0x05, 0x3e, 0x61, 0xd3, 0xbd, 0x3d,
  0xa2, 0x55, 0xeb, 0x3d, 0xa1, 0xa3, 0x6f, 0xbd, 0xcc, 0x17, 0x02, 0xbe,
  0x29, 0x72, 0xed, 0xbd, 0x40, 0xcf, 0x83, 0x3c, 0xff, 0x93, 0x4f, 0x3d,
  0x2d, 0xee, 0xb2, 0xbd, 0xbe, 0x3f, 0x0b, 0xbd, 0x4d, 0x81, 0x10, 0xbe,
  0x62, 0x77, 0xc4, 0x3d, 0x42, 0xcb, 0x0c, 0x3e, 0x5a, 0x1f, 0x99, 0x3d,
  0xb5, 0x27, 0x06, 0x3d, 0xd9, 0xec, 0xa6, 0x3d, 0x75, 0xfd, 0xfc, 0xbd,
  0x21, 0xb3, 0x3a, 0xbd, 0xad, 0x26, 0x49, 0x3d, 0x36, 0x07, 0x0f, 0x3e,
  0xfe, 0xc3, 0x5f, 0x3a, 0x31, 0x3a, 0x1c, 0xbe, 0xd0, 0xbb, 0x16, 0x3c,
  0xe4, 0x25, 0x18, 0x3e, 0x21, 0xa0, 0x56, 0xbd, 0xa3, 0x58, 0x19, 0xbe,
  0x55, 0x33, 0x4a, 0xbd, 0x90, 0x58, 0xa9, 0xbd, 0x5e, 0x9d, 0x12, 0x3e,
  0xbb, 0xb2, 0xbe, 0x3c, 0xc0, 0x6a, 0xc8, 0x3d, 0xfc, 0x81, 0x96, 0xbd,
  0x1e, 0x07, 0x20, 0xbd, 0x69, 0xe2, 0xc2, 0xbd, 0x6e, 0x74, 0x86, 0x3c,
  0xca, 0xfb, 0xdb, 0xbd, 0x10, 0x2f, 0x31, 0x3d, 0xff, 0x94, 0xb4, 0x3d,
  0xa7, 0x6e, 0x05, 0x3e, 0x87, 0xb7, 0x8b, 0x3d, 0xed, 0x94, 0x04, 0xbe,
  0x58, 0x9d, 0xf5, 0x3d, 0x61, 0x58, 0x44, 0xbd, 0xbb, 0x16, 0x1a, 0x3e,
  0xb5, 0x26, 0x0c, 0xbe, 0xed, 0x64, 0xf0, 0x3d, 0x98, 0xfb, 0x67, 0xbd,
  0xdd, 0x11, 0x30, 0x3d, 0xda, 0x1d, 0x1c, 0x3e, 0xd4, 0x62, 0xc6, 0x3d,
  0x39, 0x4d, 0xac, 0xbd, 0xea, 0xca, 0x05, 0x3d, 0xaa, 0x2d, 0x95, 0x3c,
  0x16, 0x71, 0x19, 0xbe, 0x1c, 0x40, 0xdc, 0xbd, 0x44, 0x12, 0x15, 0x3d,
  0x3a, 0x01, 0x84, 0x3d, 0x92, 0x74, 0xea, 0x3d, 0x4a, 0xfe, 0xce, 0x3d,
  0x1a, 0x7d, 0xa2, 0xbd, 0x4f, 0xc8, 0xd1, 0x3d, 0x61, 0x26, 0x07, 0x3e,
  0x2d, 0x03, 0x45, 0x3d, 0x95, 0xb8, 0x00, 0xbe, 0xfd, 0x5a, 0xe4, 0xbd,
  0x72, 0x85, 0xe6, 0x3d, 0x5e, 0xc0, 0xe3, 0xbd, 0x64, 0xd9, 0xa2, 0x3a,
  0x7b, 0x89, 0x9d, 0x3d, 0x62, 0x38, 0x08, 0xbe, 0x9e, 0x13, 0x2d, 0x3e,
  0xdc, 0x8b, 0x04, 0xbe, 0x1c, 0xcd, 0x16, 0xbe, 0x8b, 0xb5, 0x1a, 0xbe,
  0xab, 0xf1, 0x1b, 0x3e, 0x1d, 0x47, 0xc1, 0xbc, 0x65, 0x37, 0x1e, 0xbd,
  0x03, 0x35, 0xb0, 0xbc, 0x8b, 0x2f, 0x5e, 0x3d, 0xe3, 0xf5, 0xd4, 0xbd,
  0x55, 0x9c, 0x14, 0x3e, 0x06, 0xf4, 0xd8, 0x3c, 0x66, 0xa9, 0x2b, 0x3d,
  0x69, 0x8f, 0x02, 0xbd, 0xa7, 0xc4, 0xb6, 0xbd, 0xd6, 0x8c, 0x40, 0x3e,
  0xdc, 0xba, 0x0b, 0xbe, 0x9a, 0x09, 0xbc, 0x3c, 0x19, 0x49, 0xbf, 0xbd,
  0xbf, 0xf2, 0x0e, 0xbe, 0xe5, 0x84, 0xa1, 0x3d, 0xe5, 0x8b, 0xad, 0xbd,
  0xdf, 0x6d, 0x2b, 0x3d, 0xa3, 0x4d, 0xe9, 0xbd, 0x95, 0x6d, 0xa3, 0xbd,
  0x65, 0x40, 0x43, 0x3e, 0x7c, 0x13, 0x0d, 0xbe, 0x39, 0xa4, 0x99, 0x3d,
  0x3c, 0xc6, 0xdf, 0xbd, 0xce, 0x43, 0xbc, 0xbd, 0xbd, 0xde, 0x42, 0xbd,
  0xc7, 0x1a, 0x06, 0x3e, 0xea, 0xdf, 0x3a, 0xbb, 0x32, 0x01, 0x08, 0x3e,
  0xbf, 0x2a, 0x01, 0x3d, 0x36, 0xe9, 0xe7, 0x3d, 0xf3, 0xf1, 0xfe, 0x3d,
  0xfe, 0xb9, 0x9b, 0xbd, 0x9a, 0x81, 0x40, 0xbe, 0xdc, 0xca, 0xeb, 0x3c,
  0x23, 0x0e, 0x55, 0x3d, 0x86, 0xa1, 0xfd, 0xbc, 0x95, 0xe3, 0xd9, 0x3d,
  0x41, 0xd0, 0xe3, 0x3c, 0xc1, 0x04, 0xf2, 0x3c, 0xfe, 0xbc, 0x14, 0xbd,
  0xf5, 0x45, 0x8c, 0x3d, 0x29, 0x68, 0x32, 0xbe, 0x61, 0x82, 0x1f, 0x3d,
  0xea, 0xa2, 0xe1, 0xbd, 0xb4, 0xee, 0xc0, 0xbd, 0x54, 0xaa, 0x1c, 0xbe,
  0xc4, 0xb2, 0x58, 0xbd, 0x57, 0x56, 0xae, 0xbd, 0x90, 0xc5, 0x0f, 0xbe,
  0xe0, 0x6f, 0x0b, 0x3e, 0x05, 0xac, 0xbe, 0x3d, 0x2e, 0xb6, 0x16, 0xbe,
  0xc3, 0xab, 0x39, 0xbd, 0x01, 0x49, 0x29, 0x3e, 0x5b, 0xfc, 0x04, 0x3b,
  0x12, 0xe2, 0x81, 0xbd, 0xb0, 0xe7, 0xb4, 0x3d, 0x38, 0x4d, 0x7c, 0x3c,
  0x61, 0xde, 0xf9, 0x3d, 0x91, 0x36, 0x18, 0xbe, 0xe1, 0xa9, 0xdb, 0x3d,
  0x3b, 0x37, 0xed, 0x3d, 0x28, 0x05, 0x20, 0xbb, 0x3f, 0xf0, 0x36, 0x3d,
  0x3b, 0xde, 0x94, 0x3d, 0x59, 0x34, 0x0d, 0x3d, 0xc0, 0x0c, 0xef, 0x3d,
  0x22, 0xa5, 0xb4, 0x3c, 0x33, 0x36, 0x88, 0xbd, 0xfc, 0x16, 0x42, 0x3d,
  0x55, 0xff, 0x37, 0xbd, 0xf2, 0xb2, 0x84, 0x3d, 0xbd, 0xa7, 0x9a, 0xbd,
  0x6f, 0xe5, 0x25, 0x3c, 0x60, 0x19, 0x35, 0x3d, 0xd7, 0x9d, 0x01, 0xbe,
  0x9c, 0xa0, 0xd3, 0x3c, 0x9f, 0xe5, 0x9c, 0xbd, 0xfe, 0x26, 0x27, 0xbe,
  0x40, 0x4d, 0xb0, 0x3d, 0x5d, 0xaa, 0x9d, 0x3d, 0x52, 0xf4, 0x04, 0xbd,
  0x53, 0x9d, 0xf5, 0xbd, 0xf9, 0xe9, 0x9c, 0x3b, 0x40, 0x99, 0x3c, 0x3d,
  0x61, 0x46, 0x68, 0x3d, 0x32, 0x91, 0xee, 0xbd, 0x0b, 0xe6, 0x17, 0xbd,
  0xef, 0x03, 0x03, 0x3e, 0xd1, 0xab, 0x32, 0x3c, 0xf2, 0xd4, 0x08, 0xbe,
  0x9e, 0xae, 0xbf, 0x3c, 0xa2, 0x1b, 0x89, 0xbc, 0x66, 0xc2, 0x20, 0xbd,
  0x29, 0xc0, 0xb1, 0xbd, 0x1c, 0x45, 0xc7, 0xbd, 0x31, 0xb6, 0xff, 0x3c,
  0x91, 0x72, 0x0f, 0xbe, 0x59, 0x52, 0xd9, 0x3d, 0x27, 0xdb, 0xc4, 0x3c,
  0x16, 0x86, 0x90, 0x3d, 0xf1, 0xa8, 0xcd, 0xbd, 0x75, 0x16, 0x16, 0x3e,
  0xee, 0xa8, 0x84, 0x3d, 0xd6, 0xf4, 0x06, 0x3e, 0xa2, 0x32, 0x93, 0xbd,
  0xeb, 0xb6, 0x0d, 0xbe, 0x40, 0x83, 0x5b, 0x3e, 0x4d, 0xaf, 0xc6, 0x3c,
  0x20, 0x7e, 0x90, 0x3d, 0x48, 0x5d, 0x5d, 0x3d, 0x25, 0xb1, 0x12, 0x3e,
  0xb8, 0x59, 0xdd, 0x3d, 0x6d, 0x88, 0x05, 0xbe, 0xb7, 0x2b, 0x2b, 0x3d,
  0x6d, 0x68, 0x2d, 0xbd, 0x3a, 0xbc, 0xbc, 0xbd, 0xee, 0x94, 0x2f, 0xbe,
  0x10, 0x9a, 0x30, 0x3e, 0xd0, 0xcc, 0x85, 0xbd, 0x45, 0xbe, 0xea, 0xbd,
  0x80, 0x5e, 0xee, 0xbc, 0x65, 0x47, 0x64, 0x3c, 0x9d, 0xd8, 0xcc, 0xbd,
  0xad, 0x2b, 0xbe, 0xbd, 0xc5, 0x45, 0x9a, 0xbc, 0xea, 0x12, 0xcc, 0xbb,
  0xa4, 0x41, 0x09, 0x3d, 0x20, 0x22, 0x11, 0xbd, 0x8b, 0x4d, 0xb4, 0xbc,
  0x9c, 0x43, 0xca, 0xbd, 0x81, 0x5b, 0x15, 0x3e, 0x46, 0xd0, 0xa3, 0x3d,
  0x2a, 0x4d, 0xc9, 0x3d, 0xac, 0xbd, 0x25, 0x3e, 0x1f, 0x92, 0x74, 0x3d,
  0x0c, 0xe0, 0x87, 0xbd, 0xe2, 0x99, 0x56, 0xbe, 0x54, 0x8a, 0x33, 0x3e,
  0xa0, 0xda, 0x25, 0x3e, 0xb0, 0xdd, 0x37, 0x3c, 0x67, 0x3a, 0x07, 0x3e,
  0xb7, 0x9b, 0x2a, 0x3e, 0x0c, 0xbf, 0xe1, 0x3d, 0x83, 0xa4, 0xc5, 0xbd,
  0x85, 0x1e, 0x07, 0xbe, 0xcc, 0xe4, 0x7b, 0xbb, 0xb0, 0x64, 0x43, 0xbd,
  0xf2, 0x12, 0xc9, 0xbd, 0x2d, 0x5c, 0xef, 0xbd, 0xf0, 0xb1, 0xd3, 0x3d,
  0x97, 0x0e, 0xe5, 0xbd, 0xc6, 0xce, 0x1d, 0x3e, 0xa4, 0xa1, 0x51, 0xbe,
  0x8a, 0xfb, 0x29, 0xbd, 0x95, 0xeb, 0x4c, 0xbe, 0x03, 0xfa, 0x96, 0x3d,
  0xf8, 0xd4, 0x77, 0x3d, 0xa6, 0xc2, 0xf5, 0x3d, 0x6a, 0xa0, 0x79, 0x3d,
  0xe6, 0xa2, 0x09, 0xbe, 0x11, 0x32, 0x02, 0x3e, 0x7c, 0x68, 0x03, 0xbe,
  0x71, 0x11, 0xb2, 0xbb, 0x12, 0x6d, 0xb7, 0xbd, 0x0b, 0x71, 0x05, 0xbe,
  0xb3, 0xfe, 0x23, 0x3d, 0x64, 0x4c, 0x61, 0x3c, 0x62, 0x58, 0xfd, 0x3d,
  0x75, 0x33, 0xc7, 0xbd, 0xf5, 0xd9, 0x48, 0x3e, 0xf0, 0x40, 0xcb, 0xbd,
  0xb8, 0xcd, 0xc4, 0xbc, 0x31, 0x2d, 0x28, 0xbe, 0x0b, 0xa8, 0x6c, 0x3d,
  0xc4, 0xd7, 0x09, 0x3e, 0x23, 0xcc, 0x0c, 0x3d, 0x14, 0xd1, 0x3b, 0x3d,
  0xe7, 0x75, 0x83, 0xbd, 0xd9, 0x24, 0x07, 0x3e, 0x0e, 0xf0, 0xb2, 0x3c,
  0x33, 0x3e, 0xcb, 0xbd, 0x34, 0x22, 0x9a, 0xbd, 0x09, 0xa6, 0xf0, 0xbd,
  0xa5, 0x8a, 0x25, 0x3e, 0x1a, 0x31, 0x90, 0x3c, 0x41, 0xaa, 0xb2, 0xbd,
  0x61, 0xf6, 0x67, 0xbc, 0xa8, 0x86, 0x38, 0x3d, 0x6c, 0xeb, 0x01, 0xbd,
  0x3e, 0xad, 0xeb, 0x3d, 0x01, 0x18, 0xad, 0x3d, 0xd0, 0xd7, 0xd5, 0x3d,
  0x59, 0x2a, 0x3f, 0x3b, 0x12, 0xd2, 0x42, 0xbd, 0x0f, 0x1f, 0x08, 0x3e,
  0x3f, 0x05, 0x0c, 0xbe, 0xde, 0xd5, 0xa9, 0xbd, 0x6d, 0x60, 0x12, 0xbe,
  0x6a, 0xff, 0x11, 0xbe, 0x28, 0xab, 0xb1, 0x3a, 0x80, 0x09, 0x1f, 0xbc,
  0x6b, 0x8e, 0x24, 0x3e, 0x3d, 0x4e, 0x9f, 0x3d, 0x7a, 0x05, 0xa0, 0x3d,
  0x91, 0xa3, 0x1e, 0x3e, 0x69, 0xa6, 0x34, 0xbd, 0x4a, 0x34, 0x11, 0xbe,
  0xcf, 0xe6, 0x07, 0x3d, 0x30, 0xd8, 0xf5, 0x3d, 0x9a, 0x33, 0x06, 0x3d,
  0x60, 0x37, 0xa6, 0xbd, 0x0d, 0x15, 0x71, 0xbc, 0xa6, 0xef, 0x87, 0xbd,
  0xf9, 0xc4, 0x53, 0x3d, 0x1a, 0x9e, 0xd4, 0x3d, 0xb0, 0xbc, 0x40, 0x3e,
  0xe6, 0xa1, 0x09, 0x3e, 0x82, 0x8d, 0xf6, 0x3d, 0x6d, 0xf4, 0x0d, 0x3e,
  0xf3, 0x85, 0x8c, 0xbc, 0xe2, 0xb5, 0xef, 0x3d, 0x36, 0x05, 0x91, 0xbd,
  0x8e, 0x8c, 0xc2, 0xbc, 0x03, 0xbe, 0x0c, 0xbe, 0x28, 0x8a, 0x0e, 0xbd,
  0x10, 0x91, 0xc9, 0xbc, 0x5c, 0x66, 0x9c, 0x3d, 0x45, 0xc7, 0x15, 0x3e,
  0x9c, 0xa1, 0xea, 0xbd, 0x60, 0x3a, 0x18, 0xbe, 0xc6, 0x68, 0x1e, 0x3e,
  0x94, 0x9c, 0x90, 0xbd, 0x14, 0x6e, 0xb8, 0xbd, 0x3b, 0x69, 0xb4, 0x3d,
  0xad, 0xe6, 0x17, 0x3d, 0x01, 0x5c, 0xf5, 0x3d, 0x0a, 0x2e, 0x6f, 0x3d,
  0x0a, 0x56, 0x34, 0x3c, 0x37, 0xdb, 0x18, 0x3e, 0xbb, 0xaf, 0xf0, 0xbd,
  0x54, 0x05, 0xec, 0x3d, 0x26, 0x67, 0x17, 0xbd, 0xe5, 0x42, 0x1c, 0x3d,
  0xc8, 0x88, 0x00, 0xbd, 0x98, 0x70, 0x1c, 0xbe, 0xfb, 0x15, 0x33, 0xbd,
  0xeb, 0xb9, 0x08, 0xbe, 0x14, 0xbc, 0xb3, 0x3d, 0x76, 0xfe, 0x51, 0xbe,
  0xd2, 0xc8, 0x35, 0x3c, 0xe4, 0xf3, 0xd0, 0xbd, 0xeb, 0x2c, 0x2a, 0xbd,
  0x1b, 0xaf, 0x0d, 0x3e, 0xc4, 0x00, 0xa6, 0xbd, 0xd1, 0xc9, 0xa2, 0x3c,
  0x89, 0x64, 0x08, 0x3e, 0x47, 0x95, 0xc4, 0xbd, 0xfb, 0x67, 0xf5, 0xbb,
  0x07, 0xc4, 0xa0, 0xbd, 0x9c, 0xde, 0x26, 0x3d, 0x86, 0x61, 0x19, 0xbd,
  0xdc, 0xac, 0x8b, 0xbd, 0xcc, 0x97, 0x11, 0xbe, 0x3f, 0x87, 0xee, 0xbd,
  0x1d, 0x69, 0x95, 0x3d, 0x4d, 0x7c, 0x62, 0xbd, 0x6d, 0xf8, 0xff, 0x3c,
  0xec, 0x4c, 0x43, 0x3d, 0x06, 0x6a, 0x96, 0x3c, 0x1e, 0x2b, 0xcc, 0x3d,
  0x78, 0x89, 0x01, 0xbe, 0xac, 0x39, 0xdc, 0xbc, 0xca, 0xc5, 0xb8, 0x3d,
  0x60, 0xf0, 0x9d, 0x3d, 0xa1, 0x8f, 0xab, 0x3c, 0x81, 0x58, 0x3b, 0xbc,
  0xbc, 0xeb, 0x15, 0x3e, 0x0b, 0xd9, 0x82, 0xbc, 0x54, 0xbf, 0x28, 0xbd,
  0x50, 0xf0, 0xd5, 0xbd, 0xd1, 0xb0, 0x0f, 0x3d, 0x60, 0xa5, 0x40, 0x3e,
  0x62, 0x32, 0xd2, 0xbb, 0x55, 0x2f, 0xbc, 0xbc, 0x30, 0xb1, 0x9b, 0xbd,
  0xeb, 0x14, 0x0e, 0xbe, 0xfe, 0x78, 0xa7, 0x3d, 0xfc, 0x8b, 0xf9, 0xbd,
  0x1f, 0xc8, 0xa5, 0x3d, 0x77, 0xad, 0x34, 0x3e, 0x5d, 0xbf, 0x4f, 0x3e,
  0x75, 0xe0, 0x4e, 0xbd, 0x2c, 0xb4, 0x07, 0x3e, 0x83, 0x15, 0xe4, 0xbd,
  0x72, 0x69, 0x45, 0xbe, 0x0a, 0xa3, 0xb5, 0x3d, 0x71, 0x82, 0xa8, 0x3d,
  0x1e, 0x01, 0x68, 0xbd, 0x0b, 0x83, 0xe0, 0x3d, 0x57, 0x4f, 0x41, 0xbb,
  0xa3, 0xe6, 0xdd, 0xbc, 0x55, 0xf8, 0xb0, 0x3d, 0x9e, 0x15, 0x9b, 0x3d,
  0x93, 0xb2, 0xd9, 0x3d, 0x94, 0x12, 0x00, 0x3d, 0xf8, 0x7e, 0x69, 0x3c,
  0x40, 0x24, 0x2c, 0x3d, 0x66, 0x88, 0x3f, 0x3e, 0xeb, 0xae, 0x40, 0x3d,
  0xbc, 0x4a, 0x71, 0xba, 0x76, 0xea, 0xf4, 0x3d, 0x48, 0x62, 0xaa, 0xbd,
  0xb8, 0x0c, 0x13, 0x3c, 0xa6, 0x8e, 0xda, 0x3c, 0x3a, 0xcf, 0x96, 0xbc,
  0x81, 0xdf, 0x16, 0x3e, 0x73, 0x91, 0x03, 0x3e, 0x0b, 0xdd, 0x9f, 0x3d,
  0xf4, 0x08, 0x25, 0xbe, 0x84, 0x01, 0xa9, 0xbd, 0x79, 0x1d, 0xd6, 0x3d,
  0x9d, 0xf5, 0xbd, 0x3d, 0xfb, 0x51, 0x0a, 0x3e, 0x60, 0xb4, 0x3e, 0x3e,
  0x5f, 0x58, 0x0c, 0x3e, 0x7a, 0x65, 0x67, 0x3e, 0x2a, 0x6a, 0xa9, 0xbd,
  0x53, 0xa6, 0x8f, 0x3d, 0x91, 0xd5, 0xad, 0x3b, 0x7e, 0xb4, 0x1d, 0xbe,
  0x9d, 0xb6, 0x4a, 0x3b, 0x67, 0x46, 0x89, 0xbd, 0x73, 0x31, 0x1c, 0x3e,
  0x9c, 0x1a, 0x0c, 0xbe, 0x94, 0x6b, 0x39, 0x3e, 0xd9, 0x52, 0x13, 0x3e,
  0x7c, 0x7f, 0x90, 0xbd, 0x3d, 0x2b, 0xbd, 0x3d, 0x35, 0xb4, 0x6b, 0xbd,
  0x02, 0x3c, 0xb7, 0xbd, 0x88, 0x8d, 0x6d, 0xbd, 0x0b, 0x4c, 0xdd, 0x3d,
  0xff, 0xfc, 0xd8, 0xbc, 0xbc, 0x87, 0x7a, 0x3d, 0xa5, 0xf7, 0x75, 0xbd,
  0xe5, 0x7b, 0xa2, 0x3d, 0x13, 0x3c, 0x0b, 0xbd, 0x69, 0xa5, 0xb7, 0x3d,
  0x57, 0xd7, 0x94, 0xbd, 0x4d, 0x6a, 0xe6, 0x3d, 0x75, 0x13, 0x93, 0xbd,
  0xcd, 0xa1, 0x2a, 0x3e, 0x39, 0x7e, 0xbe, 0xbd, 0x1d, 0x17, 0xf7, 0xbd,
  0x60, 0xd6, 0x50, 0xbd, 0x64, 0x56, 0x4f, 0x3c, 0x52, 0xd5, 0x40, 0x3e,
  0x3f, 0xbf, 0x74, 0xbd, 0xbd, 0x66, 0x1a, 0x3e, 0xfc, 0x4e, 0x3b, 0x3e,
  0xdd, 0xf2, 0x19, 0xbe, 0x2c, 0xec, 0x65, 0x3e, 0xd4, 0xc9, 0x7a, 0xbd,
  0xfc, 0xbc, 0x95, 0x3c, 0x6f, 0x89, 0x53, 0x3e, 0xd3, 0x3f, 0xf6, 0x3d,
  0x2e, 0x98, 0xd2, 0x3d, 0x86, 0xf1, 0xf4, 0x3d, 0x12, 0x53, 0xed, 0xbd,
  0xa3, 0x58, 0x4f, 0xbd, 0xa5, 0xde, 0x1d, 0x3e, 0x4f, 0x5a, 0x92, 0x3d,
  0x17, 0xcf, 0x28, 0x3d, 0xc6, 0x1f, 0xf7, 0xbd, 0xbb, 0xd9, 0xb0, 0xbd,
  0xe9, 0xd5, 0x30, 0x3c, 0x89, 0xa2, 0x0e, 0xbe, 0x64, 0x2c, 0x49, 0x3e,
  0xaa, 0x29, 0xad, 0x3d, 0x62, 0xf9, 0xcb, 0xbd, 0x3a, 0xc1, 0xf7, 0x3d,
  0xc8, 0xb5, 0x79, 0xbe, 0x3d, 0x8a, 0x80, 0x3d, 0xae, 0xb3, 0x89, 0xbd,
  0xa9, 0xf4, 0xa2, 0xbc, 0xeb, 0x73, 0x28, 0x3e, 0x9d, 0xe5, 0x36, 0x3e,
  0x52, 0xff, 0xff, 0xff, 0x04, 0x00, 0x00, 0x00, 0x08, 0x00, 0x00, 0x00,
  0xff, 0xff, 0xff, 0xff, 0xb4, 0x00, 0x00, 0x00, 0x66, 0xff, 0xff, 0xff,
  0x04, 0x00, 0x00, 0x00, 0x40, 0x00, 0x00, 0x00, 0x20, 0x49, 0xc0, 0xbc,
  0xaf, 0xa7, 0x9d, 0x3d, 0xc8, 0xfd, 0xa4, 0x3b, 0xb9, 0x96, 0xab, 0x3c,
  0x75, 0xf1, 0x1d, 0x3d, 0x41, 0x52, 0xf7, 0xbb, 0x98, 0x04, 0xdd, 0xb9,
  0x8d, 0xdb, 0x94, 0xbc, 0x8d, 0x12, 0x06, 0x3c, 0x42, 0x68, 0x20, 0xbb,
  0xe5, 0x7b, 0xa3, 0xbc, 0x95, 0xf4, 0x6d, 0x3d, 0x02, 0xe0, 0x50, 0xbc,
  0xaf, 0xe1, 0x7c, 0x3c, 0xf8, 0x7a, 0xd0, 0x3c, 0x1d, 0x4e, 0xc5, 0x3c,
  0xb2, 0xff, 0xff, 0xff, 0x04, 0x00, 0x00, 0x00, 0x40, 0x00, 0x00, 0x00,
  0xad, 0xca, 0xe9, 0xbc, 0x09, 0xeb, 0xb4, 0x3d, 0xc0, 0x37, 0x8a, 0xbc,
  0xe3, 0x38, 0x45, 0x3d, 0x37, 0xa3, 0xd0, 0xbc, 0x35, 0x50, 0xb8, 0xbc,
  0x0d, 0x46, 0x41, 0x3c, 0x1f, 0x86, 0x84, 0x3d, 0xb5, 0x15, 0x48, 0xbd,
  0xeb, 0x2e, 0x03, 0xbd, 0x8e, 0x35, 0x88, 0x3d, 0x08, 0xa6, 0x62, 0xbd,
  0xc3, 0xef, 0x24, 0x3d, 0x55, 0x40, 0x45, 0x3d, 0x7b, 0x21, 0x28, 0xbd,
  0xfc, 0x5d, 0xc8, 0x3d, 0x00, 0x00, 0x06, 0x00, 0x08, 0x00, 0x04, 0x00,
  0x06, 0x00, 0x00, 0x00, 0x04, 0x00, 0x00, 0x00, 0x24, 0x00, 0x00, 0x00,
  0x25, 0xaf, 0x0d, 0x3c, 0x76, 0x4a, 0xc4, 0xbd, 0x35, 0x93, 0x21, 0x3d,
  0x26, 0x22, 0xaf, 0xbd, 0x1c, 0x0c, 0x00, 0xbe, 0xbb, 0x82, 0xdd, 0x3c,
  0x0f, 0x2a, 0xb8, 0xbd, 0xc6, 0x1c, 0x1a, 0x3d, 0xa7, 0x0b, 0x34, 0xbd,
  0xd4, 0xf9, 0xff, 0xff, 0xd8, 0xf9, 0xff, 0xff, 0x0f, 0x00, 0x00, 0x00,
  0x4d, 0x4c, 0x49, 0x52, 0x20, 0x43, 0x6f, 0x6e, 0x76, 0x65, 0x72, 0x74,
  0x65, 0x64, 0x2e, 0x00, 0x01, 0x00, 0x00, 0x00, 0x14, 0x00, 0x00, 0x00,
  0x00, 0x00, 0x0e, 0x00, 0x18, 0x00, 0x14, 0x00, 0x10, 0x00, 0x0c, 0x00,
  0x08, 0x00, 0x04, 0x00, 0x0e, 0x00, 0x00, 0x00, 0x14, 0x00, 0x00, 0x00,
  0x1c, 0x00, 0x00, 0x00, 0x14, 0x01, 0x00, 0x00, 0x18, 0x01, 0x00, 0x00,
  0x1c, 0x01, 0x00, 0x00, 0x04, 0x00, 0x00, 0x00, 0x6d, 0x61, 0x69, 0x6e,
  0x00, 0x00, 0x00, 0x00, 0x04, 0x00, 0x00, 0x00, 0xd8, 0x00, 0x00, 0x00,
  0x88, 0x00, 0x00, 0x00, 0x3c, 0x00, 0x00, 0x00, 0x04, 0x00, 0x00, 0x00,
  0x92, 0xff, 0xff, 0xff, 0x14, 0x00, 0x00, 0x00, 0x00, 0x00, 0x00, 0x08,
  0x10, 0x00, 0x00, 0x00, 0x14, 0x00, 0x00, 0x00, 0x01, 0x00, 0x00, 0x00,
  0x58, 0xfa, 0xff, 0xff, 0x01, 0x00, 0x00, 0x00, 0x0b, 0x00, 0x00, 0x00,
  0x03, 0x00, 0x00, 0x00, 0x0a, 0x00, 0x00, 0x00, 0x07, 0x00, 0x00, 0x00,
  0x01, 0x00, 0x00, 0x00, 0xc6, 0xff, 0xff, 0xff, 0x14, 0x00, 0x00, 0x00,
  0x00, 0x00, 0x00, 0x08, 0x14, 0x00, 0x00, 0x00, 0x18, 0x00, 0x00, 0x00,
  0x01, 0x00, 0x00, 0x00, 0xb6, 0xff, 0xff, 0xff, 0x00, 0x00, 0x00, 0x01,
  0x01, 0x00, 0x00, 0x00, 0x0a, 0x00, 0x00, 0x00, 0x03, 0x00, 0x00, 0x00,
  0x09, 0x00, 0x00, 0x00, 0x06, 0x00, 0x00, 0x00, 0x02, 0x00, 0x00, 0x00,
  0x00, 0x00, 0x0e, 0x00, 0x1a, 0x00, 0x14, 0x00, 0x10, 0x00, 0x0c, 0x00,
  0x0b, 0x00, 0x04, 0x00, 0x0e, 0x00, 0x00, 0x00, 0x1c, 0x00, 0x00, 0x00,
  0x00, 0x00, 0x00, 0x08, 0x1c, 0x00, 0x00, 0x00, 0x20, 0x00, 0x00, 0x00,
  0x01, 0x00, 0x00, 0x00, 0x00, 0x00, 0x06, 0x00, 0x08, 0x00, 0x07, 0x00,
  0x06, 0x00, 0x00, 0x00, 0x00, 0x00, 0x00, 0x01, 0x01, 0x00, 0x00, 0x00,
  0x09, 0x00, 0x00, 0x00, 0x03, 0x00, 0x00, 0x00, 0x08, 0x00, 0x00, 0x00,
  0x05, 0x00, 0x00, 0x00, 0x03, 0x00, 0x00, 0x00, 0x00, 0x00, 0x0a, 0x00,
  0x0c, 0x00, 0x00, 0x00, 0x08, 0x00, 0x04, 0x00, 0x0a, 0x00, 0x00, 0x00,
  0x08, 0x00, 0x00, 0x00, 0x0c, 0x00, 0x00, 0x00, 0x01, 0x00, 0x00, 0x00,
  0x08, 0x00, 0x00, 0x00, 0x02, 0x00, 0x00, 0x00, 0x00, 0x00, 0x00, 0x00,
  0x04, 0x00, 0x00, 0x00, 0x01, 0x00, 0x00, 0x00, 0x0b, 0x00, 0x00, 0x00,
  0x01, 0x00, 0x00, 0x00, 0x00, 0x00, 0x00, 0x00, 0x0c, 0x00, 0x00, 0x00,
  0x98, 0x04, 0x00, 0x00, 0x24, 0x04, 0x00, 0x00, 0xb0, 0x03, 0x00, 0x00,
  0x54, 0x03, 0x00, 0x00, 0x04, 0x03, 0x00, 0x00, 0x9c, 0x02, 0x00, 0x00,
  0x4c, 0x02, 0x00, 0x00, 0xfc, 0x01, 0x00, 0x00, 0x98, 0x01, 0x00, 0x00,
  0xfc, 0x00, 0x00, 0x00, 0x60, 0x00, 0x00, 0x00, 0x04, 0x00, 0x00, 0x00,
  0xae, 0xfb, 0xff, 0xff, 0x00, 0x00, 0x00, 0x01, 0x14, 0x00, 0x00, 0x00,
  0x1c, 0x00, 0x00, 0x00, 0x1c, 0x00, 0x00, 0x00, 0x0c, 0x00, 0x00, 0x00,
  0x34, 0x00, 0x00, 0x00, 0x02, 0x00, 0x00, 0x00, 0xff, 0xff, 0xff, 0xff,
  0x09, 0x00, 0x00, 0x00, 0x94, 0xfb, 0xff, 0xff, 0x19, 0x00, 0x00, 0x00,
  0x53, 0x74, 0x61, 0x74, 0x65, 0x66, 0x75, 0x6c, 0x50, 0x61, 0x72, 0x74,
  0x69, 0x74, 0x69, 0x6f, 0x6e, 0x65, 0x64, 0x43, 0x61, 0x6c, 0x6c, 0x3a,
  0x30, 0x00, 0x00, 0x00, 0x02, 0x00, 0x00, 0x00, 0x01, 0x00, 0x00, 0x00,
  0x09, 0x00, 0x00, 0x00, 0x06, 0xfc, 0xff, 0xff, 0x00, 0x00, 0x00, 0x01,
  0x14, 0x00, 0x00, 0x00, 0x1c, 0x00, 0x00, 0x00, 0x1c, 0x00, 0x00, 0x00,
  0x0b, 0x00, 0x00, 0x00, 0x74, 0x00, 0x00, 0x00, 0x02, 0x00, 0x00, 0x00,
  0xff, 0xff, 0xff, 0xff, 0x10, 0x00, 0x00, 0x00, 0xec, 0xfb, 0xff, 0xff,
  0x5b, 0x00, 0x00, 0x00, 0x73, 0x65, 0x71, 0x75, 0x65, 0x6e, 0x74, 0x69,
  0x61, 0x6c, 0x5f, 0x37, 0x33, 0x2f, 0x64, 0x65, 0x6e, 0x73, 0x65, 0x5f,
  0x31, 0x38, 0x31, 0x2f, 0x4d, 0x61, 0x74, 0x4d, 0x75, 0x6c, 0x3b, 0x73,
  0x65, 0x71, 0x75, 0x65, 0x6e, 0x74, 0x69, 0x61, 0x6c, 0x5f, 0x37, 0x33,
  0x2f, 0x64, 0x65, 0x6e, 0x73, 0x65, 0x5f, 0x31, 0x38, 0x31, 0x2f, 0x52,
  0x65, 0x6c, 0x75, 0x3b, 0x73, 0x65, 0x71, 0x75, 0x65, 0x6e, 0x74, 0x69,
  0x61, 0x6c, 0x5f, 0x37, 0x33, 0x2f, 0x64, 0x65, 0x6e, 0x73, 0x65, 0x5f,
  0x31, 0x38, 0x31, 0x2f, 0x42, 0x69, 0x61, 0x73, 0x41, 0x64, 0x64, 0x00,
  0x02, 0x00, 0x00, 0x00, 0x01, 0x00, 0x00, 0x00, 0x10, 0x00, 0x00, 0x00,
  0x9e, 0xfc, 0xff, 0xff, 0x00, 0x00, 0x00, 0x01, 0x14, 0x00, 0x00, 0x00,
  0x1c, 0x00, 0x00, 0x00, 0x1c, 0x00, 0x00, 0x00, 0x0a, 0x00, 0x00, 0x00,
  0x74, 0x00, 0x00, 0x00, 0x02, 0x00, 0x00, 0x00, 0xff, 0xff, 0xff, 0xff,
  0x10, 0x00, 0x00, 0x00, 0x84, 0xfc, 0xff, 0xff, 0x5b, 0x00, 0x00, 0x00,
  0x73, 0x65, 0x71, 0x75, 0x65, 0x6e, 0x74, 0x69, 0x61, 0x6c, 0x5f, 0x37,
  0x33, 0x2f, 0x64, 0x65, 0x6e, 0x73, 0x65, 0x5f, 0x31, 0x38, 0x30, 0x2f,
  0x4d, 0x61, 0x74, 0x4d, 0x75, 0x6c, 0x3b, 0x73, 0x65, 0x71, 0x75, 0x65,
  0x6e, 0x74, 0x69, 0x61, 0x6c, 0x5f, 0x37, 0x33, 0x2f, 0x64, 0x65, 0x6e,
  0x73, 0x65, 0x5f, 0x31, 0x38, 0x30, 0x2f, 0x52, 0x65, 0x6c, 0x75, 0x3b,
  0x73, 0x65, 0x71, 0x75, 0x65, 0x6e, 0x74, 0x69, 0x61, 0x6c, 0x5f, 0x37,
  0x33, 0x2f, 0x64, 0x65, 0x6e, 0x73, 0x65, 0x5f, 0x31, 0x38, 0x30, 0x2f,
  0x42, 0x69, 0x61, 0x73, 0x41, 0x64, 0x64, 0x00, 0x02, 0x00, 0x00, 0x00,
  0x01, 0x00, 0x00, 0x00, 0x10, 0x00, 0x00, 0x00, 0x36, 0xfd, 0xff, 0xff,
  0x00, 0x00, 0x00, 0x01, 0x14, 0x00, 0x00, 0x00, 0x1c, 0x00, 0x00, 0x00,
  0x1c, 0x00, 0x00, 0x00, 0x09, 0x00, 0x00, 0x00, 0x3c, 0x00, 0x00, 0x00,
  0x02, 0x00, 0x00, 0x00, 0xff, 0xff, 0xff, 0xff, 0xb4, 0x00, 0x00, 0x00,
  0x1c, 0xfd, 0xff, 0xff, 0x20, 0x00, 0x00, 0x00, 0x73, 0x65, 0x71, 0x75,
  0x65, 0x6e, 0x74, 0x69, 0x61, 0x6c, 0x5f, 0x37, 0x33, 0x2f, 0x66, 0x6c,
  0x61, 0x74, 0x74, 0x65, 0x6e, 0x5f, 0x33, 0x30, 0x2f, 0x52, 0x65, 0x73,
  0x68, 0x61, 0x70, 0x65, 0x00, 0x00, 0x00, 0x00, 0x02, 0x00, 0x00, 0x00,
  0x01, 0x00, 0x00, 0x00, 0xb4, 0x00, 0x00, 0x00, 0x06, 0xfe, 0xff, 0xff,
  0x00, 0x00, 0x00, 0x01, 0x10, 0x00, 0x00, 0x00, 0x10, 0x00, 0x00, 0x00,
  0x08, 0x00, 0x00, 0x00, 0x2c, 0x00, 0x00, 0x00, 0x6c, 0xfd, 0xff, 0xff,
  0x1e, 0x00, 0x00, 0x00, 0x73, 0x65, 0x71, 0x75, 0x65, 0x6e, 0x74, 0x69,
  0x61, 0x6c, 0x5f, 0x37, 0x33, 0x2f, 0x64, 0x65, 0x6e, 0x73, 0x65, 0x5f,
  0x31, 0x38, 0x32, 0x2f, 0x4d, 0x61, 0x74, 0x4d, 0x75, 0x6c, 0x00, 0x00,
  0x02, 0x00, 0x00, 0x00, 0x09, 0x00, 0x00, 0x00, 0x10, 0x00, 0x00, 0x00,
  0x52, 0xfe, 0xff, 0xff, 0x00, 0x00, 0x00, 0x01, 0x10, 0x00, 0x00, 0x00,
  0x10, 0x00, 0x00, 0x00, 0x07, 0x00, 0x00, 0x00, 0x2c, 0x00, 0x00, 0x00,
  0xb8, 0xfd, 0xff, 0xff, 0x1e, 0x00, 0x00, 0x00, 0x73, 0x65, 0x71, 0x75,
  0x65, 0x6e, 0x74, 0x69, 0x61, 0x6c, 0x5f, 0x37, 0x33, 0x2f, 0x64, 0x65,
  0x6e, 0x73, 0x65, 0x5f, 0x31, 0x38, 0x31, 0x2f, 0x4d, 0x61, 0x74, 0x4d,
  0x75, 0x6c, 0x00, 0x00, 0x02, 0x00, 0x00, 0x00, 0x10, 0x00, 0x00, 0x00,
  0x10, 0x00, 0x00, 0x00, 0x9e, 0xfe, 0xff, 0xff, 0x00, 0x00, 0x00, 0x01,
  0x10, 0x00, 0x00, 0x00, 0x10, 0x00, 0x00, 0x00, 0x06, 0x00, 0x00, 0x00,
  0x2c, 0x00, 0x00, 0x00, 0x04, 0xfe, 0xff, 0xff, 0x1e, 0x00, 0x00, 0x00,
  0x73, 0x65, 0x71, 0x75, 0x65, 0x6e, 0x74, 0x69, 0x61, 0x6c, 0x5f, 0x37,
  0x33, 0x2f, 0x64, 0x65, 0x6e, 0x73, 0x65, 0x5f, 0x31, 0x38, 0x30, 0x2f,
  0x4d, 0x61, 0x74, 0x4d, 0x75, 0x6c, 0x00, 0x00, 0x02, 0x00, 0x00, 0x00,
  0x10, 0x00, 0x00, 0x00, 0xb4, 0x00, 0x00, 0x00, 0x00, 0x00, 0x16, 0x00,
  0x1c, 0x00, 0x18, 0x00, 0x17, 0x00, 0x10, 0x00, 0x0c, 0x00, 0x08, 0x00,
  0x00, 0x00, 0x00, 0x00, 0x00, 0x00, 0x07, 0x00, 0x16, 0x00, 0x00, 0x00,
  0x00, 0x00, 0x00, 0x01, 0x14, 0x00, 0x00, 0x00, 0x14, 0x00, 0x00, 0x00,
  0x05, 0x00, 0x00, 0x00, 0x00, 0x00, 0x00, 0x02, 0x2c, 0x00, 0x00, 0x00,
  0x6c, 0xfe, 0xff, 0xff, 0x1e, 0x00, 0x00, 0x00, 0x73, 0x65, 0x71, 0x75,
  0x65, 0x6e, 0x74, 0x69, 0x61, 0x6c, 0x5f, 0x37, 0x33, 0x2f, 0x66, 0x6c,
  0x61, 0x74, 0x74, 0x65, 0x6e, 0x5f, 0x33, 0x30, 0x2f, 0x43, 0x6f, 0x6e,
  0x73, 0x74, 0x00, 0x00, 0x01, 0x00, 0x00, 0x00, 0x02, 0x00, 0x00, 0x00,
  0x4e, 0xff, 0xff, 0xff, 0x00, 0x00, 0x00, 0x01, 0x10, 0x00, 0x00, 0x00,
  0x10, 0x00, 0x00, 0x00, 0x04, 0x00, 0x00, 0x00, 0x3c, 0x00, 0x00, 0x00,
  0xb4, 0xfe, 0xff, 0xff, 0x2e, 0x00, 0x00, 0x00, 0x73, 0x65, 0x71, 0x75,
  0x65, 0x6e, 0x74, 0x69, 0x61, 0x6c, 0x5f, 0x37, 0x33, 0x2f, 0x64, 0x65,
  0x6e, 0x73, 0x65, 0x5f, 0x31, 0x38, 0x30, 0x2f, 0x42, 0x69, 0x61, 0x73,
  0x41, 0x64, 0x64, 0x2f, 0x52, 0x65, 0x61, 0x64, 0x56, 0x61, 0x72, 0x69,
  0x61, 0x62, 0x6c, 0x65, 0x4f, 0x70, 0x00, 0x00, 0x01, 0x00, 0x00, 0x00,
  0x10, 0x00, 0x00, 0x00, 0xa6, 0xff, 0xff, 0xff, 0x00, 0x00, 0x00, 0x01,
  0x10, 0x00, 0x00, 0x00, 0x10, 0x00, 0x00, 0x00, 0x03, 0x00, 0x00, 0x00,
  0x3c, 0x00, 0x00, 0x00, 0x0c, 0xff, 0xff, 0xff, 0x2e, 0x00, 0x00, 0x00,
  0x73, 0x65, 0x71, 0x75, 0x65, 0x6e, 0x74, 0x69, 0x61, 0x6c, 0x5f, 0x37,
  0x33, 0x2f, 0x64, 0x65, 0x6e, 0x73, 0x65, 0x5f, 0x31, 0x38, 0x31, 0x2f,
  0x42, 0x69, 0x61, 0x73, 0x41, 0x64, 0x64, 0x2f, 0x52, 0x65, 0x61, 0x64,
  0x56, 0x61, 0x72, 0x69, 0x61, 0x62, 0x6c, 0x65, 0x4f, 0x70, 0x00, 0x00,
  0x01, 0x00, 0x00, 0x00, 0x10, 0x00, 0x00, 0x00, 0x00, 0x00, 0x16, 0x00,
  0x18, 0x00, 0x14, 0x00, 0x00, 0x00, 0x10, 0x00, 0x0c, 0x00, 0x08, 0x00,
  0x00, 0x00, 0x00, 0x00, 0x00, 0x00, 0x07, 0x00, 0x16, 0x00, 0x00, 0x00,
  0x00, 0x00, 0x00, 0x01, 0x10, 0x00, 0x00, 0x00, 0x10, 0x00, 0x00, 0x00,
  0x02, 0x00, 0x00, 0x00, 0x3c, 0x00, 0x00, 0x00, 0x7c, 0xff, 0xff, 0xff,
  0x2e, 0x00, 0x00, 0x00, 0x73, 0x65, 0x71, 0x75, 0x65, 0x6e, 0x74, 0x69,
  0x61, 0x6c, 0x5f, 0x37, 0x33, 0x2f, 0x64, 0x65, 0x6e, 0x73, 0x65, 0x5f,
  0x31, 0x38, 0x32, 0x2f, 0x42, 0x69, 0x61, 0x73, 0x41, 0x64, 0x64, 0x2f,
  0x52, 0x65, 0x61, 0x64, 0x56, 0x61, 0x72, 0x69, 0x61, 0x62, 0x6c, 0x65,
  0x4f, 0x70, 0x00, 0x00, 0x01, 0x00, 0x00, 0x00, 0x09, 0x00, 0x00, 0x00,
  0x00, 0x00, 0x16, 0x00, 0x1c, 0x00, 0x18, 0x00, 0x00, 0x00, 0x14, 0x00,
  0x10, 0x00, 0x0c, 0x00, 0x00, 0x00, 0x00, 0x00, 0x08, 0x00, 0x07, 0x00,
  0x16, 0x00, 0x00, 0x00, 0x00, 0x00, 0x00, 0x01, 0x14, 0x00, 0x00, 0x00,
  0x24, 0x00, 0x00, 0x00, 0x24, 0x00, 0x00, 0x00, 0x01, 0x00, 0x00, 0x00,
  0x44, 0x00, 0x00, 0x00, 0x03, 0x00, 0x00, 0x00, 0xff, 0xff, 0xff, 0xff,
  0x14, 0x00, 0x00, 0x00, 0x09, 0x00, 0x00, 0x00, 0x04, 0x00, 0x04, 0x00,
  0x04, 0x00, 0x00, 0x00, 0x22, 0x00, 0x00, 0x00, 0x73, 0x65, 0x72, 0x76,
  0x69, 0x6e, 0x67, 0x5f, 0x64, 0x65, 0x66, 0x61, 0x75, 0x6c, 0x74, 0x5f,
  0x66, 0x6c, 0x61, 0x74, 0x74, 0x65, 0x6e, 0x5f, 0x33, 0x30, 0x5f, 0x69,
  0x6e, 0x70, 0x75, 0x74, 0x3a, 0x30, 0x00, 0x00, 0x03, 0x00, 0x00, 0x00,
  0x01, 0x00, 0x00, 0x00, 0x14, 0x00, 0x00, 0x00, 0x09, 0x00, 0x00, 0x00,
  0x02, 0x00, 0x00, 0x00, 0x20, 0x00, 0x00, 0x00, 0x04, 0x00, 0x00, 0x00,
  0xf4, 0xff, 0xff, 0xff, 0x09, 0x00, 0x00, 0x00, 0x00, 0x00, 0x00, 0x09,
  0x0c, 0x00, 0x0c, 0x00, 0x0b, 0x00, 0x00, 0x00, 0x00, 0x00, 0x04, 0x00,
  0x0c, 0x00, 0x00, 0x00, 0x16, 0x00, 0x00, 0x00, 0x00, 0x00, 0x00, 0x16
};
const int g_model_len = sizeof(g_model);
