// #include "model.h"

// alignas(16) const char g_model[] = {
//   0x1c, 0x00, 0x00, 0x00, 0x54, 0x46, 0x4c, 0x33, 0x14, 0x00, 0x20, 0x00,
//   0x1c, 0x00, 0x18, 0x00, 0x14, 0x00, 0x10, 0x00, 0x0c, 0x00, 0x00, 0x00,
//   0x08, 0x00, 0x04, 0x00, 0x14, 0x00, 0x00, 0x00, 0x1c, 0x00, 0x00, 0x00,
//   0x8c, 0x00, 0x00, 0x00, 0x14, 0x01, 0x00, 0x00, 0xc8, 0x0f, 0x00, 0x00,
//   0xd8, 0x0f, 0x00, 0x00, 0x1c, 0x24, 0x00, 0x00, 0x03, 0x00, 0x00, 0x00,
//   0x01, 0x00, 0x00, 0x00, 0x04, 0x00, 0x00, 0x00, 0x52, 0xed, 0xff, 0xff,
//   0x0c, 0x00, 0x00, 0x00, 0x1c, 0x00, 0x00, 0x00, 0x3c, 0x00, 0x00, 0x00,
//   0x0f, 0x00, 0x00, 0x00, 0x73, 0x65, 0x72, 0x76, 0x69, 0x6e, 0x67, 0x5f,
//   0x64, 0x65, 0x66, 0x61, 0x75, 0x6c, 0x74, 0x00, 0x01, 0x00, 0x00, 0x00,
//   0x04, 0x00, 0x00, 0x00, 0x60, 0xff, 0xff, 0xff, 0x23, 0x00, 0x00, 0x00,
//   0x04, 0x00, 0x00, 0x00, 0x09, 0x00, 0x00, 0x00, 0x72, 0x65, 0x73, 0x68,
//   0x61, 0x70, 0x65, 0x5f, 0x31, 0x00, 0x00, 0x00, 0x01, 0x00, 0x00, 0x00,
//   0x04, 0x00, 0x00, 0x00, 0xbe, 0xef, 0xff, 0xff, 0x04, 0x00, 0x00, 0x00,
//   0x0e, 0x00, 0x00, 0x00, 0x63, 0x6f, 0x6e, 0x76, 0x31, 0x64, 0x5f, 0x32,
//   0x5f, 0x69, 0x6e, 0x70, 0x75, 0x74, 0x00, 0x00, 0x03, 0x00, 0x00, 0x00,
//   0x64, 0x00, 0x00, 0x00, 0x2c, 0x00, 0x00, 0x00, 0x04, 0x00, 0x00, 0x00,
//   0xb0, 0xff, 0xff, 0xff, 0x27, 0x00, 0x00, 0x00, 0x04, 0x00, 0x00, 0x00,
//   0x13, 0x00, 0x00, 0x00, 0x43, 0x4f, 0x4e, 0x56, 0x45, 0x52, 0x53, 0x49,
//   0x4f, 0x4e, 0x5f, 0x4d, 0x45, 0x54, 0x41, 0x44, 0x41, 0x54, 0x41, 0x00,
//   0xd4, 0xff, 0xff, 0xff, 0x26, 0x00, 0x00, 0x00, 0x04, 0x00, 0x00, 0x00,
//   0x19, 0x00, 0x00, 0x00, 0x72, 0x65, 0x64, 0x75, 0x63, 0x65, 0x64, 0x5f,
//   0x70, 0x72, 0x65, 0x63, 0x69, 0x73, 0x69, 0x6f, 0x6e, 0x5f, 0x73, 0x75,
//   0x70, 0x70, 0x6f, 0x72, 0x74, 0x00, 0x00, 0x00, 0x08, 0x00, 0x0c, 0x00,
//   0x08, 0x00, 0x04, 0x00, 0x08, 0x00, 0x00, 0x00, 0x25, 0x00, 0x00, 0x00,
//   0x04, 0x00, 0x00, 0x00, 0x13, 0x00, 0x00, 0x00, 0x6d, 0x69, 0x6e, 0x5f,
//   0x72, 0x75, 0x6e, 0x74, 0x69, 0x6d, 0x65, 0x5f, 0x76, 0x65, 0x72, 0x73,
//   0x69, 0x6f, 0x6e, 0x00, 0x28, 0x00, 0x00, 0x00, 0xb0, 0x0e, 0x00, 0x00,
//   0xa8, 0x0e, 0x00, 0x00, 0x94, 0x0e, 0x00, 0x00, 0x7c, 0x0e, 0x00, 0x00,
//   0x68, 0x0e, 0x00, 0x00, 0x54, 0x0e, 0x00, 0x00, 0x40, 0x0e, 0x00, 0x00,
//   0x2c, 0x0e, 0x00, 0x00, 0x24, 0x0e, 0x00, 0x00, 0x08, 0x0e, 0x00, 0x00,
//   0xec, 0x0d, 0x00, 0x00, 0xcc, 0x0d, 0x00, 0x00, 0xac, 0x0d, 0x00, 0x00,
//   0xcc, 0x0a, 0x00, 0x00, 0x3c, 0x08, 0x00, 0x00, 0x18, 0x08, 0x00, 0x00,
//   0x48, 0x01, 0x00, 0x00, 0x40, 0x01, 0x00, 0x00, 0x38, 0x01, 0x00, 0x00,
//   0x30, 0x01, 0x00, 0x00, 0x28, 0x01, 0x00, 0x00, 0x20, 0x01, 0x00, 0x00,
//   0x18, 0x01, 0x00, 0x00, 0x10, 0x01, 0x00, 0x00, 0x08, 0x01, 0x00, 0x00,
//   0x00, 0x01, 0x00, 0x00, 0xf8, 0x00, 0x00, 0x00, 0xf0, 0x00, 0x00, 0x00,
//   0xe8, 0x00, 0x00, 0x00, 0xe0, 0x00, 0x00, 0x00, 0xd8, 0x00, 0x00, 0x00,
//   0xd0, 0x00, 0x00, 0x00, 0xc8, 0x00, 0x00, 0x00, 0xc0, 0x00, 0x00, 0x00,
//   0xb8, 0x00, 0x00, 0x00, 0xb0, 0x00, 0x00, 0x00, 0xa8, 0x00, 0x00, 0x00,
//   0x88, 0x00, 0x00, 0x00, 0x6c, 0x00, 0x00, 0x00, 0x04, 0x00, 0x00, 0x00,
//   0x0a, 0xf1, 0xff, 0xff, 0x04, 0x00, 0x00, 0x00, 0x58, 0x00, 0x00, 0x00,
//   0x0c, 0x00, 0x00, 0x00, 0x08, 0x00, 0x0e, 0x00, 0x08, 0x00, 0x04, 0x00,
//   0x08, 0x00, 0x00, 0x00, 0x10, 0x00, 0x00, 0x00, 0x28, 0x00, 0x00, 0x00,
//   0x00, 0x00, 0x06, 0x00, 0x08, 0x00, 0x04, 0x00, 0x06, 0x00, 0x00, 0x00,
//   0x04, 0x00, 0x00, 0x00, 0x01, 0x00, 0x00, 0x00, 0xe9, 0x03, 0x00, 0x00,
//   0x00, 0x00, 0x0a, 0x00, 0x10, 0x00, 0x0c, 0x00, 0x08, 0x00, 0x04, 0x00,
//   0x0a, 0x00, 0x00, 0x00, 0x02, 0x00, 0x00, 0x00, 0x02, 0x00, 0x00, 0x00,
//   0x04, 0x00, 0x00, 0x00, 0x06, 0x00, 0x00, 0x00, 0x32, 0x2e, 0x31, 0x35,
//   0x2e, 0x30, 0x00, 0x00, 0x6e, 0xf1, 0xff, 0xff, 0x04, 0x00, 0x00, 0x00,
//   0x0b, 0x00, 0x00, 0x00, 0x66, 0x70, 0x31, 0x36, 0x61, 0x63, 0x63, 0x66,
//   0x70, 0x33, 0x32, 0x00, 0x86, 0xf1, 0xff, 0xff, 0x04, 0x00, 0x00, 0x00,
//   0x10, 0x00, 0x00, 0x00, 0x31, 0x2e, 0x31, 0x35, 0x2e, 0x30, 0x00, 0x00,
//   0x00, 0x00, 0x00, 0x00, 0x00, 0x00, 0x00, 0x00, 0x68, 0xde, 0xff, 0xff,
//   0x6c, 0xde, 0xff, 0xff, 0x70, 0xde, 0xff, 0xff, 0x74, 0xde, 0xff, 0xff,
//   0x78, 0xde, 0xff, 0xff, 0x7c, 0xde, 0xff, 0xff, 0x80, 0xde, 0xff, 0xff,
//   0x84, 0xde, 0xff, 0xff, 0x88, 0xde, 0xff, 0xff, 0x8c, 0xde, 0xff, 0xff,
//   0x90, 0xde, 0xff, 0xff, 0x94, 0xde, 0xff, 0xff, 0x98, 0xde, 0xff, 0xff,
//   0x9c, 0xde, 0xff, 0xff, 0xa0, 0xde, 0xff, 0xff, 0xa4, 0xde, 0xff, 0xff,
//   0xa8, 0xde, 0xff, 0xff, 0xac, 0xde, 0xff, 0xff, 0xb0, 0xde, 0xff, 0xff,
//   0xb4, 0xde, 0xff, 0xff, 0xf2, 0xf1, 0xff, 0xff, 0x04, 0x00, 0x00, 0x00,
//   0xc0, 0x06, 0x00, 0x00, 0xfa, 0xa3, 0x97, 0xa5, 0x28, 0x33, 0x3d, 0x1e,
//   0x96, 0x9e, 0x9b, 0x29, 0xfd, 0xb0, 0x86, 0x30, 0x58, 0x2c, 0x99, 0x31,
//   0xbc, 0x29, 0x11, 0x2f, 0xec, 0x2c, 0xf1, 0xa3, 0xf0, 0xb0, 0x67, 0x27,
//   0x34, 0xae, 0x2e, 0x2a, 0x23, 0x2c, 0x9f, 0x2b, 0xe1, 0xa0, 0x3f, 0x9d,
//   0x0f, 0xad, 0x6b, 0xaf, 0x82, 0xb1, 0xbd, 0xa8, 0xb1, 0x30, 0x43, 0x2c,
//   0x42, 0x2f, 0x4d, 0x1f, 0x97, 0x26, 0xa8, 0xae, 0x11, 0xac, 0x0e, 0x29,
//   0x0f, 0x30, 0xe6, 0xa7, 0x29, 0xa9, 0x9f, 0xa0, 0x09, 0x2f, 0x67, 0xa8,
//   0x33, 0x25, 0x15, 0x28, 0x09, 0xb3, 0x73, 0xac, 0xa2, 0xaf, 0x8c, 0xa6,
//   0x41, 0x22, 0x70, 0xa8, 0x06, 0xa8, 0x19, 0x29, 0xd3, 0xb0, 0x16, 0x24,
//   0x08, 0x2e, 0x6f, 0xa7, 0xbd, 0x2d, 0x2b, 0xab, 0x7b, 0xad, 0x06, 0x2c,
//   0x7a, 0x20, 0x31, 0x9a, 0x5a, 0xab, 0xc2, 0x92, 0x52, 0xa9, 0x7e, 0x30,
//   0x87, 0xab, 0xf9, 0x2d, 0xbb, 0xb0, 0x93, 0xae, 0xc7, 0xac, 0x4f, 0x29,
//   0x83, 0xa8, 0xc7, 0x30, 0xed, 0xb3, 0x9c, 0x16, 0x4e, 0x2e, 0xf6, 0xac,
//   0xc4, 0x2e, 0xb8, 0xa0, 0x1c, 0xb0, 0xbc, 0x29, 0xa0, 0xb3, 0xbc, 0xb1,
//   0x40, 0x9a, 0xd1, 0xb1, 0x7c, 0x31, 0x41, 0x2b, 0xa8, 0xb0, 0xa9, 0x1b,
//   0xc0, 0xb0, 0x72, 0xb0, 0xd9, 0xae, 0x6e, 0xab, 0x6d, 0x30, 0xfb, 0x2d,
//   0x81, 0xb0, 0x85, 0x2f, 0x3a, 0xa6, 0xc7, 0xaa, 0xe9, 0x1a, 0xe7, 0x97,
//   0xd2, 0x2a, 0x34, 0x28, 0x23, 0xad, 0x98, 0x25, 0x9d, 0x29, 0x1b, 0x2f,
//   0x27, 0xb0, 0x3f, 0xa0, 0x5f, 0x23, 0x44, 0x9e, 0x6e, 0x2e, 0x4b, 0x27,
//   0xfc, 0x22, 0x1e, 0x2c, 0x96, 0xae, 0x61, 0x26, 0xd6, 0xa8, 0x84, 0x27,
//   0xf6, 0xac, 0x0e, 0x28, 0xd6, 0x1c, 0x22, 0x1b, 0x0e, 0x26, 0x4b, 0xa5,
//   0x66, 0x2a, 0xc3, 0xa3, 0x50, 0xac, 0x1a, 0x2b, 0xc4, 0xa0, 0x8a, 0x9f,
//   0x15, 0x2f, 0x5d, 0x29, 0x50, 0x1f, 0xdf, 0x24, 0xa2, 0xaa, 0x19, 0xa6,
//   0x23, 0xa8, 0x13, 0xa4, 0xba, 0x2e, 0xdf, 0x29, 0x81, 0x9e, 0x1f, 0xa7,
//   0x04, 0x9c, 0xfb, 0xa8, 0x68, 0xad, 0x66, 0x2f, 0xd5, 0x2d, 0xc1, 0x2d,
//   0x64, 0x2c, 0x99, 0xa1, 0x76, 0x2b, 0x31, 0xa9, 0x7b, 0xb0, 0x81, 0x30,
//   0x24, 0x2b, 0xa0, 0xa5, 0xa9, 0xa5, 0xf0, 0x1d, 0xe2, 0x21, 0x30, 0xab,
//   0x5d, 0xb0, 0xff, 0x2c, 0x59, 0xa5, 0xbe, 0xa1, 0xb3, 0xa8, 0xaa, 0xa1,
//   0x66, 0xac, 0xdc, 0xad, 0xe8, 0xb1, 0x8b, 0x25, 0xa2, 0x2c, 0x58, 0x98,
//   0xc4, 0x92, 0x84, 0xac, 0x21, 0x30, 0xd9, 0xac, 0xe5, 0xaf, 0xa5, 0xaa,
//   0xc8, 0xa0, 0x66, 0x25, 0x76, 0xaa, 0x18, 0xac, 0x04, 0x2e, 0x6a, 0xad,
//   0x88, 0xb3, 0x29, 0xb0, 0xdb, 0xa5, 0xc5, 0xac, 0xa4, 0x32, 0xe0, 0xaa,
//   0x07, 0x34, 0x94, 0xad, 0x8e, 0xac, 0xdb, 0x23, 0xc7, 0x2b, 0xd4, 0xad,
//   0xc5, 0xb7, 0x8a, 0x31, 0x82, 0x2e, 0xf5, 0x27, 0xdc, 0x28, 0x0a, 0xaf,
//   0x64, 0xb2, 0xe4, 0xb4, 0xdf, 0x86, 0x8b, 0xac, 0x5f, 0xab, 0x9c, 0x24,
//   0x41, 0xad, 0x7d, 0x27, 0xad, 0x25, 0x4d, 0xac, 0xa6, 0xab, 0xb8, 0xad,
//   0xd1, 0x31, 0xe9, 0x29, 0x6e, 0x36, 0xa3, 0xac, 0xb0, 0x24, 0xbf, 0x31,
//   0xac, 0x34, 0x80, 0x2f, 0x0e, 0xb0, 0xaf, 0x2f, 0x90, 0x21, 0x4e, 0x24,
//   0xe9, 0xaa, 0x6f, 0xab, 0xcc, 0xab, 0xc2, 0xaa, 0x22, 0xa8, 0x6a, 0xb0,
//   0xd0, 0x2a, 0x31, 0x30, 0xb3, 0x9e, 0x46, 0xa9, 0x46, 0xac, 0xe6, 0x1a,
//   0xa3, 0x36, 0x37, 0x2c, 0x5f, 0x2c, 0x6d, 0xb0, 0xf5, 0xae, 0x68, 0x29,
//   0xd7, 0xa1, 0x26, 0x25, 0x52, 0xaf, 0xb3, 0x32, 0x69, 0x29, 0x77, 0x2f,
//   0x3e, 0x31, 0xbb, 0x32, 0xdd, 0x2a, 0x03, 0x29, 0x1f, 0x31, 0xda, 0xb2,
//   0xbf, 0xb1, 0xa1, 0x28, 0x10, 0xb4, 0xef, 0xb2, 0xcc, 0xa9, 0x58, 0x28,
//   0x0a, 0x30, 0xda, 0xb2, 0xc0, 0xb4, 0xae, 0x2a, 0x97, 0xa4, 0x43, 0x37,
//   0xd3, 0x31, 0x30, 0xb4, 0xa2, 0xae, 0xf1, 0x2d, 0x1f, 0x2b, 0xb8, 0xb5,
//   0x77, 0x2f, 0x3e, 0x32, 0xe2, 0x34, 0x90, 0xb6, 0xa7, 0x2c, 0x40, 0x33,
//   0xf6, 0xb1, 0xc5, 0x2d, 0x5f, 0xb1, 0x62, 0xb5, 0x82, 0xb4, 0xee, 0x36,
//   0xb5, 0x30, 0x57, 0xb2, 0xae, 0x2d, 0xf8, 0x2f, 0x0d, 0xb1, 0xb0, 0x2d,
//   0xad, 0x1f, 0x8a, 0xa0, 0x72, 0x29, 0x5c, 0x96, 0x53, 0xa0, 0x78, 0xae,
//   0x8d, 0x31, 0xc4, 0x28, 0x31, 0x2c, 0x42, 0x28, 0x15, 0x98, 0xfd, 0x25,
//   0xaa, 0xa9, 0xba, 0x1b, 0x6d, 0xae, 0xda, 0xaf, 0x7c, 0xae, 0x27, 0x21,
//   0xf5, 0x1f, 0x4a, 0xa8, 0x03, 0xac, 0x5d, 0x2b, 0x6d, 0x2c, 0x52, 0x95,
//   0xde, 0xaa, 0x3a, 0x27, 0xec, 0x2e, 0x3a, 0xa9, 0xe7, 0x29, 0x0f, 0xad,
//   0x82, 0x25, 0x5e, 0x29, 0xe0, 0x26, 0xb2, 0x2e, 0xe2, 0x19, 0x1e, 0xa2,
//   0xae, 0x18, 0x6e, 0x9d, 0x9e, 0x20, 0xc6, 0x2d, 0x47, 0x24, 0x12, 0x28,
//   0x82, 0xac, 0x36, 0xac, 0x58, 0xa1, 0x96, 0x2c, 0x94, 0xa0, 0x7e, 0xa8,
//   0x82, 0xb1, 0xac, 0x9e, 0xe5, 0x2d, 0xb0, 0xa7, 0xa9, 0x2a, 0x86, 0x29,
//   0x27, 0x2c, 0xd7, 0xa8, 0x9a, 0x2c, 0x9c, 0x24, 0x5d, 0xa7, 0x07, 0x2c,
//   0xd0, 0xaf, 0x5f, 0x2f, 0xf7, 0x26, 0x86, 0xaf, 0x2a, 0x24, 0x61, 0x2a,
//   0x64, 0x2c, 0xf9, 0xaa, 0x4f, 0xac, 0x6a, 0x22, 0x8e, 0xac, 0x2c, 0xb2,
//   0xec, 0x29, 0x40, 0x34, 0x5f, 0x20, 0xf6, 0xb0, 0x2d, 0xb5, 0xe8, 0x25,
//   0x23, 0x1c, 0x6d, 0xaa, 0xcb, 0x25, 0x27, 0x1c, 0x11, 0xab, 0xac, 0xb1,
//   0x5e, 0x2e, 0x53, 0xb3, 0x24, 0x2c, 0x3c, 0x33, 0x20, 0xab, 0x77, 0xb8,
//   0x65, 0x29, 0x01, 0x38, 0xad, 0x2d, 0x65, 0xa9, 0x51, 0x30, 0x6d, 0x31,
//   0x5b, 0xb2, 0x20, 0x25, 0x52, 0xa8, 0x93, 0xa9, 0x46, 0xa5, 0xe8, 0x23,
//   0x90, 0x30, 0xb1, 0x99, 0x5a, 0x2a, 0x24, 0xa6, 0xe5, 0x2c, 0x5c, 0xb1,
//   0xc9, 0xad, 0xb2, 0xa9, 0xc0, 0xae, 0x58, 0x20, 0xf6, 0xaa, 0xff, 0xa9,
//   0xd2, 0x2d, 0x20, 0xa6, 0x85, 0xa8, 0x87, 0x29, 0xb8, 0xa7, 0xa8, 0xaa,
//   0xf5, 0x2a, 0xfe, 0xa4, 0xd3, 0xb0, 0xe7, 0x9e, 0x55, 0x28, 0x5e, 0x33,
//   0x38, 0x16, 0x5e, 0x27, 0x34, 0xb0, 0x04, 0x21, 0x5c, 0xb2, 0x90, 0x2d,
//   0xd9, 0xa8, 0xef, 0x28, 0xd6, 0x2b, 0xed, 0x32, 0x2b, 0xad, 0x21, 0x23,
//   0x8a, 0x24, 0xdb, 0x28, 0x1b, 0xad, 0xd9, 0x2a, 0x7c, 0x9e, 0x6d, 0x2a,
//   0xf1, 0xaf, 0x39, 0xb1, 0xa7, 0x2c, 0xfe, 0xae, 0x2a, 0x27, 0xd8, 0x32,
//   0x45, 0x30, 0xae, 0xad, 0x6f, 0x28, 0x2c, 0xad, 0x82, 0xa4, 0xc5, 0x18,
//   0xe6, 0xae, 0x17, 0x2c, 0x00, 0x2b, 0x2e, 0xae, 0x82, 0x2b, 0x0b, 0x29,
//   0x03, 0xb0, 0xa4, 0x27, 0x62, 0xa7, 0x13, 0xb0, 0x39, 0xa2, 0x62, 0xa7,
//   0x44, 0x28, 0x5e, 0x2c, 0x49, 0xb0, 0x09, 0x2b, 0x76, 0x31, 0xc9, 0x2c,
//   0x27, 0xb0, 0xc6, 0x1c, 0xdd, 0xae, 0xbe, 0x21, 0x6b, 0x32, 0x52, 0x98,
//   0x05, 0x38, 0x20, 0xaa, 0xf8, 0xb5, 0xf5, 0x29, 0x38, 0xac, 0x4e, 0xaa,
//   0x1b, 0x2f, 0x84, 0xaf, 0x34, 0x29, 0x74, 0x2e, 0x45, 0xb2, 0x01, 0xa0,
//   0x10, 0xa8, 0xb3, 0x23, 0xa7, 0x2c, 0x40, 0x30, 0x32, 0x26, 0xdf, 0x30,
//   0x21, 0xa2, 0x04, 0x30, 0xa6, 0xae, 0x58, 0xa5, 0x33, 0xad, 0xf7, 0xac,
//   0x70, 0xaf, 0x2b, 0xaf, 0xa6, 0x31, 0xb7, 0xb1, 0xac, 0x2b, 0xb8, 0xab,
//   0xf5, 0x2c, 0x04, 0xa7, 0xa9, 0xb0, 0x6c, 0xb0, 0x11, 0x30, 0xa9, 0xa9,
//   0xf9, 0x27, 0x41, 0x28, 0xb5, 0xa8, 0xaa, 0xa9, 0x0a, 0x26, 0x0d, 0xa9,
//   0x43, 0x2e, 0x4e, 0xac, 0xfd, 0xb0, 0x0d, 0xad, 0xc5, 0x2e, 0xc6, 0xa7,
//   0x47, 0x26, 0xa6, 0x2f, 0x40, 0xb2, 0x21, 0x2d, 0x57, 0x32, 0x58, 0x2e,
//   0x39, 0x2f, 0x12, 0x2d, 0xe8, 0xab, 0x10, 0x2a, 0x3d, 0x25, 0x71, 0xa6,
//   0x7e, 0x27, 0xfa, 0x28, 0x51, 0x16, 0xfb, 0x1f, 0x21, 0x2e, 0x15, 0xac,
//   0x79, 0xb1, 0x6c, 0xa7, 0x2f, 0xb1, 0xb8, 0xa8, 0x1d, 0xad, 0xe5, 0x2a,
//   0xb8, 0xa4, 0x4b, 0xa8, 0x6b, 0x2a, 0x1d, 0xa7, 0xbf, 0xa8, 0x6f, 0xa9,
//   0xf5, 0x35, 0x71, 0xb0, 0x2e, 0xa9, 0xcd, 0xb5, 0xe3, 0xad, 0x47, 0x2b,
//   0x8d, 0x2b, 0xf8, 0x25, 0x8c, 0x31, 0x66, 0xb1, 0xb6, 0x18, 0x5a, 0xb1,
//   0x21, 0xac, 0xb2, 0xb0, 0x7a, 0x28, 0xf8, 0xa8, 0x34, 0x36, 0xe6, 0x2c,
//   0x02, 0x36, 0x55, 0x34, 0xac, 0xa7, 0xd2, 0x32, 0x0c, 0xac, 0x12, 0x2b,
//   0x76, 0xb6, 0xd4, 0x2e, 0x35, 0xad, 0x55, 0xb1, 0x0f, 0x2c, 0x48, 0xa5,
//   0x51, 0x2d, 0x7c, 0x12, 0x02, 0xa8, 0xc2, 0xa5, 0xa1, 0x28, 0x27, 0x28,
//   0xd6, 0x9a, 0xc7, 0x29, 0x44, 0x8b, 0x40, 0xaa, 0x18, 0x28, 0xc2, 0x19,
//   0x22, 0x2c, 0x48, 0x31, 0xb1, 0xaf, 0x80, 0x2b, 0x6e, 0x2c, 0x36, 0xac,
//   0x4d, 0x2f, 0xeb, 0x23, 0x54, 0xac, 0x1e, 0x31, 0x23, 0xb3, 0x2a, 0x20,
//   0x55, 0xa9, 0x20, 0xa7, 0x32, 0x24, 0x15, 0x28, 0x48, 0xaa, 0xdc, 0x27,
//   0x1a, 0xac, 0xe4, 0x1d, 0x52, 0xa8, 0x59, 0xaf, 0x35, 0x2c, 0xdc, 0x25,
//   0x77, 0xa9, 0xd5, 0x28, 0xc6, 0x28, 0x5f, 0xa1, 0x47, 0xa7, 0xca, 0xad,
//   0xfe, 0x99, 0x69, 0xa8, 0x73, 0xa8, 0x14, 0xac, 0x94, 0x30, 0x81, 0x20,
//   0x7b, 0x2b, 0x92, 0xac, 0x3e, 0x27, 0x01, 0xab, 0x4a, 0xb0, 0xe7, 0xae,
//   0x0b, 0x27, 0xfb, 0x2c, 0x8f, 0x2f, 0x52, 0xaa, 0x32, 0x2d, 0xf8, 0xad,
//   0xf5, 0x24, 0x9b, 0xb1, 0x24, 0x2c, 0xc9, 0xaa, 0xbd, 0x2c, 0x3d, 0x26,
//   0x59, 0x30, 0x99, 0xac, 0x98, 0x30, 0x17, 0xb1, 0xef, 0x26, 0x3f, 0x28,
//   0xa5, 0xae, 0x3d, 0x31, 0x5b, 0x2b, 0x4e, 0x29, 0x3d, 0x34, 0x17, 0xa6,
//   0x77, 0x26, 0xf3, 0x2b, 0x5f, 0xb1, 0x9e, 0x30, 0x1a, 0x2c, 0x4e, 0x32,
//   0x00, 0x34, 0x08, 0xad, 0x31, 0x34, 0x9c, 0x29, 0x52, 0xb4, 0xd4, 0x2e,
//   0x2b, 0xb5, 0x6b, 0x2d, 0x1b, 0xa5, 0x20, 0xa8, 0xef, 0x1f, 0x32, 0xa9,
//   0x44, 0x26, 0x84, 0x1d, 0x7f, 0xae, 0x90, 0x2c, 0x88, 0x9c, 0x9e, 0x24,
//   0xe3, 0x29, 0xa7, 0x9d, 0x72, 0x25, 0x2c, 0x24, 0xe6, 0xa8, 0x1d, 0xa6,
//   0xaf, 0x95, 0xc1, 0xa5, 0x48, 0xa4, 0xc4, 0x14, 0x20, 0x27, 0xcd, 0x29,
//   0x3a, 0x1a, 0x09, 0xa7, 0xe4, 0x25, 0x00, 0xaa, 0x9d, 0xac, 0x1f, 0xa4,
//   0xd7, 0xa5, 0x71, 0xa8, 0x4a, 0x29, 0xcb, 0x99, 0xb6, 0x2c, 0x1c, 0x16,
//   0x0e, 0xad, 0xa0, 0x8b, 0xc6, 0x24, 0x4c, 0xab, 0x82, 0x26, 0x2a, 0x9e,
//   0x85, 0x2b, 0x93, 0x8d, 0xbc, 0xac, 0x1a, 0xa6, 0xe2, 0x24, 0x99, 0x28,
//   0xf5, 0xac, 0xa0, 0x1d, 0x1f, 0x29, 0x0e, 0xae, 0x51, 0xa8, 0x1f, 0xa3,
//   0x0a, 0x28, 0xc8, 0x26, 0x7c, 0xad, 0xd7, 0x9c, 0xbd, 0x10, 0x46, 0xad,
//   0xb7, 0xaa, 0xe7, 0x2b, 0x13, 0x2c, 0xb6, 0xa9, 0xeb, 0xa9, 0xa3, 0x9f,
//   0x3b, 0x1e, 0x7b, 0xac, 0x89, 0xa6, 0xb5, 0x2c, 0x31, 0x2c, 0x0a, 0xa8,
//   0x62, 0xac, 0x3a, 0xa1, 0x61, 0x27, 0x47, 0xad, 0x37, 0xa8, 0x67, 0x2c,
//   0xfc, 0x2c, 0x1f, 0xa1, 0x6d, 0xb1, 0x95, 0x24, 0xf9, 0x25, 0x19, 0xa5,
//   0x2e, 0x2d, 0x1b, 0x2a, 0x05, 0x27, 0x72, 0x21, 0x02, 0xb2, 0x15, 0x29,
//   0xb3, 0x2e, 0x84, 0xa5, 0x90, 0x26, 0x03, 0x24, 0x64, 0x2d, 0xd3, 0x26,
//   0x41, 0xb4, 0xe6, 0xa0, 0x20, 0x18, 0x75, 0x1e, 0x2e, 0x20, 0x10, 0x27,
//   0xd8, 0x2b, 0xad, 0xae, 0xe1, 0x2e, 0x9d, 0xa7, 0xfa, 0x9e, 0xda, 0x1d,
//   0x53, 0xa8, 0x40, 0x9e, 0x9d, 0xa6, 0xf4, 0x25, 0x63, 0x2d, 0x77, 0xab,
//   0x5e, 0x99, 0x09, 0xa4, 0x84, 0xa6, 0x9a, 0x1b, 0xb8, 0xab, 0xcd, 0x9f,
//   0xf2, 0x2f, 0x8c, 0xa9, 0xcc, 0x29, 0x61, 0xaa, 0x16, 0x97, 0x7b, 0x24,
//   0x48, 0xad, 0x06, 0xa9, 0xd5, 0x2e, 0xb4, 0xa0, 0x57, 0x2a, 0x9e, 0x98,
//   0x69, 0xa1, 0xd0, 0x99, 0x59, 0xa9, 0x29, 0xa5, 0x8a, 0x28, 0x13, 0x22,
//   0x42, 0x1d, 0xc7, 0x23, 0xed, 0x98, 0xbe, 0xa1, 0x7c, 0xa8, 0xa9, 0x1e,
//   0x14, 0x2c, 0x4a, 0xa1, 0xb2, 0xa3, 0x0e, 0xa1, 0x96, 0x1b, 0xe1, 0xaa,
//   0x9f, 0x15, 0xa8, 0x23, 0x1b, 0x2b, 0x67, 0xa8, 0xbf, 0xa4, 0x8a, 0xac,
//   0xbe, 0x10, 0xac, 0xa4, 0x7f, 0x26, 0x13, 0x2a, 0x7f, 0x93, 0x79, 0xa7,
//   0x08, 0x28, 0xd0, 0xae, 0xce, 0x14, 0x0b, 0x28, 0xa0, 0x2b, 0xc9, 0x2c,
//   0x75, 0x24, 0x03, 0xa4, 0x19, 0x2b, 0xce, 0xac, 0x03, 0x2a, 0x3e, 0x2b,
//   0x99, 0x1d, 0x2a, 0x2e, 0x2d, 0xaa, 0xec, 0xa1, 0xac, 0x2a, 0x3e, 0xad,
//   0x0a, 0x28, 0xd1, 0x2e, 0xa4, 0x2e, 0x5b, 0x2f, 0x01, 0x9f, 0x47, 0xa6,
//   0xbe, 0x9e, 0x9c, 0xaf, 0x55, 0xa8, 0x92, 0x2c, 0xc6, 0x29, 0x89, 0x31,
//   0x0d, 0x2c, 0x1a, 0xb0, 0xbe, 0xf8, 0xff, 0xff, 0x04, 0x00, 0x00, 0x00,
//   0x12, 0x00, 0x00, 0x00, 0xce, 0x30, 0xf9, 0x37, 0x08, 0x34, 0x0e, 0x2d,
//   0x59, 0x31, 0x82, 0x2c, 0x5e, 0xb5, 0x66, 0x3a, 0xf4, 0xb7, 0x00, 0x00,
//   0xde, 0xf8, 0xff, 0xff, 0x04, 0x00, 0x00, 0x00, 0x80, 0x02, 0x00, 0x00,
//   0x85, 0x98, 0x80, 0x2b, 0x64, 0xaf, 0x6c, 0x35, 0x5f, 0xac, 0x8b, 0xac,
//   0xbf, 0x30, 0xe0, 0xb1, 0x12, 0xa2, 0xc6, 0x32, 0x2c, 0xaf, 0x84, 0x30,
//   0x5a, 0xb3, 0x86, 0xb5, 0xbd, 0xaa, 0x32, 0xa6, 0x4e, 0xb0, 0xcf, 0x24,
//   0x86, 0xb7, 0x52, 0xa8, 0x45, 0x30, 0x03, 0xb2, 0x72, 0xb5, 0x8e, 0x30,
//   0x90, 0xb2, 0x0b, 0x32, 0x12, 0xb8, 0xaf, 0x32, 0x63, 0x30, 0xd1, 0x30,
//   0x31, 0x33, 0xa3, 0x32, 0x55, 0xb8, 0x71, 0xb6, 0x71, 0xb4, 0x71, 0x2d,
//   0xc4, 0x30, 0xb2, 0x27, 0x09, 0x39, 0xee, 0x31, 0x18, 0xb0, 0xc2, 0x29,
//   0xcb, 0x33, 0x79, 0xad, 0xf7, 0xb2, 0xb2, 0x29, 0x3a, 0xb6, 0x2a, 0xaa,
//   0xb0, 0x28, 0xbc, 0xac, 0xf0, 0x27, 0x4c, 0xac, 0x18, 0xae, 0x15, 0x33,
//   0x09, 0xac, 0x1d, 0x2a, 0x8a, 0x30, 0x80, 0x2c, 0x71, 0x2a, 0x22, 0x2d,
//   0xaf, 0x31, 0x7f, 0xad, 0x16, 0x2c, 0xbe, 0x2d, 0x45, 0xb0, 0x5c, 0xaa,
//   0xb6, 0xb4, 0xee, 0xa3, 0xad, 0x31, 0x94, 0x2d, 0x38, 0xb3, 0x6a, 0xb2,
//   0x45, 0xb4, 0x6d, 0x37, 0xed, 0x31, 0x02, 0x38, 0x5c, 0x30, 0x9b, 0x34,
//   0x51, 0xb1, 0x6a, 0x2d, 0x2a, 0x36, 0x1b, 0x30, 0xdf, 0x32, 0x8b, 0x9e,
//   0x7b, 0xb3, 0xa3, 0x29, 0xa9, 0xb5, 0x16, 0x2f, 0xac, 0x2f, 0xdc, 0x2c,
//   0x7f, 0xad, 0xfe, 0x2c, 0xa4, 0xb1, 0x2f, 0x2a, 0x96, 0xb5, 0x13, 0xb0,
//   0x51, 0x36, 0xc0, 0x2e, 0x3c, 0x30, 0x84, 0x31, 0x76, 0xb0, 0x6f, 0xb0,
//   0x2a, 0xb6, 0xe6, 0x31, 0x1c, 0x2e, 0xcb, 0xaf, 0x8c, 0xa8, 0x08, 0x2b,
//   0xcf, 0xb6, 0xa7, 0xb1, 0xf1, 0xb5, 0x5d, 0x30, 0x27, 0x30, 0x91, 0x2b,
//   0x36, 0x35, 0x40, 0x32, 0x7a, 0xb8, 0x27, 0xb2, 0x42, 0xb5, 0xf4, 0x35,
//   0x1a, 0x9d, 0xec, 0xb1, 0x8c, 0x36, 0x86, 0xb1, 0xf2, 0xb1, 0x2a, 0x32,
//   0xd9, 0x28, 0x5d, 0xb0, 0x76, 0xac, 0x61, 0x2e, 0xb0, 0x34, 0x33, 0x2c,
//   0xd8, 0xa9, 0x66, 0x34, 0x67, 0x18, 0x43, 0x24, 0x6e, 0xae, 0xad, 0x31,
//   0x23, 0xaa, 0x17, 0xb5, 0x0b, 0xac, 0xcd, 0x32, 0x82, 0x30, 0x86, 0xb0,
//   0x78, 0xb3, 0x9d, 0xae, 0xfb, 0x30, 0x4f, 0x2c, 0xfc, 0x32, 0xd8, 0x31,
//   0x78, 0x2b, 0x2a, 0x30, 0x9e, 0xb3, 0xdf, 0xbb, 0x7f, 0x30, 0xa0, 0x30,
//   0x52, 0x2e, 0x90, 0x9a, 0x65, 0x33, 0xeb, 0x2d, 0xd0, 0xad, 0xe4, 0x2f,
//   0xfc, 0xb2, 0x63, 0xa8, 0xd5, 0xac, 0x3d, 0xb0, 0xd6, 0x32, 0x21, 0xb4,
//   0x8b, 0xaf, 0x7d, 0x33, 0xee, 0xb0, 0xd7, 0xa3, 0xfb, 0xb6, 0x38, 0xb3,
//   0xb2, 0xa9, 0xed, 0x2f, 0x3b, 0x2a, 0x3a, 0x28, 0x04, 0x31, 0xce, 0x31,
//   0x5d, 0xb2, 0x5d, 0xb0, 0x52, 0xaf, 0xd6, 0x98, 0xd2, 0x33, 0x79, 0x33,
//   0x2e, 0x96, 0x4c, 0x31, 0xb4, 0x30, 0x8b, 0xb3, 0x84, 0xa7, 0x77, 0x20,
//   0xee, 0x30, 0x5b, 0x31, 0x7d, 0xb8, 0x91, 0x35, 0xf0, 0x32, 0x47, 0xb6,
//   0xbf, 0x2a, 0x13, 0xb9, 0xb4, 0xb8, 0xda, 0xb1, 0xf5, 0xa9, 0xb9, 0xb0,
//   0xe6, 0x35, 0x86, 0x39, 0x93, 0x2d, 0x16, 0x31, 0xa1, 0x2f, 0xf7, 0x2f,
//   0x4f, 0x34, 0xc4, 0xb4, 0xe8, 0x31, 0xc7, 0x36, 0xe7, 0x2c, 0x12, 0x34,
//   0xb5, 0x2c, 0x3c, 0x2f, 0x3b, 0x29, 0xe9, 0xb6, 0x21, 0x2a, 0x01, 0x2c,
//   0xfe, 0xb1, 0x9d, 0x30, 0xe1, 0xa3, 0x34, 0x34, 0x20, 0x2c, 0x57, 0x29,
//   0xc3, 0xa2, 0xaf, 0xaf, 0x64, 0x34, 0xa3, 0xb2, 0x7d, 0xb8, 0xc7, 0x3a,
//   0x28, 0x39, 0x17, 0x28, 0x42, 0x31, 0xb4, 0xb2, 0x9a, 0x33, 0x75, 0xb7,
//   0x07, 0x36, 0x54, 0xaf, 0x06, 0x35, 0x13, 0x2e, 0x98, 0xaf, 0x37, 0x2c,
//   0xa6, 0x22, 0xa1, 0xac, 0xa1, 0x30, 0xc0, 0xb1, 0xfb, 0x24, 0x2a, 0xab,
//   0xd5, 0xac, 0xbc, 0x35, 0xc3, 0xae, 0x92, 0x2d, 0x21, 0x30, 0x49, 0x2c,
//   0x09, 0x34, 0x35, 0xa9, 0x10, 0xb2, 0x9b, 0x29, 0xde, 0xb1, 0x56, 0xb1,
//   0x8d, 0x33, 0xbc, 0x2f, 0x19, 0x2d, 0xd4, 0xb5, 0xeb, 0xb1, 0xed, 0x2a,
//   0x83, 0xb3, 0x5d, 0xae, 0x9c, 0x36, 0x47, 0x37, 0x4e, 0xac, 0x85, 0xb5,
//   0x07, 0xb6, 0x91, 0xb6, 0x58, 0xb2, 0xf5, 0xb0, 0xcb, 0xb0, 0x00, 0xb6,
//   0x3a, 0x30, 0xa7, 0x38, 0x98, 0x2a, 0x63, 0x32, 0xb9, 0x29, 0x41, 0xb7,
//   0xe1, 0x2d, 0x1f, 0x30, 0x13, 0x21, 0x77, 0xa4, 0x27, 0x24, 0x38, 0xad,
//   0xe4, 0x2e, 0xad, 0xa7, 0xe0, 0xaa, 0x40, 0x36, 0x7b, 0xac, 0xab, 0x29,
//   0x04, 0x2f, 0x46, 0x2c, 0x76, 0x24, 0x4d, 0x31, 0x3d, 0x36, 0x2d, 0x30,
//   0x98, 0x33, 0xe2, 0xb0, 0x24, 0xb0, 0x38, 0x27, 0x62, 0xad, 0xd7, 0x31,
//   0x4c, 0x38, 0x60, 0xbc, 0x0a, 0x32, 0x42, 0xb5, 0xb3, 0xb5, 0x5b, 0xa2,
//   0x72, 0xb2, 0xe2, 0x39, 0x6a, 0xfb, 0xff, 0xff, 0x04, 0x00, 0x00, 0x00,
//   0xd0, 0x02, 0x00, 0x00, 0x58, 0x28, 0xb1, 0xae, 0x6a, 0x20, 0xb9, 0x31,
//   0x63, 0x36, 0xea, 0x30, 0x4e, 0xb3, 0x94, 0x36, 0x9e, 0xb2, 0xb5, 0x27,
//   0x08, 0xb1, 0x4a, 0x21, 0x6a, 0x30, 0xa5, 0x15, 0x28, 0xb4, 0x10, 0x33,
//   0x1a, 0x32, 0xf8, 0xac, 0x13, 0x26, 0x90, 0x2b, 0x69, 0x9c, 0xdf, 0x31,
//   0x60, 0x34, 0xa6, 0xb0, 0x92, 0x31, 0x75, 0x33, 0x72, 0xa9, 0x2c, 0xa5,
//   0xab, 0x2c, 0x02, 0x1f, 0x77, 0x34, 0x84, 0xac, 0xfb, 0x2d, 0x19, 0xa4,
//   0x4d, 0x2d, 0x95, 0x25, 0x2c, 0x23, 0x1b, 0x2d, 0x43, 0xa1, 0x4c, 0x3a,
//   0x8c, 0xb8, 0x19, 0xba, 0x8e, 0xaa, 0xd1, 0xb3, 0x3e, 0xb2, 0x1f, 0xa6,
//   0xb9, 0x31, 0xbf, 0x20, 0xe9, 0xac, 0x51, 0xb7, 0xab, 0x34, 0xdc, 0xb2,
//   0x5c, 0x22, 0xff, 0x2b, 0x6e, 0xab, 0x0d, 0x2e, 0x13, 0x18, 0x30, 0xae,
//   0x04, 0xaf, 0x7e, 0xb2, 0x03, 0x31, 0x7a, 0x2e, 0xf2, 0xaf, 0x13, 0xa8,
//   0xd3, 0x2b, 0xa7, 0x1d, 0xe8, 0x36, 0x97, 0xae, 0xd9, 0x2d, 0x3c, 0x25,
//   0x63, 0xa0, 0xe3, 0x30, 0xae, 0x9f, 0xe1, 0x2d, 0xbb, 0x95, 0x4b, 0x25,
//   0x53, 0xb5, 0x1c, 0xae, 0x46, 0xb0, 0xcd, 0x23, 0x69, 0x36, 0x37, 0xaa,
//   0x04, 0x30, 0x5b, 0x28, 0xd9, 0xbd, 0x9d, 0x29, 0xd2, 0xb5, 0xa6, 0xb8,
//   0xfc, 0xb4, 0x22, 0x38, 0xfe, 0x22, 0x7e, 0xb1, 0xa5, 0x9b, 0x1d, 0x37,
//   0x1e, 0x35, 0xe4, 0xa9, 0xa3, 0x9f, 0x33, 0x3c, 0x51, 0x35, 0x6e, 0xa4,
//   0xe2, 0xb4, 0x8a, 0xa1, 0x51, 0x2e, 0x43, 0x2a, 0x60, 0xb1, 0xa5, 0x30,
//   0x4d, 0x38, 0x53, 0x34, 0x7b, 0x2c, 0x51, 0xb3, 0x1c, 0xa1, 0x39, 0x2c,
//   0x87, 0x34, 0x77, 0x31, 0x2a, 0x2e, 0x27, 0x34, 0x2b, 0xaf, 0xc8, 0x2e,
//   0x58, 0xb4, 0x77, 0x9a, 0x53, 0x2b, 0x93, 0xb4, 0x02, 0x34, 0xef, 0xb2,
//   0x22, 0x35, 0x20, 0xae, 0xfa, 0x32, 0x24, 0xaf, 0x09, 0x1f, 0xb4, 0xb6,
//   0x43, 0xb8, 0x62, 0x39, 0xb6, 0xb1, 0x83, 0x2c, 0x35, 0x32, 0x5b, 0xb0,
//   0x55, 0xb1, 0x4a, 0x11, 0xe3, 0xae, 0xee, 0xb0, 0x0e, 0x27, 0xb2, 0xaf,
//   0xec, 0xb1, 0xe8, 0xb1, 0x18, 0xaa, 0xa5, 0x24, 0x46, 0x9e, 0xf1, 0x2a,
//   0xc8, 0x30, 0xf3, 0x31, 0x26, 0xa4, 0x6d, 0xa1, 0x8a, 0xb1, 0xb1, 0xaa,
//   0x94, 0xb5, 0x04, 0x18, 0x56, 0x2a, 0xc7, 0xb2, 0x2a, 0x33, 0xbc, 0x2c,
//   0x58, 0xae, 0x03, 0xb0, 0xc6, 0xaa, 0xa0, 0xb2, 0x4e, 0x20, 0x1b, 0xac,
//   0x3c, 0xb7, 0x76, 0x36, 0x37, 0xaf, 0x95, 0xb4, 0x64, 0x2c, 0x3c, 0xab,
//   0x09, 0xb7, 0xb0, 0xa1, 0x92, 0xb1, 0xb1, 0xb1, 0x2f, 0x36, 0x5c, 0xb0,
//   0x46, 0x31, 0x69, 0xaa, 0x20, 0x31, 0xf3, 0x27, 0x84, 0x1c, 0x71, 0x35,
//   0xbe, 0x31, 0x4c, 0x31, 0xb2, 0xa5, 0x28, 0x36, 0xbf, 0xad, 0x83, 0x2e,
//   0x06, 0xb2, 0x49, 0x25, 0x4f, 0x9c, 0xf6, 0x30, 0x6d, 0xb4, 0x74, 0xaf,
//   0x06, 0x37, 0xa7, 0xb4, 0x32, 0x31, 0x33, 0xa4, 0xd3, 0x1f, 0x17, 0x35,
//   0xe8, 0xb1, 0x24, 0xb5, 0x1a, 0x31, 0xa6, 0x37, 0x10, 0xad, 0x9c, 0x29,
//   0x60, 0x2d, 0xa6, 0x0e, 0xb4, 0xb0, 0xdf, 0xb3, 0x39, 0xb0, 0x59, 0x25,
//   0xc2, 0x35, 0xb6, 0xb0, 0xe0, 0x32, 0xfd, 0xa0, 0x26, 0x28, 0xe7, 0xb5,
//   0x7e, 0x34, 0x0b, 0x34, 0x1e, 0xac, 0x4a, 0x10, 0x6a, 0xb0, 0x52, 0x28,
//   0xe4, 0x30, 0x2d, 0xa5, 0x52, 0xac, 0x59, 0x2f, 0xd2, 0x38, 0x52, 0x88,
//   0x59, 0xb8, 0xf1, 0xb0, 0x0a, 0x2a, 0x74, 0xb4, 0x56, 0x9d, 0xe2, 0x24,
//   0xba, 0x29, 0x79, 0x15, 0x78, 0xae, 0xea, 0xab, 0x02, 0x34, 0xf9, 0x1b,
//   0x9b, 0xb3, 0xa5, 0x24, 0x78, 0xb1, 0x26, 0x22, 0xf2, 0x2d, 0x72, 0xb0,
//   0x17, 0xb4, 0x8e, 0x33, 0x73, 0x26, 0xd4, 0xb0, 0xaf, 0x10, 0x8f, 0xa9,
//   0xff, 0x31, 0x56, 0x31, 0xad, 0x32, 0x54, 0xb7, 0x00, 0x31, 0x26, 0x2e,
//   0x44, 0xb7, 0xfb, 0x21, 0xc6, 0xac, 0x72, 0xb4, 0xd6, 0x31, 0x8c, 0xb4,
//   0x80, 0xb5, 0x0f, 0x35, 0x9a, 0xad, 0x59, 0xad, 0x3f, 0x20, 0x8a, 0x2d,
//   0x0f, 0xb8, 0x44, 0xa3, 0xad, 0xa3, 0xb6, 0x31, 0xc8, 0x34, 0x47, 0xaf,
//   0xcf, 0x32, 0x7b, 0x99, 0xb3, 0x33, 0x86, 0xb7, 0x27, 0x32, 0xbf, 0x28,
//   0x4a, 0x20, 0x59, 0x34, 0x79, 0xab, 0x6d, 0xb2, 0x6c, 0x9f, 0xee, 0x35,
//   0xe3, 0xac, 0xdc, 0xb1, 0x00, 0x2e, 0x1c, 0xb1, 0x5e, 0x31, 0xd9, 0xb0,
//   0x7b, 0x2d, 0x42, 0x98, 0xe2, 0x34, 0x2a, 0x36, 0x9b, 0xaf, 0xfd, 0x2f,
//   0x88, 0x30, 0xfc, 0x33, 0xb8, 0xb0, 0x2a, 0xb1, 0xc2, 0xa0, 0x06, 0x34,
//   0xa4, 0x38, 0x68, 0x38, 0x00, 0xb0, 0x49, 0x32, 0x90, 0x34, 0x53, 0xa4,
//   0xd4, 0xa8, 0x51, 0x16, 0x1e, 0xb4, 0xa9, 0x34, 0x77, 0xb6, 0x1f, 0xae,
//   0x49, 0xa4, 0x3f, 0x34, 0x04, 0xa4, 0x28, 0xac, 0xc2, 0x9d, 0x1a, 0xab,
//   0x5d, 0xae, 0xbd, 0xb3, 0xca, 0xa4, 0x64, 0x31, 0x0d, 0x2b, 0x13, 0xa1,
//   0x3e, 0xaf, 0x10, 0x20, 0xb2, 0x2e, 0x3d, 0xb1, 0x71, 0x33, 0xe5, 0x1f,
//   0x0f, 0xa6, 0xd6, 0xb3, 0xed, 0xa8, 0x0d, 0xac, 0xc0, 0x1c, 0x5e, 0x30,
//   0x75, 0x2e, 0x32, 0x33, 0x11, 0x33, 0xd4, 0xad, 0x98, 0xb2, 0x1c, 0xa3,
//   0x2e, 0xb4, 0x32, 0x9e, 0x5c, 0x39, 0xc6, 0xa6, 0x0e, 0x36, 0xf7, 0x36,
//   0x96, 0x2f, 0xed, 0xb1, 0x46, 0xfe, 0xff, 0xff, 0x04, 0x00, 0x00, 0x00,
//   0x10, 0x00, 0x00, 0x00, 0xcb, 0x30, 0x2c, 0x30, 0x9f, 0x30, 0xee, 0x31,
//   0xef, 0x34, 0xc4, 0xb4, 0xeb, 0xa3, 0x99, 0x35, 0x62, 0xfe, 0xff, 0xff,
//   0x04, 0x00, 0x00, 0x00, 0x10, 0x00, 0x00, 0x00, 0xa5, 0x2c, 0xfc, 0x32,
//   0x5c, 0xb5, 0x0f, 0x34, 0x66, 0xad, 0x5d, 0xa9, 0x39, 0x33, 0x45, 0xb3,
//   0x7e, 0xfe, 0xff, 0xff, 0x04, 0x00, 0x00, 0x00, 0x0c, 0x00, 0x00, 0x00,
//   0xff, 0xff, 0xff, 0xff, 0x29, 0x00, 0x00, 0x00, 0x08, 0x00, 0x00, 0x00,
//   0x96, 0xfe, 0xff, 0xff, 0x04, 0x00, 0x00, 0x00, 0x0c, 0x00, 0x00, 0x00,
//   0xff, 0xff, 0xff, 0xff, 0x25, 0x00, 0x00, 0x00, 0x08, 0x00, 0x00, 0x00,
//   0x74, 0xeb, 0xff, 0xff, 0xb2, 0xfe, 0xff, 0xff, 0x04, 0x00, 0x00, 0x00,
//   0x04, 0x00, 0x00, 0x00, 0x00, 0x00, 0x00, 0x00, 0xc2, 0xfe, 0xff, 0xff,
//   0x04, 0x00, 0x00, 0x00, 0x04, 0x00, 0x00, 0x00, 0x09, 0x00, 0x00, 0x00,
//   0xd2, 0xfe, 0xff, 0xff, 0x04, 0x00, 0x00, 0x00, 0x04, 0x00, 0x00, 0x00,
//   0x01, 0x00, 0x00, 0x00, 0xe2, 0xfe, 0xff, 0xff, 0x04, 0x00, 0x00, 0x00,
//   0x04, 0x00, 0x00, 0x00, 0x02, 0x00, 0x00, 0x00, 0xf2, 0xfe, 0xff, 0xff,
//   0x04, 0x00, 0x00, 0x00, 0x08, 0x00, 0x00, 0x00, 0xff, 0xff, 0xff, 0xff,
//   0x60, 0x00, 0x00, 0x00, 0x06, 0xff, 0xff, 0xff, 0x04, 0x00, 0x00, 0x00,
//   0x04, 0x00, 0x00, 0x00, 0xfd, 0xff, 0xff, 0xff, 0xdc, 0xeb, 0xff, 0xff,
//   0xe0, 0xeb, 0xff, 0xff, 0x0f, 0x00, 0x00, 0x00, 0x4d, 0x4c, 0x49, 0x52,
//   0x20, 0x43, 0x6f, 0x6e, 0x76, 0x65, 0x72, 0x74, 0x65, 0x64, 0x2e, 0x00,
//   0x01, 0x00, 0x00, 0x00, 0x14, 0x00, 0x00, 0x00, 0x00, 0x00, 0x0e, 0x00,
//   0x18, 0x00, 0x14, 0x00, 0x10, 0x00, 0x0c, 0x00, 0x08, 0x00, 0x04, 0x00,
//   0x0e, 0x00, 0x00, 0x00, 0x14, 0x00, 0x00, 0x00, 0x1c, 0x00, 0x00, 0x00,
//   0x38, 0x04, 0x00, 0x00, 0x3c, 0x04, 0x00, 0x00, 0x40, 0x04, 0x00, 0x00,
//   0x04, 0x00, 0x00, 0x00, 0x6d, 0x61, 0x69, 0x6e, 0x00, 0x00, 0x00, 0x00,
//   0x14, 0x00, 0x00, 0x00, 0x00, 0x04, 0x00, 0x00, 0xd4, 0x03, 0x00, 0x00,
//   0xb4, 0x03, 0x00, 0x00, 0x94, 0x03, 0x00, 0x00, 0x74, 0x03, 0x00, 0x00,
//   0x54, 0x03, 0x00, 0x00, 0x20, 0x03, 0x00, 0x00, 0xbc, 0x02, 0x00, 0x00,
//   0x94, 0x02, 0x00, 0x00, 0x54, 0x02, 0x00, 0x00, 0x0c, 0x02, 0x00, 0x00,
//   0xe4, 0x01, 0x00, 0x00, 0xb0, 0x01, 0x00, 0x00, 0x5c, 0x01, 0x00, 0x00,
//   0x34, 0x01, 0x00, 0x00, 0xfc, 0x00, 0x00, 0x00, 0xc0, 0x00, 0x00, 0x00,
//   0x70, 0x00, 0x00, 0x00, 0x2c, 0x00, 0x00, 0x00, 0x04, 0x00, 0x00, 0x00,
//   0xa6, 0xfd, 0xff, 0xff, 0x0c, 0x00, 0x00, 0x00, 0x10, 0x00, 0x00, 0x00,
//   0x03, 0x00, 0x00, 0x00, 0x01, 0x00, 0x00, 0x00, 0x23, 0x00, 0x00, 0x00,
//   0x02, 0x00, 0x00, 0x00, 0x1f, 0x00, 0x00, 0x00, 0x22, 0x00, 0x00, 0x00,
//   0x4a, 0xfd, 0xff, 0xff, 0x1c, 0x00, 0x00, 0x00, 0x00, 0x00, 0x00, 0x3b,
//   0x1c, 0x00, 0x00, 0x00, 0x20, 0x00, 0x00, 0x00, 0x08, 0x00, 0x00, 0x00,
//   0x00, 0x00, 0x06, 0x00, 0x08, 0x00, 0x04, 0x00, 0x06, 0x00, 0x00, 0x00,
//   0x03, 0x00, 0x00, 0x00, 0x01, 0x00, 0x00, 0x00, 0x22, 0x00, 0x00, 0x00,
//   0x03, 0x00, 0x00, 0x00, 0x21, 0x00, 0x00, 0x00, 0x04, 0x00, 0x00, 0x00,
//   0x05, 0x00, 0x00, 0x00, 0x8a, 0xfd, 0xff, 0xff, 0x24, 0x00, 0x00, 0x00,
//   0x00, 0x00, 0x00, 0x20, 0x24, 0x00, 0x00, 0x00, 0x28, 0x00, 0x00, 0x00,
//   0x07, 0x00, 0x00, 0x00, 0x00, 0x00, 0x0e, 0x00, 0x08, 0x00, 0x00, 0x00,
//   0x00, 0x00, 0x00, 0x00, 0x00, 0x00, 0x04, 0x00, 0x0e, 0x00, 0x00, 0x00,
//   0x01, 0x00, 0x00, 0x00, 0x01, 0x00, 0x00, 0x00, 0x21, 0x00, 0x00, 0x00,
//   0x04, 0x00, 0x00, 0x00, 0x20, 0x00, 0x00, 0x00, 0x06, 0x00, 0x00, 0x00,
//   0x07, 0x00, 0x00, 0x00, 0x07, 0x00, 0x00, 0x00, 0xd6, 0xfd, 0xff, 0xff,
//   0x1c, 0x00, 0x00, 0x00, 0x00, 0x00, 0x00, 0x37, 0x1c, 0x00, 0x00, 0x00,
//   0x20, 0x00, 0x00, 0x00, 0x06, 0x00, 0x00, 0x00, 0x00, 0x00, 0x06, 0x00,
//   0x08, 0x00, 0x07, 0x00, 0x06, 0x00, 0x00, 0x00, 0x00, 0x00, 0x00, 0x02,
//   0x01, 0x00, 0x00, 0x00, 0x20, 0x00, 0x00, 0x00, 0x01, 0x00, 0x00, 0x00,
//   0x1f, 0x00, 0x00, 0x00, 0x0e, 0xfe, 0xff, 0xff, 0x14, 0x00, 0x00, 0x00,
//   0x00, 0x00, 0x00, 0x08, 0x10, 0x00, 0x00, 0x00, 0x14, 0x00, 0x00, 0x00,
//   0x05, 0x00, 0x00, 0x00, 0x88, 0xed, 0xff, 0xff, 0x01, 0x00, 0x00, 0x00,
//   0x1f, 0x00, 0x00, 0x00, 0x03, 0x00, 0x00, 0x00, 0x1e, 0x00, 0x00, 0x00,
//   0x15, 0x00, 0x00, 0x00, 0x14, 0x00, 0x00, 0x00, 0xc2, 0xfe, 0xff, 0xff,
//   0x0c, 0x00, 0x00, 0x00, 0x10, 0x00, 0x00, 0x00, 0x03, 0x00, 0x00, 0x00,
//   0x01, 0x00, 0x00, 0x00, 0x1e, 0x00, 0x00, 0x00, 0x02, 0x00, 0x00, 0x00,
//   0x1d, 0x00, 0x00, 0x00, 0x02, 0x00, 0x00, 0x00, 0x66, 0xfe, 0xff, 0xff,
//   0x24, 0x00, 0x00, 0x00, 0x00, 0x00, 0x00, 0x05, 0x34, 0x00, 0x00, 0x00,
//   0x38, 0x00, 0x00, 0x00, 0x04, 0x00, 0x00, 0x00, 0x00, 0x00, 0x0e, 0x00,
//   0x18, 0x00, 0x17, 0x00, 0x10, 0x00, 0x0c, 0x00, 0x08, 0x00, 0x04, 0x00,
//   0x0e, 0x00, 0x00, 0x00, 0x03, 0x00, 0x00, 0x00, 0x01, 0x00, 0x00, 0x00,
//   0x03, 0x00, 0x00, 0x00, 0x01, 0x00, 0x00, 0x00, 0x00, 0x00, 0x00, 0x01,
//   0x01, 0x00, 0x00, 0x00, 0x1d, 0x00, 0x00, 0x00, 0x01, 0x00, 0x00, 0x00,
//   0x1c, 0x00, 0x00, 0x00, 0xb6, 0xfe, 0xff, 0xff, 0x14, 0x00, 0x00, 0x00,
//   0x00, 0x00, 0x00, 0x34, 0x10, 0x00, 0x00, 0x00, 0x14, 0x00, 0x00, 0x00,
//   0x01, 0x00, 0x00, 0x00, 0x30, 0xee, 0xff, 0xff, 0x01, 0x00, 0x00, 0x00,
//   0x1c, 0x00, 0x00, 0x00, 0x02, 0x00, 0x00, 0x00, 0x1b, 0x00, 0x00, 0x00,
//   0x03, 0x00, 0x00, 0x00, 0x66, 0xff, 0xff, 0xff, 0x0c, 0x00, 0x00, 0x00,
//   0x10, 0x00, 0x00, 0x00, 0x03, 0x00, 0x00, 0x00, 0x01, 0x00, 0x00, 0x00,
//   0x1b, 0x00, 0x00, 0x00, 0x02, 0x00, 0x00, 0x00, 0x1a, 0x00, 0x00, 0x00,
//   0x08, 0x00, 0x00, 0x00, 0x0a, 0xff, 0xff, 0xff, 0x14, 0x00, 0x00, 0x00,
//   0x00, 0x00, 0x00, 0x01, 0x20, 0x00, 0x00, 0x00, 0x24, 0x00, 0x00, 0x00,
//   0x02, 0x00, 0x00, 0x00, 0x5c, 0xff, 0xff, 0xff, 0x00, 0x00, 0x00, 0x01,
//   0x01, 0x00, 0x00, 0x00, 0x01, 0x00, 0x00, 0x00, 0x00, 0x00, 0x00, 0x01,
//   0x01, 0x00, 0x00, 0x00, 0x1a, 0x00, 0x00, 0x00, 0x03, 0x00, 0x00, 0x00,
//   0x19, 0x00, 0x00, 0x00, 0x13, 0x00, 0x00, 0x00, 0x11, 0x00, 0x00, 0x00,
//   0x4e, 0xff, 0xff, 0xff, 0x14, 0x00, 0x00, 0x00, 0x00, 0x00, 0x00, 0x34,
//   0x10, 0x00, 0x00, 0x00, 0x14, 0x00, 0x00, 0x00, 0x01, 0x00, 0x00, 0x00,
//   0xc8, 0xee, 0xff, 0xff, 0x01, 0x00, 0x00, 0x00, 0x19, 0x00, 0x00, 0x00,
//   0x02, 0x00, 0x00, 0x00, 0x18, 0x00, 0x00, 0x00, 0x01, 0x00, 0x00, 0x00,
//   0x00, 0x00, 0x0a, 0x00, 0x10, 0x00, 0x0c, 0x00, 0x08, 0x00, 0x04, 0x00,
//   0x0a, 0x00, 0x00, 0x00, 0x0c, 0x00, 0x00, 0x00, 0x10, 0x00, 0x00, 0x00,
//   0x03, 0x00, 0x00, 0x00, 0x01, 0x00, 0x00, 0x00, 0x18, 0x00, 0x00, 0x00,
//   0x02, 0x00, 0x00, 0x00, 0x17, 0x00, 0x00, 0x00, 0x09, 0x00, 0x00, 0x00,
//   0xae, 0xff, 0xff, 0xff, 0x20, 0x00, 0x00, 0x00, 0x00, 0x00, 0x00, 0x01,
//   0x2c, 0x00, 0x00, 0x00, 0x30, 0x00, 0x00, 0x00, 0x02, 0x00, 0x00, 0x00,
//   0x0c, 0x00, 0x14, 0x00, 0x13, 0x00, 0x0c, 0x00, 0x08, 0x00, 0x07, 0x00,
//   0x0c, 0x00, 0x00, 0x00, 0x00, 0x00, 0x00, 0x01, 0x01, 0x00, 0x00, 0x00,
//   0x01, 0x00, 0x00, 0x00, 0x00, 0x00, 0x00, 0x01, 0x01, 0x00, 0x00, 0x00,
//   0x17, 0x00, 0x00, 0x00, 0x03, 0x00, 0x00, 0x00, 0x16, 0x00, 0x00, 0x00,
//   0x12, 0x00, 0x00, 0x00, 0x10, 0x00, 0x00, 0x00, 0x00, 0x00, 0x0e, 0x00,
//   0x18, 0x00, 0x14, 0x00, 0x10, 0x00, 0x0c, 0x00, 0x0b, 0x00, 0x04, 0x00,
//   0x0e, 0x00, 0x00, 0x00, 0x14, 0x00, 0x00, 0x00, 0x00, 0x00, 0x00, 0x34,
//   0x10, 0x00, 0x00, 0x00, 0x14, 0x00, 0x00, 0x00, 0x01, 0x00, 0x00, 0x00,
//   0x88, 0xef, 0xff, 0xff, 0x01, 0x00, 0x00, 0x00, 0x16, 0x00, 0x00, 0x00,
//   0x02, 0x00, 0x00, 0x00, 0x00, 0x00, 0x00, 0x00, 0x01, 0x00, 0x00, 0x00,
//   0x72, 0xff, 0xff, 0xff, 0x08, 0x00, 0x00, 0x00, 0x0c, 0x00, 0x00, 0x00,
//   0x01, 0x00, 0x00, 0x00, 0x15, 0x00, 0x00, 0x00, 0x01, 0x00, 0x00, 0x00,
//   0x0f, 0x00, 0x00, 0x00, 0x8e, 0xff, 0xff, 0xff, 0x08, 0x00, 0x00, 0x00,
//   0x0c, 0x00, 0x00, 0x00, 0x01, 0x00, 0x00, 0x00, 0x14, 0x00, 0x00, 0x00,
//   0x01, 0x00, 0x00, 0x00, 0x0e, 0x00, 0x00, 0x00, 0xaa, 0xff, 0xff, 0xff,
//   0x08, 0x00, 0x00, 0x00, 0x0c, 0x00, 0x00, 0x00, 0x01, 0x00, 0x00, 0x00,
//   0x13, 0x00, 0x00, 0x00, 0x01, 0x00, 0x00, 0x00, 0x0d, 0x00, 0x00, 0x00,
//   0xc6, 0xff, 0xff, 0xff, 0x08, 0x00, 0x00, 0x00, 0x0c, 0x00, 0x00, 0x00,
//   0x01, 0x00, 0x00, 0x00, 0x12, 0x00, 0x00, 0x00, 0x01, 0x00, 0x00, 0x00,
//   0x0c, 0x00, 0x00, 0x00, 0xe2, 0xff, 0xff, 0xff, 0x08, 0x00, 0x00, 0x00,
//   0x0c, 0x00, 0x00, 0x00, 0x01, 0x00, 0x00, 0x00, 0x11, 0x00, 0x00, 0x00,
//   0x01, 0x00, 0x00, 0x00, 0x0b, 0x00, 0x00, 0x00, 0x00, 0x00, 0x0a, 0x00,
//   0x0c, 0x00, 0x00, 0x00, 0x08, 0x00, 0x04, 0x00, 0x0a, 0x00, 0x00, 0x00,
//   0x08, 0x00, 0x00, 0x00, 0x0c, 0x00, 0x00, 0x00, 0x01, 0x00, 0x00, 0x00,
//   0x10, 0x00, 0x00, 0x00, 0x01, 0x00, 0x00, 0x00, 0x0a, 0x00, 0x00, 0x00,
//   0x01, 0x00, 0x00, 0x00, 0x23, 0x00, 0x00, 0x00, 0x01, 0x00, 0x00, 0x00,
//   0x00, 0x00, 0x00, 0x00, 0x24, 0x00, 0x00, 0x00, 0x6c, 0x0f, 0x00, 0x00,
//   0xfc, 0x0e, 0x00, 0x00, 0x94, 0x0e, 0x00, 0x00, 0x3c, 0x0e, 0x00, 0x00,
//   0xe8, 0x0d, 0x00, 0x00, 0x94, 0x0d, 0x00, 0x00, 0x38, 0x0d, 0x00, 0x00,
//   0xd8, 0x0c, 0x00, 0x00, 0x80, 0x0c, 0x00, 0x00, 0x28, 0x0c, 0x00, 0x00,
//   0xc8, 0x0b, 0x00, 0x00, 0x68, 0x0b, 0x00, 0x00, 0x0c, 0x0b, 0x00, 0x00,
//   0xb0, 0x0a, 0x00, 0x00, 0x54, 0x0a, 0x00, 0x00, 0x04, 0x0a, 0x00, 0x00,
//   0xa8, 0x09, 0x00, 0x00, 0x34, 0x09, 0x00, 0x00, 0xdc, 0x08, 0x00, 0x00,
//   0x84, 0x08, 0x00, 0x00, 0x28, 0x08, 0x00, 0x00, 0xd8, 0x07, 0x00, 0x00,
//   0x60, 0x07, 0x00, 0x00, 0x48, 0x06, 0x00, 0x00, 0x74, 0x05, 0x00, 0x00,
//   0xfc, 0x04, 0x00, 0x00, 0x04, 0x04, 0x00, 0x00, 0x30, 0x03, 0x00, 0x00,
//   0xb8, 0x02, 0x00, 0x00, 0x40, 0x02, 0x00, 0x00, 0xe0, 0x01, 0x00, 0x00,
//   0x64, 0x01, 0x00, 0x00, 0x14, 0x01, 0x00, 0x00, 0xc0, 0x00, 0x00, 0x00,
//   0x68, 0x00, 0x00, 0x00, 0x04, 0x00, 0x00, 0x00, 0x3a, 0xf1, 0xff, 0xff,
//   0x00, 0x00, 0x00, 0x01, 0x14, 0x00, 0x00, 0x00, 0x20, 0x00, 0x00, 0x00,
//   0x20, 0x00, 0x00, 0x00, 0x24, 0x00, 0x00, 0x00, 0x38, 0x00, 0x00, 0x00,
//   0x03, 0x00, 0x00, 0x00, 0xff, 0xff, 0xff, 0xff, 0x01, 0x00, 0x00, 0x00,
//   0x09, 0x00, 0x00, 0x00, 0x24, 0xf1, 0xff, 0xff, 0x19, 0x00, 0x00, 0x00,
//   0x53, 0x74, 0x61, 0x74, 0x65, 0x66, 0x75, 0x6c, 0x50, 0x61, 0x72, 0x74,
//   0x69, 0x74, 0x69, 0x6f, 0x6e, 0x65, 0x64, 0x43, 0x61, 0x6c, 0x6c, 0x3a,
//   0x30, 0x00, 0x00, 0x00, 0x03, 0x00, 0x00, 0x00, 0x01, 0x00, 0x00, 0x00,
//   0x01, 0x00, 0x00, 0x00, 0x09, 0x00, 0x00, 0x00, 0x06, 0xf2, 0xff, 0xff,
//   0x00, 0x00, 0x00, 0x01, 0x14, 0x00, 0x00, 0x00, 0x14, 0x00, 0x00, 0x00,
//   0x23, 0x00, 0x00, 0x00, 0x00, 0x00, 0x00, 0x02, 0x34, 0x00, 0x00, 0x00,
//   0x74, 0xf1, 0xff, 0xff, 0x24, 0x00, 0x00, 0x00, 0x73, 0x65, 0x71, 0x75,
//   0x65, 0x6e, 0x74, 0x69, 0x61, 0x6c, 0x5f, 0x31, 0x2f, 0x72, 0x65, 0x73,
//   0x68, 0x61, 0x70, 0x65, 0x5f, 0x31, 0x2f, 0x52, 0x65, 0x73, 0x68, 0x61,
//   0x70, 0x65, 0x2f, 0x73, 0x68, 0x61, 0x70, 0x65, 0x00, 0x00, 0x00, 0x00,
//   0x01, 0x00, 0x00, 0x00, 0x03, 0x00, 0x00, 0x00, 0x5a, 0xf2, 0xff, 0xff,
//   0x00, 0x00, 0x00, 0x01, 0x14, 0x00, 0x00, 0x00, 0x14, 0x00, 0x00, 0x00,
//   0x22, 0x00, 0x00, 0x00, 0x00, 0x00, 0x00, 0x02, 0x34, 0x00, 0x00, 0x00,
//   0xc8, 0xf1, 0xff, 0xff, 0x24, 0x00, 0x00, 0x00, 0x73, 0x65, 0x71, 0x75,
//   0x65, 0x6e, 0x74, 0x69, 0x61, 0x6c, 0x5f, 0x31, 0x2f, 0x72, 0x65, 0x73,
//   0x68, 0x61, 0x70, 0x65, 0x5f, 0x31, 0x2f, 0x73, 0x74, 0x72, 0x69, 0x64,
//   0x65, 0x64, 0x5f, 0x73, 0x6c, 0x69, 0x63, 0x65, 0x00, 0x00, 0x00, 0x00,
//   0x00, 0x00, 0x00, 0x00, 0xaa, 0xf2, 0xff, 0xff, 0x00, 0x00, 0x00, 0x01,
//   0x14, 0x00, 0x00, 0x00, 0x14, 0x00, 0x00, 0x00, 0x21, 0x00, 0x00, 0x00,
//   0x00, 0x00, 0x00, 0x02, 0x2c, 0x00, 0x00, 0x00, 0x18, 0xf2, 0xff, 0xff,
//   0x1c, 0x00, 0x00, 0x00, 0x73, 0x65, 0x71, 0x75, 0x65, 0x6e, 0x74, 0x69,
//   0x61, 0x6c, 0x5f, 0x31, 0x2f, 0x72, 0x65, 0x73, 0x68, 0x61, 0x70, 0x65,
//   0x5f, 0x31, 0x2f, 0x53, 0x68, 0x61, 0x70, 0x65, 0x00, 0x00, 0x00, 0x00,
//   0x01, 0x00, 0x00, 0x00, 0x02, 0x00, 0x00, 0x00, 0x8a, 0xf2, 0xff, 0xff,
//   0x00, 0x00, 0x00, 0x01, 0x14, 0x00, 0x00, 0x00, 0x1c, 0x00, 0x00, 0x00,
//   0x1c, 0x00, 0x00, 0x00, 0x20, 0x00, 0x00, 0x00, 0x54, 0x00, 0x00, 0x00,
//   0x02, 0x00, 0x00, 0x00, 0xff, 0xff, 0xff, 0xff, 0x09, 0x00, 0x00, 0x00,
//   0x70, 0xf2, 0xff, 0xff, 0x38, 0x00, 0x00, 0x00, 0x73, 0x65, 0x71, 0x75,
//   0x65, 0x6e, 0x74, 0x69, 0x61, 0x6c, 0x5f, 0x31, 0x2f, 0x64, 0x65, 0x6e,
//   0x73, 0x65, 0x5f, 0x31, 0x2f, 0x4d, 0x61, 0x74, 0x4d, 0x75, 0x6c, 0x3b,
//   0x73, 0x65, 0x71, 0x75, 0x65, 0x6e, 0x74, 0x69, 0x61, 0x6c, 0x5f, 0x31,
//   0x2f, 0x64, 0x65, 0x6e, 0x73, 0x65, 0x5f, 0x31, 0x2f, 0x42, 0x69, 0x61,
//   0x73, 0x41, 0x64, 0x64, 0x00, 0x00, 0x00, 0x00, 0x02, 0x00, 0x00, 0x00,
//   0x01, 0x00, 0x00, 0x00, 0x09, 0x00, 0x00, 0x00, 0x02, 0xf3, 0xff, 0xff,
//   0x00, 0x00, 0x00, 0x01, 0x14, 0x00, 0x00, 0x00, 0x1c, 0x00, 0x00, 0x00,
//   0x1c, 0x00, 0x00, 0x00, 0x1f, 0x00, 0x00, 0x00, 0x38, 0x00, 0x00, 0x00,
//   0x02, 0x00, 0x00, 0x00, 0xff, 0xff, 0xff, 0xff, 0x60, 0x00, 0x00, 0x00,
//   0xe8, 0xf2, 0xff, 0xff, 0x1e, 0x00, 0x00, 0x00, 0x73, 0x65, 0x71, 0x75,
//   0x65, 0x6e, 0x74, 0x69, 0x61, 0x6c, 0x5f, 0x31, 0x2f, 0x66, 0x6c, 0x61,
//   0x74, 0x74, 0x65, 0x6e, 0x5f, 0x31, 0x2f, 0x52, 0x65, 0x73, 0x68, 0x61,
//   0x70, 0x65, 0x00, 0x00, 0x02, 0x00, 0x00, 0x00, 0x01, 0x00, 0x00, 0x00,
//   0x60, 0x00, 0x00, 0x00, 0x5e, 0xf3, 0xff, 0xff, 0x00, 0x00, 0x00, 0x01,
//   0x14, 0x00, 0x00, 0x00, 0x24, 0x00, 0x00, 0x00, 0x24, 0x00, 0x00, 0x00,
//   0x1e, 0x00, 0x00, 0x00, 0x48, 0x00, 0x00, 0x00, 0x04, 0x00, 0x00, 0x00,
//   0xff, 0xff, 0xff, 0xff, 0x0c, 0x00, 0x00, 0x00, 0x01, 0x00, 0x00, 0x00,
//   0x08, 0x00, 0x00, 0x00, 0x4c, 0xf3, 0xff, 0xff, 0x24, 0x00, 0x00, 0x00,
//   0x73, 0x65, 0x71, 0x75, 0x65, 0x6e, 0x74, 0x69, 0x61, 0x6c, 0x5f, 0x31,
//   0x2f, 0x6d, 0x61, 0x78, 0x5f, 0x70, 0x6f, 0x6f, 0x6c, 0x69, 0x6e, 0x67,
//   0x31, 0x64, 0x5f, 0x31, 0x2f, 0x4d, 0x61, 0x78, 0x50, 0x6f, 0x6f, 0x6c,
//   0x00, 0x00, 0x00, 0x00, 0x04, 0x00, 0x00, 0x00, 0x01, 0x00, 0x00, 0x00,
//   0x0c, 0x00, 0x00, 0x00, 0x01, 0x00, 0x00, 0x00, 0x08, 0x00, 0x00, 0x00,
//   0xd2, 0xf3, 0xff, 0xff, 0x00, 0x00, 0x00, 0x01, 0x14, 0x00, 0x00, 0x00,
//   0x24, 0x00, 0x00, 0x00, 0x24, 0x00, 0x00, 0x00, 0x1d, 0x00, 0x00, 0x00,
//   0x48, 0x00, 0x00, 0x00, 0x04, 0x00, 0x00, 0x00, 0xff, 0xff, 0xff, 0xff,
//   0x25, 0x00, 0x00, 0x00, 0x01, 0x00, 0x00, 0x00, 0x08, 0x00, 0x00, 0x00,
//   0xc0, 0xf3, 0xff, 0xff, 0x27, 0x00, 0x00, 0x00, 0x73, 0x65, 0x71, 0x75,
//   0x65, 0x6e, 0x74, 0x69, 0x61, 0x6c, 0x5f, 0x31, 0x2f, 0x6d, 0x61, 0x78,
//   0x5f, 0x70, 0x6f, 0x6f, 0x6c, 0x69, 0x6e, 0x67, 0x31, 0x64, 0x5f, 0x31,
//   0x2f, 0x45, 0x78, 0x70, 0x61, 0x6e, 0x64, 0x44, 0x69, 0x6d, 0x73, 0x00,
//   0x04, 0x00, 0x00, 0x00, 0x01, 0x00, 0x00, 0x00, 0x25, 0x00, 0x00, 0x00,
//   0x01, 0x00, 0x00, 0x00, 0x08, 0x00, 0x00, 0x00, 0x46, 0xf4, 0xff, 0xff,
//   0x00, 0x00, 0x00, 0x01, 0x14, 0x00, 0x00, 0x00, 0x20, 0x00, 0x00, 0x00,
//   0x20, 0x00, 0x00, 0x00, 0x1c, 0x00, 0x00, 0x00, 0xa8, 0x00, 0x00, 0x00,
//   0x03, 0x00, 0x00, 0x00, 0xff, 0xff, 0xff, 0xff, 0x25, 0x00, 0x00, 0x00,
//   0x08, 0x00, 0x00, 0x00, 0x30, 0xf4, 0xff, 0xff, 0x8a, 0x00, 0x00, 0x00,
//   0x73, 0x65, 0x71, 0x75, 0x65, 0x6e, 0x74, 0x69, 0x61, 0x6c, 0x5f, 0x31,
//   0x2f, 0x63, 0x6f, 0x6e, 0x76, 0x31, 0x64, 0x5f, 0x33, 0x2f, 0x52, 0x65,
//   0x6c, 0x75, 0x3b, 0x73, 0x65, 0x71, 0x75, 0x65, 0x6e, 0x74, 0x69, 0x61,
//   0x6c, 0x5f, 0x31, 0x2f, 0x63, 0x6f, 0x6e, 0x76, 0x31, 0x64, 0x5f, 0x33,
//   0x2f, 0x42, 0x69, 0x61, 0x73, 0x41, 0x64, 0x64, 0x3b, 0x73, 0x65, 0x71,
//   0x75, 0x65, 0x6e, 0x74, 0x69, 0x61, 0x6c, 0x5f, 0x31, 0x2f, 0x63, 0x6f,
//   0x6e, 0x76, 0x31, 0x64, 0x5f, 0x33, 0x2f, 0x43, 0x6f, 0x6e, 0x76, 0x31,
//   0x44, 0x2f, 0x53, 0x71, 0x75, 0x65, 0x65, 0x7a, 0x65, 0x3b, 0x73, 0x65,
//   0x71, 0x75, 0x65, 0x6e, 0x74, 0x69, 0x61, 0x6c, 0x5f, 0x31, 0x2f, 0x63,
//   0x6f, 0x6e, 0x76, 0x31, 0x64, 0x5f, 0x33, 0x2f, 0x42, 0x69, 0x61, 0x73,
//   0x41, 0x64, 0x64, 0x2f, 0x52, 0x65, 0x61, 0x64, 0x56, 0x61, 0x72, 0x69,
//   0x61, 0x62, 0x6c, 0x65, 0x4f, 0x70, 0x00, 0x00, 0x03, 0x00, 0x00, 0x00,
//   0x01, 0x00, 0x00, 0x00, 0x25, 0x00, 0x00, 0x00, 0x08, 0x00, 0x00, 0x00,
//   0x16, 0xf5, 0xff, 0xff, 0x00, 0x00, 0x00, 0x01, 0x14, 0x00, 0x00, 0x00,
//   0x24, 0x00, 0x00, 0x00, 0x24, 0x00, 0x00, 0x00, 0x1b, 0x00, 0x00, 0x00,
//   0xc8, 0x00, 0x00, 0x00, 0x04, 0x00, 0x00, 0x00, 0xff, 0xff, 0xff, 0xff,
//   0x01, 0x00, 0x00, 0x00, 0x25, 0x00, 0x00, 0x00, 0x08, 0x00, 0x00, 0x00,
//   0x04, 0xf5, 0xff, 0xff, 0xa7, 0x00, 0x00, 0x00, 0x73, 0x65, 0x71, 0x75,
//   0x65, 0x6e, 0x74, 0x69, 0x61, 0x6c, 0x5f, 0x31, 0x2f, 0x63, 0x6f, 0x6e,
//   0x76, 0x31, 0x64, 0x5f, 0x33, 0x2f, 0x52, 0x65, 0x6c, 0x75, 0x3b, 0x73,
//   0x65, 0x71, 0x75, 0x65, 0x6e, 0x74, 0x69, 0x61, 0x6c, 0x5f, 0x31, 0x2f,
//   0x63, 0x6f, 0x6e, 0x76, 0x31, 0x64, 0x5f, 0x33, 0x2f, 0x42, 0x69, 0x61,
//   0x73, 0x41, 0x64, 0x64, 0x3b, 0x73, 0x65, 0x71, 0x75, 0x65, 0x6e, 0x74,
//   0x69, 0x61, 0x6c, 0x5f, 0x31, 0x2f, 0x63, 0x6f, 0x6e, 0x76, 0x31, 0x64,
//   0x5f, 0x33, 0x2f, 0x43, 0x6f, 0x6e, 0x76, 0x31, 0x44, 0x2f, 0x53, 0x71,
//   0x75, 0x65, 0x65, 0x7a, 0x65, 0x3b, 0x73, 0x65, 0x71, 0x75, 0x65, 0x6e,
//   0x74, 0x69, 0x61, 0x6c, 0x5f, 0x31, 0x2f, 0x63, 0x6f, 0x6e, 0x76, 0x31,
//   0x64, 0x5f, 0x33, 0x2f, 0x42, 0x69, 0x61, 0x73, 0x41, 0x64, 0x64, 0x2f,
//   0x52, 0x65, 0x61, 0x64, 0x56, 0x61, 0x72, 0x69, 0x61, 0x62, 0x6c, 0x65,
//   0x4f, 0x70, 0x3b, 0x73, 0x65, 0x71, 0x75, 0x65, 0x6e, 0x74, 0x69, 0x61,
//   0x6c, 0x5f, 0x31, 0x2f, 0x63, 0x6f, 0x6e, 0x76, 0x31, 0x64, 0x5f, 0x33,
//   0x2f, 0x43, 0x6f, 0x6e, 0x76, 0x31, 0x44, 0x00, 0x04, 0x00, 0x00, 0x00,
//   0x01, 0x00, 0x00, 0x00, 0x01, 0x00, 0x00, 0x00, 0x25, 0x00, 0x00, 0x00,
//   0x08, 0x00, 0x00, 0x00, 0x0a, 0xf6, 0xff, 0xff, 0x00, 0x00, 0x00, 0x01,
//   0x14, 0x00, 0x00, 0x00, 0x24, 0x00, 0x00, 0x00, 0x24, 0x00, 0x00, 0x00,
//   0x1a, 0x00, 0x00, 0x00, 0x48, 0x00, 0x00, 0x00, 0x04, 0x00, 0x00, 0x00,
//   0xff, 0xff, 0xff, 0xff, 0x01, 0x00, 0x00, 0x00, 0x29, 0x00, 0x00, 0x00,
//   0x08, 0x00, 0x00, 0x00, 0xf8, 0xf5, 0xff, 0xff, 0x27, 0x00, 0x00, 0x00,
//   0x73, 0x65, 0x71, 0x75, 0x65, 0x6e, 0x74, 0x69, 0x61, 0x6c, 0x5f, 0x31,
//   0x2f, 0x63, 0x6f, 0x6e, 0x76, 0x31, 0x64, 0x5f, 0x33, 0x2f, 0x43, 0x6f,
//   0x6e, 0x76, 0x31, 0x44, 0x2f, 0x45, 0x78, 0x70, 0x61, 0x6e, 0x64, 0x44,
//   0x69, 0x6d, 0x73, 0x00, 0x04, 0x00, 0x00, 0x00, 0x01, 0x00, 0x00, 0x00,
//   0x01, 0x00, 0x00, 0x00, 0x29, 0x00, 0x00, 0x00, 0x08, 0x00, 0x00, 0x00,
//   0x7e, 0xf6, 0xff, 0xff, 0x00, 0x00, 0x00, 0x01, 0x14, 0x00, 0x00, 0x00,
//   0x20, 0x00, 0x00, 0x00, 0x20, 0x00, 0x00, 0x00, 0x19, 0x00, 0x00, 0x00,
//   0xa8, 0x00, 0x00, 0x00, 0x03, 0x00, 0x00, 0x00, 0xff, 0xff, 0xff, 0xff,
//   0x29, 0x00, 0x00, 0x00, 0x08, 0x00, 0x00, 0x00, 0x68, 0xf6, 0xff, 0xff,
//   0x8a, 0x00, 0x00, 0x00, 0x73, 0x65, 0x71, 0x75, 0x65, 0x6e, 0x74, 0x69,
//   0x61, 0x6c, 0x5f, 0x31, 0x2f, 0x63, 0x6f, 0x6e, 0x76, 0x31, 0x64, 0x5f,
//   0x32, 0x2f, 0x52, 0x65, 0x6c, 0x75, 0x3b, 0x73, 0x65, 0x71, 0x75, 0x65,
//   0x6e, 0x74, 0x69, 0x61, 0x6c, 0x5f, 0x31, 0x2f, 0x63, 0x6f, 0x6e, 0x76,
//   0x31, 0x64, 0x5f, 0x32, 0x2f, 0x42, 0x69, 0x61, 0x73, 0x41, 0x64, 0x64,
//   0x3b, 0x73, 0x65, 0x71, 0x75, 0x65, 0x6e, 0x74, 0x69, 0x61, 0x6c, 0x5f,
//   0x31, 0x2f, 0x63, 0x6f, 0x6e, 0x76, 0x31, 0x64, 0x5f, 0x32, 0x2f, 0x43,
//   0x6f, 0x6e, 0x76, 0x31, 0x44, 0x2f, 0x53, 0x71, 0x75, 0x65, 0x65, 0x7a,
//   0x65, 0x3b, 0x73, 0x65, 0x71, 0x75, 0x65, 0x6e, 0x74, 0x69, 0x61, 0x6c,
//   0x5f, 0x31, 0x2f, 0x63, 0x6f, 0x6e, 0x76, 0x31, 0x64, 0x5f, 0x32, 0x2f,
//   0x42, 0x69, 0x61, 0x73, 0x41, 0x64, 0x64, 0x2f, 0x52, 0x65, 0x61, 0x64,
//   0x56, 0x61, 0x72, 0x69, 0x61, 0x62, 0x6c, 0x65, 0x4f, 0x70, 0x00, 0x00,
//   0x03, 0x00, 0x00, 0x00, 0x01, 0x00, 0x00, 0x00, 0x29, 0x00, 0x00, 0x00,
//   0x08, 0x00, 0x00, 0x00, 0x4e, 0xf7, 0xff, 0xff, 0x00, 0x00, 0x00, 0x01,
//   0x14, 0x00, 0x00, 0x00, 0x24, 0x00, 0x00, 0x00, 0x24, 0x00, 0x00, 0x00,
//   0x18, 0x00, 0x00, 0x00, 0xe8, 0x00, 0x00, 0x00, 0x04, 0x00, 0x00, 0x00,
//   0xff, 0xff, 0xff, 0xff, 0x01, 0x00, 0x00, 0x00, 0x29, 0x00, 0x00, 0x00,
//   0x08, 0x00, 0x00, 0x00, 0x3c, 0xf7, 0xff, 0xff, 0xc4, 0x00, 0x00, 0x00,
//   0x73, 0x65, 0x71, 0x75, 0x65, 0x6e, 0x74, 0x69, 0x61, 0x6c, 0x5f, 0x31,
//   0x2f, 0x63, 0x6f, 0x6e, 0x76, 0x31, 0x64, 0x5f, 0x32, 0x2f, 0x52, 0x65,
//   0x6c, 0x75, 0x3b, 0x73, 0x65, 0x71, 0x75, 0x65, 0x6e, 0x74, 0x69, 0x61,
//   0x6c, 0x5f, 0x31, 0x2f, 0x63, 0x6f, 0x6e, 0x76, 0x31, 0x64, 0x5f, 0x32,
//   0x2f, 0x42, 0x69, 0x61, 0x73, 0x41, 0x64, 0x64, 0x3b, 0x73, 0x65, 0x71,
//   0x75, 0x65, 0x6e, 0x74, 0x69, 0x61, 0x6c, 0x5f, 0x31, 0x2f, 0x63, 0x6f,
//   0x6e, 0x76, 0x31, 0x64, 0x5f, 0x32, 0x2f, 0x43, 0x6f, 0x6e, 0x76, 0x31,
//   0x44, 0x2f, 0x53, 0x71, 0x75, 0x65, 0x65, 0x7a, 0x65, 0x3b, 0x73, 0x65,
//   0x71, 0x75, 0x65, 0x6e, 0x74, 0x69, 0x61, 0x6c, 0x5f, 0x31, 0x2f, 0x63,
//   0x6f, 0x6e, 0x76, 0x31, 0x64, 0x5f, 0x32, 0x2f, 0x42, 0x69, 0x61, 0x73,
//   0x41, 0x64, 0x64, 0x2f, 0x52, 0x65, 0x61, 0x64, 0x56, 0x61, 0x72, 0x69,
//   0x61, 0x62, 0x6c, 0x65, 0x4f, 0x70, 0x3b, 0x73, 0x65, 0x71, 0x75, 0x65,
//   0x6e, 0x74, 0x69, 0x61, 0x6c, 0x5f, 0x31, 0x2f, 0x63, 0x6f, 0x6e, 0x76,
//   0x31, 0x64, 0x5f, 0x33, 0x2f, 0x43, 0x6f, 0x6e, 0x76, 0x31, 0x44, 0x3b,
//   0x73, 0x65, 0x71, 0x75, 0x65, 0x6e, 0x74, 0x69, 0x61, 0x6c, 0x5f, 0x31,
//   0x2f, 0x63, 0x6f, 0x6e, 0x76, 0x31, 0x64, 0x5f, 0x32, 0x2f, 0x43, 0x6f,
//   0x6e, 0x76, 0x31, 0x44, 0x00, 0x00, 0x00, 0x00, 0x04, 0x00, 0x00, 0x00,
//   0x01, 0x00, 0x00, 0x00, 0x01, 0x00, 0x00, 0x00, 0x29, 0x00, 0x00, 0x00,
//   0x08, 0x00, 0x00, 0x00, 0x62, 0xf8, 0xff, 0xff, 0x00, 0x00, 0x00, 0x01,
//   0x14, 0x00, 0x00, 0x00, 0x24, 0x00, 0x00, 0x00, 0x24, 0x00, 0x00, 0x00,
//   0x17, 0x00, 0x00, 0x00, 0x48, 0x00, 0x00, 0x00, 0x04, 0x00, 0x00, 0x00,
//   0xff, 0xff, 0xff, 0xff, 0x01, 0x00, 0x00, 0x00, 0x2d, 0x00, 0x00, 0x00,
//   0x09, 0x00, 0x00, 0x00, 0x50, 0xf8, 0xff, 0xff, 0x27, 0x00, 0x00, 0x00,
//   0x73, 0x65, 0x71, 0x75, 0x65, 0x6e, 0x74, 0x69, 0x61, 0x6c, 0x5f, 0x31,
//   0x2f, 0x63, 0x6f, 0x6e, 0x76, 0x31, 0x64, 0x5f, 0x32, 0x2f, 0x43, 0x6f,
//   0x6e, 0x76, 0x31, 0x44, 0x2f, 0x45, 0x78, 0x70, 0x61, 0x6e, 0x64, 0x44,
//   0x69, 0x6d, 0x73, 0x00, 0x04, 0x00, 0x00, 0x00, 0x01, 0x00, 0x00, 0x00,
//   0x01, 0x00, 0x00, 0x00, 0x2d, 0x00, 0x00, 0x00, 0x09, 0x00, 0x00, 0x00,
//   0x5a, 0xfe, 0xff, 0xff, 0x00, 0x00, 0x00, 0x01, 0x10, 0x00, 0x00, 0x00,
//   0x10, 0x00, 0x00, 0x00, 0x16, 0x00, 0x00, 0x00, 0x2c, 0x00, 0x00, 0x00,
//   0xac, 0xf8, 0xff, 0xff, 0x1c, 0x00, 0x00, 0x00, 0x73, 0x65, 0x71, 0x75,
//   0x65, 0x6e, 0x74, 0x69, 0x61, 0x6c, 0x5f, 0x31, 0x2f, 0x64, 0x65, 0x6e,
//   0x73, 0x65, 0x5f, 0x31, 0x2f, 0x4d, 0x61, 0x74, 0x4d, 0x75, 0x6c, 0x31,
//   0x00, 0x00, 0x00, 0x00, 0x02, 0x00, 0x00, 0x00, 0x09, 0x00, 0x00, 0x00,
//   0x60, 0x00, 0x00, 0x00, 0xa6, 0xfe, 0xff, 0xff, 0x00, 0x00, 0x00, 0x01,
//   0x10, 0x00, 0x00, 0x00, 0x10, 0x00, 0x00, 0x00, 0x15, 0x00, 0x00, 0x00,
//   0x3c, 0x00, 0x00, 0x00, 0xf8, 0xf8, 0xff, 0xff, 0x2c, 0x00, 0x00, 0x00,
//   0x73, 0x65, 0x71, 0x75, 0x65, 0x6e, 0x74, 0x69, 0x61, 0x6c, 0x5f, 0x31,
//   0x2f, 0x64, 0x65, 0x6e, 0x73, 0x65, 0x5f, 0x31, 0x2f, 0x42, 0x69, 0x61,
//   0x73, 0x41, 0x64, 0x64, 0x2f, 0x52, 0x65, 0x61, 0x64, 0x56, 0x61, 0x72,
//   0x69, 0x61, 0x62, 0x6c, 0x65, 0x4f, 0x70, 0x31, 0x00, 0x00, 0x00, 0x00,
//   0x01, 0x00, 0x00, 0x00, 0x09, 0x00, 0x00, 0x00, 0xfe, 0xfe, 0xff, 0xff,
//   0x00, 0x00, 0x00, 0x01, 0x10, 0x00, 0x00, 0x00, 0x10, 0x00, 0x00, 0x00,
//   0x14, 0x00, 0x00, 0x00, 0x2c, 0x00, 0x00, 0x00, 0x50, 0xf9, 0xff, 0xff,
//   0x1d, 0x00, 0x00, 0x00, 0x73, 0x65, 0x71, 0x75, 0x65, 0x6e, 0x74, 0x69,
//   0x61, 0x6c, 0x5f, 0x31, 0x2f, 0x63, 0x6f, 0x6e, 0x76, 0x31, 0x64, 0x5f,
//   0x33, 0x2f, 0x43, 0x6f, 0x6e, 0x76, 0x31, 0x44, 0x31, 0x00, 0x00, 0x00,
//   0x04, 0x00, 0x00, 0x00, 0x08, 0x00, 0x00, 0x00, 0x01, 0x00, 0x00, 0x00,
//   0x05, 0x00, 0x00, 0x00, 0x08, 0x00, 0x00, 0x00, 0x52, 0xff, 0xff, 0xff,
//   0x00, 0x00, 0x00, 0x01, 0x10, 0x00, 0x00, 0x00, 0x10, 0x00, 0x00, 0x00,
//   0x13, 0x00, 0x00, 0x00, 0x2c, 0x00, 0x00, 0x00, 0xa4, 0xf9, 0xff, 0xff,
//   0x1d, 0x00, 0x00, 0x00, 0x73, 0x65, 0x71, 0x75, 0x65, 0x6e, 0x74, 0x69,
//   0x61, 0x6c, 0x5f, 0x31, 0x2f, 0x63, 0x6f, 0x6e, 0x76, 0x31, 0x64, 0x5f,
//   0x32, 0x2f, 0x43, 0x6f, 0x6e, 0x76, 0x31, 0x44, 0x31, 0x00, 0x00, 0x00,
//   0x04, 0x00, 0x00, 0x00, 0x08, 0x00, 0x00, 0x00, 0x01, 0x00, 0x00, 0x00,
//   0x05, 0x00, 0x00, 0x00, 0x09, 0x00, 0x00, 0x00, 0xa6, 0xff, 0xff, 0xff,
//   0x00, 0x00, 0x00, 0x01, 0x10, 0x00, 0x00, 0x00, 0x10, 0x00, 0x00, 0x00,
//   0x12, 0x00, 0x00, 0x00, 0x3c, 0x00, 0x00, 0x00, 0xf8, 0xf9, 0xff, 0xff,
//   0x2d, 0x00, 0x00, 0x00, 0x73, 0x65, 0x71, 0x75, 0x65, 0x6e, 0x74, 0x69,
//   0x61, 0x6c, 0x5f, 0x31, 0x2f, 0x63, 0x6f, 0x6e, 0x76, 0x31, 0x64, 0x5f,
//   0x33, 0x2f, 0x42, 0x69, 0x61, 0x73, 0x41, 0x64, 0x64, 0x2f, 0x52, 0x65,
//   0x61, 0x64, 0x56, 0x61, 0x72, 0x69, 0x61, 0x62, 0x6c, 0x65, 0x4f, 0x70,
//   0x31, 0x00, 0x00, 0x00, 0x01, 0x00, 0x00, 0x00, 0x08, 0x00, 0x00, 0x00,
//   0x00, 0x00, 0x16, 0x00, 0x18, 0x00, 0x14, 0x00, 0x00, 0x00, 0x10, 0x00,
//   0x0c, 0x00, 0x08, 0x00, 0x00, 0x00, 0x00, 0x00, 0x00, 0x00, 0x07, 0x00,
//   0x16, 0x00, 0x00, 0x00, 0x00, 0x00, 0x00, 0x01, 0x10, 0x00, 0x00, 0x00,
//   0x10, 0x00, 0x00, 0x00, 0x11, 0x00, 0x00, 0x00, 0x3c, 0x00, 0x00, 0x00,
//   0x68, 0xfa, 0xff, 0xff, 0x2d, 0x00, 0x00, 0x00, 0x73, 0x65, 0x71, 0x75,
//   0x65, 0x6e, 0x74, 0x69, 0x61, 0x6c, 0x5f, 0x31, 0x2f, 0x63, 0x6f, 0x6e,
//   0x76, 0x31, 0x64, 0x5f, 0x32, 0x2f, 0x42, 0x69, 0x61, 0x73, 0x41, 0x64,
//   0x64, 0x2f, 0x52, 0x65, 0x61, 0x64, 0x56, 0x61, 0x72, 0x69, 0x61, 0x62,
//   0x6c, 0x65, 0x4f, 0x70, 0x31, 0x00, 0x00, 0x00, 0x01, 0x00, 0x00, 0x00,
//   0x08, 0x00, 0x00, 0x00, 0x56, 0xfb, 0xff, 0xff, 0x00, 0x00, 0x00, 0x01,
//   0x14, 0x00, 0x00, 0x00, 0x14, 0x00, 0x00, 0x00, 0x10, 0x00, 0x00, 0x00,
//   0x00, 0x00, 0x00, 0x01, 0x28, 0x00, 0x00, 0x00, 0xc4, 0xfa, 0xff, 0xff,
//   0x1b, 0x00, 0x00, 0x00, 0x73, 0x65, 0x71, 0x75, 0x65, 0x6e, 0x74, 0x69,
//   0x61, 0x6c, 0x5f, 0x31, 0x2f, 0x64, 0x65, 0x6e, 0x73, 0x65, 0x5f, 0x31,
//   0x2f, 0x4d, 0x61, 0x74, 0x4d, 0x75, 0x6c, 0x00, 0x02, 0x00, 0x00, 0x00,
//   0x09, 0x00, 0x00, 0x00, 0x60, 0x00, 0x00, 0x00, 0xa2, 0xfb, 0xff, 0xff,
//   0x00, 0x00, 0x00, 0x01, 0x14, 0x00, 0x00, 0x00, 0x14, 0x00, 0x00, 0x00,
//   0x0f, 0x00, 0x00, 0x00, 0x00, 0x00, 0x00, 0x01, 0x38, 0x00, 0x00, 0x00,
//   0x10, 0xfb, 0xff, 0xff, 0x2b, 0x00, 0x00, 0x00, 0x73, 0x65, 0x71, 0x75,
//   0x65, 0x6e, 0x74, 0x69, 0x61, 0x6c, 0x5f, 0x31, 0x2f, 0x64, 0x65, 0x6e,
//   0x73, 0x65, 0x5f, 0x31, 0x2f, 0x42, 0x69, 0x61, 0x73, 0x41, 0x64, 0x64,
//   0x2f, 0x52, 0x65, 0x61, 0x64, 0x56, 0x61, 0x72, 0x69, 0x61, 0x62, 0x6c,
//   0x65, 0x4f, 0x70, 0x00, 0x01, 0x00, 0x00, 0x00, 0x09, 0x00, 0x00, 0x00,
//   0xfa, 0xfb, 0xff, 0xff, 0x00, 0x00, 0x00, 0x01, 0x14, 0x00, 0x00, 0x00,
//   0x14, 0x00, 0x00, 0x00, 0x0e, 0x00, 0x00, 0x00, 0x00, 0x00, 0x00, 0x01,
//   0x2c, 0x00, 0x00, 0x00, 0x68, 0xfb, 0xff, 0xff, 0x1c, 0x00, 0x00, 0x00,
//   0x73, 0x65, 0x71, 0x75, 0x65, 0x6e, 0x74, 0x69, 0x61, 0x6c, 0x5f, 0x31,
//   0x2f, 0x63, 0x6f, 0x6e, 0x76, 0x31, 0x64, 0x5f, 0x33, 0x2f, 0x43, 0x6f,
//   0x6e, 0x76, 0x31, 0x44, 0x00, 0x00, 0x00, 0x00, 0x04, 0x00, 0x00, 0x00,
//   0x08, 0x00, 0x00, 0x00, 0x01, 0x00, 0x00, 0x00, 0x05, 0x00, 0x00, 0x00,
//   0x08, 0x00, 0x00, 0x00, 0x52, 0xfc, 0xff, 0xff, 0x00, 0x00, 0x00, 0x01,
//   0x14, 0x00, 0x00, 0x00, 0x14, 0x00, 0x00, 0x00, 0x0d, 0x00, 0x00, 0x00,
//   0x00, 0x00, 0x00, 0x01, 0x2c, 0x00, 0x00, 0x00, 0xc0, 0xfb, 0xff, 0xff,
//   0x1c, 0x00, 0x00, 0x00, 0x73, 0x65, 0x71, 0x75, 0x65, 0x6e, 0x74, 0x69,
//   0x61, 0x6c, 0x5f, 0x31, 0x2f, 0x63, 0x6f, 0x6e, 0x76, 0x31, 0x64, 0x5f,
//   0x32, 0x2f, 0x43, 0x6f, 0x6e, 0x76, 0x31, 0x44, 0x00, 0x00, 0x00, 0x00,
//   0x04, 0x00, 0x00, 0x00, 0x08, 0x00, 0x00, 0x00, 0x01, 0x00, 0x00, 0x00,
//   0x05, 0x00, 0x00, 0x00, 0x09, 0x00, 0x00, 0x00, 0xaa, 0xfc, 0xff, 0xff,
//   0x00, 0x00, 0x00, 0x01, 0x14, 0x00, 0x00, 0x00, 0x14, 0x00, 0x00, 0x00,
//   0x0c, 0x00, 0x00, 0x00, 0x00, 0x00, 0x00, 0x01, 0x3c, 0x00, 0x00, 0x00,
//   0x18, 0xfc, 0xff, 0xff, 0x2c, 0x00, 0x00, 0x00, 0x73, 0x65, 0x71, 0x75,
//   0x65, 0x6e, 0x74, 0x69, 0x61, 0x6c, 0x5f, 0x31, 0x2f, 0x63, 0x6f, 0x6e,
//   0x76, 0x31, 0x64, 0x5f, 0x33, 0x2f, 0x42, 0x69, 0x61, 0x73, 0x41, 0x64,
//   0x64, 0x2f, 0x52, 0x65, 0x61, 0x64, 0x56, 0x61, 0x72, 0x69, 0x61, 0x62,
//   0x6c, 0x65, 0x4f, 0x70, 0x00, 0x00, 0x00, 0x00, 0x01, 0x00, 0x00, 0x00,
//   0x08, 0x00, 0x00, 0x00, 0x06, 0xfd, 0xff, 0xff, 0x00, 0x00, 0x00, 0x01,
//   0x14, 0x00, 0x00, 0x00, 0x14, 0x00, 0x00, 0x00, 0x0b, 0x00, 0x00, 0x00,
//   0x00, 0x00, 0x00, 0x01, 0x3c, 0x00, 0x00, 0x00, 0x74, 0xfc, 0xff, 0xff,
//   0x2c, 0x00, 0x00, 0x00, 0x73, 0x65, 0x71, 0x75, 0x65, 0x6e, 0x74, 0x69,
//   0x61, 0x6c, 0x5f, 0x31, 0x2f, 0x63, 0x6f, 0x6e, 0x76, 0x31, 0x64, 0x5f,
//   0x32, 0x2f, 0x42, 0x69, 0x61, 0x73, 0x41, 0x64, 0x64, 0x2f, 0x52, 0x65,
//   0x61, 0x64, 0x56, 0x61, 0x72, 0x69, 0x61, 0x62, 0x6c, 0x65, 0x4f, 0x70,
//   0x00, 0x00, 0x00, 0x00, 0x01, 0x00, 0x00, 0x00, 0x08, 0x00, 0x00, 0x00,
//   0x62, 0xfd, 0xff, 0xff, 0x00, 0x00, 0x00, 0x01, 0x14, 0x00, 0x00, 0x00,
//   0x14, 0x00, 0x00, 0x00, 0x0a, 0x00, 0x00, 0x00, 0x00, 0x00, 0x00, 0x02,
//   0x34, 0x00, 0x00, 0x00, 0xd0, 0xfc, 0xff, 0xff, 0x24, 0x00, 0x00, 0x00,
//   0x73, 0x65, 0x71, 0x75, 0x65, 0x6e, 0x74, 0x69, 0x61, 0x6c, 0x5f, 0x31,
//   0x2f, 0x63, 0x6f, 0x6e, 0x76, 0x31, 0x64, 0x5f, 0x32, 0x2f, 0x43, 0x6f,
//   0x6e, 0x76, 0x31, 0x44, 0x2f, 0x53, 0x71, 0x75, 0x65, 0x65, 0x7a, 0x65,
//   0x00, 0x00, 0x00, 0x00, 0x01, 0x00, 0x00, 0x00, 0x03, 0x00, 0x00, 0x00,
//   0xb6, 0xfd, 0xff, 0xff, 0x00, 0x00, 0x00, 0x01, 0x14, 0x00, 0x00, 0x00,
//   0x14, 0x00, 0x00, 0x00, 0x09, 0x00, 0x00, 0x00, 0x00, 0x00, 0x00, 0x02,
//   0x34, 0x00, 0x00, 0x00, 0x24, 0xfd, 0xff, 0xff, 0x24, 0x00, 0x00, 0x00,
//   0x73, 0x65, 0x71, 0x75, 0x65, 0x6e, 0x74, 0x69, 0x61, 0x6c, 0x5f, 0x31,
//   0x2f, 0x63, 0x6f, 0x6e, 0x76, 0x31, 0x64, 0x5f, 0x33, 0x2f, 0x43, 0x6f,
//   0x6e, 0x76, 0x31, 0x44, 0x2f, 0x53, 0x71, 0x75, 0x65, 0x65, 0x7a, 0x65,
//   0x00, 0x00, 0x00, 0x00, 0x01, 0x00, 0x00, 0x00, 0x03, 0x00, 0x00, 0x00,
//   0x0a, 0xfe, 0xff, 0xff, 0x00, 0x00, 0x00, 0x01, 0x14, 0x00, 0x00, 0x00,
//   0x14, 0x00, 0x00, 0x00, 0x05, 0x00, 0x00, 0x00, 0x00, 0x00, 0x00, 0x02,
//   0x3c, 0x00, 0x00, 0x00, 0x78, 0xfd, 0xff, 0xff, 0x2c, 0x00, 0x00, 0x00,
//   0x73, 0x65, 0x71, 0x75, 0x65, 0x6e, 0x74, 0x69, 0x61, 0x6c, 0x5f, 0x31,
//   0x2f, 0x72, 0x65, 0x73, 0x68, 0x61, 0x70, 0x65, 0x5f, 0x31, 0x2f, 0x73,
//   0x74, 0x72, 0x69, 0x64, 0x65, 0x64, 0x5f, 0x73, 0x6c, 0x69, 0x63, 0x65,
//   0x2f, 0x73, 0x74, 0x61, 0x63, 0x6b, 0x5f, 0x31, 0x00, 0x00, 0x00, 0x00,
//   0x01, 0x00, 0x00, 0x00, 0x01, 0x00, 0x00, 0x00, 0x66, 0xfe, 0xff, 0xff,
//   0x00, 0x00, 0x00, 0x01, 0x14, 0x00, 0x00, 0x00, 0x14, 0x00, 0x00, 0x00,
//   0x07, 0x00, 0x00, 0x00, 0x00, 0x00, 0x00, 0x02, 0x38, 0x00, 0x00, 0x00,
//   0xd4, 0xfd, 0xff, 0xff, 0x2a, 0x00, 0x00, 0x00, 0x73, 0x65, 0x71, 0x75,
//   0x65, 0x6e, 0x74, 0x69, 0x61, 0x6c, 0x5f, 0x31, 0x2f, 0x72, 0x65, 0x73,
//   0x68, 0x61, 0x70, 0x65, 0x5f, 0x31, 0x2f, 0x73, 0x74, 0x72, 0x69, 0x64,
//   0x65, 0x64, 0x5f, 0x73, 0x6c, 0x69, 0x63, 0x65, 0x2f, 0x73, 0x74, 0x61,
//   0x63, 0x6b, 0x00, 0x00, 0x01, 0x00, 0x00, 0x00, 0x01, 0x00, 0x00, 0x00,
//   0xbe, 0xfe, 0xff, 0xff, 0x00, 0x00, 0x00, 0x01, 0x14, 0x00, 0x00, 0x00,
//   0x14, 0x00, 0x00, 0x00, 0x06, 0x00, 0x00, 0x00, 0x00, 0x00, 0x00, 0x02,
//   0x34, 0x00, 0x00, 0x00, 0x2c, 0xfe, 0xff, 0xff, 0x26, 0x00, 0x00, 0x00,
//   0x73, 0x65, 0x71, 0x75, 0x65, 0x6e, 0x74, 0x69, 0x61, 0x6c, 0x5f, 0x31,
//   0x2f, 0x72, 0x65, 0x73, 0x68, 0x61, 0x70, 0x65, 0x5f, 0x31, 0x2f, 0x52,
//   0x65, 0x73, 0x68, 0x61, 0x70, 0x65, 0x2f, 0x73, 0x68, 0x61, 0x70, 0x65,
//   0x2f, 0x32, 0x00, 0x00, 0x00, 0x00, 0x00, 0x00, 0x0e, 0xff, 0xff, 0xff,
//   0x00, 0x00, 0x00, 0x01, 0x14, 0x00, 0x00, 0x00, 0x14, 0x00, 0x00, 0x00,
//   0x05, 0x00, 0x00, 0x00, 0x00, 0x00, 0x00, 0x02, 0x34, 0x00, 0x00, 0x00,
//   0x7c, 0xfe, 0xff, 0xff, 0x26, 0x00, 0x00, 0x00, 0x73, 0x65, 0x71, 0x75,
//   0x65, 0x6e, 0x74, 0x69, 0x61, 0x6c, 0x5f, 0x31, 0x2f, 0x72, 0x65, 0x73,
//   0x68, 0x61, 0x70, 0x65, 0x5f, 0x31, 0x2f, 0x52, 0x65, 0x73, 0x68, 0x61,
//   0x70, 0x65, 0x2f, 0x73, 0x68, 0x61, 0x70, 0x65, 0x2f, 0x31, 0x00, 0x00,
//   0x00, 0x00, 0x00, 0x00, 0x5e, 0xff, 0xff, 0xff, 0x00, 0x00, 0x00, 0x01,
//   0x14, 0x00, 0x00, 0x00, 0x14, 0x00, 0x00, 0x00, 0x04, 0x00, 0x00, 0x00,
//   0x00, 0x00, 0x00, 0x02, 0x38, 0x00, 0x00, 0x00, 0xcc, 0xfe, 0xff, 0xff,
//   0x2b, 0x00, 0x00, 0x00, 0x73, 0x65, 0x71, 0x75, 0x65, 0x6e, 0x74, 0x69,
//   0x61, 0x6c, 0x5f, 0x31, 0x2f, 0x6d, 0x61, 0x78, 0x5f, 0x70, 0x6f, 0x6f,
//   0x6c, 0x69, 0x6e, 0x67, 0x31, 0x64, 0x5f, 0x31, 0x2f, 0x45, 0x78, 0x70,
//   0x61, 0x6e, 0x64, 0x44, 0x69, 0x6d, 0x73, 0x2f, 0x64, 0x69, 0x6d, 0x00,
//   0x00, 0x00, 0x00, 0x00, 0xb2, 0xff, 0xff, 0xff, 0x00, 0x00, 0x00, 0x01,
//   0x14, 0x00, 0x00, 0x00, 0x14, 0x00, 0x00, 0x00, 0x03, 0x00, 0x00, 0x00,
//   0x00, 0x00, 0x00, 0x02, 0x2c, 0x00, 0x00, 0x00, 0x20, 0xff, 0xff, 0xff,
//   0x1c, 0x00, 0x00, 0x00, 0x73, 0x65, 0x71, 0x75, 0x65, 0x6e, 0x74, 0x69,
//   0x61, 0x6c, 0x5f, 0x31, 0x2f, 0x66, 0x6c, 0x61, 0x74, 0x74, 0x65, 0x6e,
//   0x5f, 0x31, 0x2f, 0x43, 0x6f, 0x6e, 0x73, 0x74, 0x00, 0x00, 0x00, 0x00,
//   0x01, 0x00, 0x00, 0x00, 0x02, 0x00, 0x00, 0x00, 0x00, 0x00, 0x16, 0x00,
//   0x1c, 0x00, 0x18, 0x00, 0x17, 0x00, 0x10, 0x00, 0x0c, 0x00, 0x08, 0x00,
//   0x00, 0x00, 0x00, 0x00, 0x00, 0x00, 0x07, 0x00, 0x16, 0x00, 0x00, 0x00,
//   0x00, 0x00, 0x00, 0x01, 0x14, 0x00, 0x00, 0x00, 0x14, 0x00, 0x00, 0x00,
//   0x02, 0x00, 0x00, 0x00, 0x00, 0x00, 0x00, 0x02, 0x38, 0x00, 0x00, 0x00,
//   0x84, 0xff, 0xff, 0xff, 0x2b, 0x00, 0x00, 0x00, 0x73, 0x65, 0x71, 0x75,
//   0x65, 0x6e, 0x74, 0x69, 0x61, 0x6c, 0x5f, 0x31, 0x2f, 0x63, 0x6f, 0x6e,
//   0x76, 0x31, 0x64, 0x5f, 0x32, 0x2f, 0x43, 0x6f, 0x6e, 0x76, 0x31, 0x44,
//   0x2f, 0x45, 0x78, 0x70, 0x61, 0x6e, 0x64, 0x44, 0x69, 0x6d, 0x73, 0x2f,
//   0x64, 0x69, 0x6d, 0x00, 0x00, 0x00, 0x00, 0x00, 0x00, 0x00, 0x16, 0x00,
//   0x1c, 0x00, 0x18, 0x00, 0x00, 0x00, 0x14, 0x00, 0x10, 0x00, 0x0c, 0x00,
//   0x00, 0x00, 0x00, 0x00, 0x08, 0x00, 0x07, 0x00, 0x16, 0x00, 0x00, 0x00,
//   0x00, 0x00, 0x00, 0x01, 0x14, 0x00, 0x00, 0x00, 0x24, 0x00, 0x00, 0x00,
//   0x24, 0x00, 0x00, 0x00, 0x01, 0x00, 0x00, 0x00, 0x44, 0x00, 0x00, 0x00,
//   0x03, 0x00, 0x00, 0x00, 0xff, 0xff, 0xff, 0xff, 0x2d, 0x00, 0x00, 0x00,
//   0x09, 0x00, 0x00, 0x00, 0x04, 0x00, 0x04, 0x00, 0x04, 0x00, 0x00, 0x00,
//   0x20, 0x00, 0x00, 0x00, 0x73, 0x65, 0x72, 0x76, 0x69, 0x6e, 0x67, 0x5f,
//   0x64, 0x65, 0x66, 0x61, 0x75, 0x6c, 0x74, 0x5f, 0x63, 0x6f, 0x6e, 0x76,
//   0x31, 0x64, 0x5f, 0x32, 0x5f, 0x69, 0x6e, 0x70, 0x75, 0x74, 0x3a, 0x30,
//   0x00, 0x00, 0x00, 0x00, 0x03, 0x00, 0x00, 0x00, 0x01, 0x00, 0x00, 0x00,
//   0x2d, 0x00, 0x00, 0x00, 0x09, 0x00, 0x00, 0x00, 0x09, 0x00, 0x00, 0x00,
//   0x9c, 0x00, 0x00, 0x00, 0x80, 0x00, 0x00, 0x00, 0x64, 0x00, 0x00, 0x00,
//   0x54, 0x00, 0x00, 0x00, 0x44, 0x00, 0x00, 0x00, 0x34, 0x00, 0x00, 0x00,
//   0x24, 0x00, 0x00, 0x00, 0x14, 0x00, 0x00, 0x00, 0x04, 0x00, 0x00, 0x00,
//   0xac, 0xff, 0xff, 0xff, 0x53, 0x00, 0x00, 0x00, 0x00, 0x00, 0x00, 0x53,
//   0xb8, 0xff, 0xff, 0xff, 0x2d, 0x00, 0x00, 0x00, 0x00, 0x00, 0x00, 0x2d,
//   0xc4, 0xff, 0xff, 0xff, 0x4d, 0x00, 0x00, 0x00, 0x00, 0x00, 0x00, 0x4d,
//   0xd0, 0xff, 0xff, 0xff, 0x09, 0x00, 0x00, 0x00, 0x00, 0x00, 0x00, 0x09,
//   0xdc, 0xff, 0xff, 0xff, 0x11, 0x00, 0x00, 0x00, 0x00, 0x00, 0x00, 0x11,
//   0xe8, 0xff, 0xff, 0xff, 0x16, 0x00, 0x00, 0x00, 0x00, 0x00, 0x00, 0x16,
//   0xf4, 0xff, 0xff, 0xff, 0x03, 0x00, 0x00, 0x00, 0x00, 0x00, 0x00, 0x03,
//   0x0c, 0x00, 0x0c, 0x00, 0x0b, 0x00, 0x00, 0x00, 0x00, 0x00, 0x04, 0x00,
//   0x0c, 0x00, 0x00, 0x00, 0x46, 0x00, 0x00, 0x00, 0x00, 0x00, 0x00, 0x46,
//   0x0c, 0x00, 0x10, 0x00, 0x0f, 0x00, 0x00, 0x00, 0x08, 0x00, 0x04, 0x00,
//   0x0c, 0x00, 0x00, 0x00, 0x06, 0x00, 0x00, 0x00, 0x03, 0x00, 0x00, 0x00,
//   0x00, 0x00, 0x00, 0x06
// };

// const int g_model_len = sizeof(g_model);

// // unsigned int _tf_models_tinyML_models_model_v1_quantized_float16_tflite_len = 9472;